#version: 0.2 - Trained by `huggingface/tokenizers`
e r
e n
e t
Ġ a
Ġ d
o r
Ġ f
Ġ s
Ġ o
i n
t i
Ġ m
Ã ¥
Ã ¦
e d
Ġf or
a n
e l
Ġ v
i g
Ã ¸
Ġ h
Ġ i
e s
Ġo g
Ġ b
Ġa t
in g
i s
a r
Ġ p
o m
r e
Ġ k
o n
l e
Ġa f
ti l
t e
k e
d e
Ġ er
n e
Ġ til
Ġv i
Ġ g
a l
Ġ en
t er
Ġd et
a g
Ġ u
e g
s t
n d
n ing
Ġ n
r o
el s
Ã¸ r
Ġd en
l ig
Ġd er
an d
Ġd e
Ġo m
Ġm ed
r a
Ġ t
o l
Ġ in
Ġp Ã¥
Ġ l
Ġs t
Ġs om
k ke
a m
v er
s k
Ã¦ r
h ed
Ġu d
Ġh ar
r u
d er
Ġi kke
Ġs k
a t
l er
en t
Ġ E
Ġvi l
ti on
en de
s i
er ne
Ġ r
e k
i k
els e
Ġ j
om m
i d
Ġ et
f or
Ã¥ r
ti g
u ro
er e
le m
Ġin d
v e
D et
i l
Ġ e
Ġo p
uro p
Ġm en
Ġh v
b e
Ġa l
Ġj eg
en s
i t
g e
r Ã¦
ed e
el ig
u r
u n
s l
is ke
s te
s e
J eg
Ġo ver
Ġsk al
s p
o g
o d
Ġa n
Ġk an
a tion
Ã¦ l
omm is
Ġ re
a b
si on
k er
i ti
Ġfor m
m m
g er
Ġ Ã¸
Ġ D
s Ã¥
in d
Ġv ed
Ġs am
s ke
d et
Ã¦ n
l ing
Ġb es
Ã¥ l
Ġs ig
Ġ K
be j
Ġog sÃ¥
r i
or d
a d
a le
lig e
Ġf re
Ġ -
s m
ti d
Ġb et
g i
Ġv Ã¦
k t
r ing
ĠE urop
ĠE U
Ġp ro
l i
t ning
ommis sion
l am
Ġs Ã¥
an g
nd er
ar lam
Ġs p
Ġk on
k ning
en d
u l
Ġf ra
arlam ent
ol iti
Ġform and
u d
Ġb e
Ġden ne
n es
v is
Ġm Ã¥
o v
Ġa r
V i
Ġg en
Ġfor b
ol d
Ġfre m
a ter
Ġdet te
sl ag
P arlament
Ġm an
ĠK ommission
Parlament et
f f
t te
f ter
Ã¦ nd
ti v
c i
Ġu nder
ĠvÃ¦ re
Ġ R
Ġr et
Ġa nd
ne m
Ġmed lem
f Ã¸r
Ã¸ re
hed er
ig tig
p p
v ar
is k
ag e
o k
t t
Ã¦ g
Ã¦ iske
is se
le v
g et
lig t
el ler
or t
ĠEurop a
el t
l es
els er
en e
Ġk un
Ġud v
s s
s st
or es
Ġn og
r et
Ġal le
h and
it et
eg et
Ġar bej
r Ã¥
Ġ 1
els en
Ġg ru
Ġb lev
f t
Ġh er
Ġv ores
Ġhv or
sk ab
Ã¸ d
0 0
ig e
Ġ 2
Ġen d
Ġ F
y d
a v
ĠKommission en
ĠD e
Ġb li
Ġm eget
k s
Ã¸r g
l u
Ġ U
Ġs ik
H r
Ġ eller
Ġm in
a k
Ġ S
sm Ã¥l
Ġe urop
Ġn y
y n
Ġv ar
Ġp oliti
k on
Ġf Ã¸r
is t
Ã¸rg smÃ¥l
Ã¸ j
Ġde m
Ã¦n kning
Ġm u
s er
Ġh r
Ġ Ã¥r
v Ã¦r
m en
Ġd isse
Ġgen nem
Ġv igtig
ru g
ar t
Ġm od
D er
v end
u nd
d i
ig t
Ġo s
Ã¦l les
Ġf in
Ġ Parlamentet
c e
Ġe fter
Ġl and
Ġst Ã¸
Ġb Ã¸r
v al
Ġmedlem sst
r ed
y g
or g
h old
kon om
Ġsp Ã¸rgsmÃ¥l
Ġg erne
s for
el le
k k
Ġn u
ĠR Ã¥
el lem
Ġin ter
es t
s Ã¦r
Ġk omm
ar bej
Ġbet Ã¦nkning
t al
Ġ B
s at
Ġmedlemsst ater
y r
Ġk l
Ġ M
Ġder es
b er
ag er
an de
Ġ Ã¦nd
s Ã¦
el v
hand ling
m er
Ġgru nd
Ã¸ l
Ġg i
Ġm ellem
d el
Ġfor slag
Ġm ere
er ing
i on
Ġh ens
ar k
Ġvi r
Ġ tid
Ġv Ã¦r
Ġd ag
j e
m e
m p
ĠRÃ¥ det
Ġf Ã¦lles
Ġudv ik
a st
Ġd i
ĠÃ¸ konom
ig hed
k et
elig e
Ġn Ã¸d
o p
ag t
Ġbes k
D en
Ġeurop Ã¦iske
a ve
Ġb ek
Ġbes lu
t ag
v i
b lem
Ġ A
Ġmen nes
l and
l Ã¦g
mm e
Ġs elv
d en
Ġ I
Ġg Ã¸re
Ġr es
ning er
ning en
Ġm il
F or
ek t
Â ł
s Ã¸
' s
Ġfor sk
d an
el e
r er
Ġforb ind
Ġs id
Ġl Ã¸
Ġst or
Ġp r
ek s
Ġb eg
Ġand re
Ġom rÃ¥
rÃ¦ n
ark ed
id ler
k tiv
Ã¦n g
Ġhv is
ste m
ĠÃ¦nd ring
t ter
es te
Ġm ig
tning er
r an
ĠÃ¸ n
Ġ ord
l an
Ġ ra
lig hed
y der
Ġg od
Ġf Ã¥
Ġpro blem
a s
Ġh and
f at
o ci
Ġarbej d
elig t
Ġbli ver
Ġ (
ks om
l ik
g ang
Ġi m
id t
Ġudvik ling
s var
sfor slag
ro l
ed es
Ġfor t
g ra
ĠstÃ¸ tte
u s
Ġh en
Ġ L
Ġind en
Ġn Ã¦
i en
ul t
Ġder for
a ti
Ġkun ne
t en
un kt
Ġny e
Ġ T
els es
Ġud en
j er
ation ale
l o
Ġmen er
Ġman ge
m Ã¦r
r ag
Ġl ande
c h
ĠEurop Ã¦iske
Ġforbind else
Ġs it
Ġh ave
Ġ G
Ġl ov
g Ã¸r
l et
Ġmennes ker
Ġblev et
ker hed
ĠD en
ĠnÃ¸d vend
l y
ĠÃ¸n sk
d u
Ġvil le
Ġkon k
gi v
Ġb ed
ommis sÃ¦r
Ġm ind
Ġ P
Ġhens yn
n ion
D e
ra ti
Ġn Ã¥r
t et
Ġhv il
u m
Ġfin an
Ġbli ve
r ig
y tt
g ende
y l
Ġ Det
Ġ2 00
Ġ C
er s
Ġs in
c er
n u
j en
Ġs te
Ġk ommissÃ¦r
st al
Ġh Ã¥
Ġsig e
r Ã¸
Ġh Ã¸j
Ġhv ad
Ġ te
ter e
Ġt o
Ġs oci
Ġnog le
l ag
s ti
ĠfÃ¸r ste
t u
Ġsam men
ing en
Ġdi re
an stal
Ġs Ã¦r
ĠU nion
n er
Ġbeslu tning
b lik
tig heder
Ġm Ã¥l
Ġf Ã¸l
Ġs y
is ter
Ġtil f
Ġfor di
s en
Ġk om
v en
arbej de
Ġal t
h ol
Ġh an
p ro
Ġ lig
Ġa d
ud get
Ġvigtig t
s om
Ġre g
ler e
ing er
Ġst Ã¸r
d t
Ġm arked
a f
k tion
ĠÃ¸nsk er
Ã¸ de
for m
r y
ĠÃ¦ndring sforslag
ĠvÃ¦r et
Ġf ast
fÃ¸r er
u ation
Ġal ler
Ġb rug
Ġsik re
Ġkon t
M en
k en
Ġarbej de
al t
Ġ Hr
oliti k
v et
Ġd el
Ġfinan si
f tig
ok rati
Ġo ff
Ġre ger
Ġg Ã¸r
Ġnog et
Ã¥ et
Ġfor handling
c es
Ġv is
Ã¦ re
r en
for d
y nd
r or
b et
Ġ ek
at ur
anstal tninger
Ġf ul
on er
ĠDe m
Ġsit uation
Ġinter n
Ã¥ b
o s
sti tu
Ġaller ede
lig ere
Ġforsk el
ĠsÃ¥ dan
al g
al is
val get
j Ã¸
Ġh elt
Ġs ag
der e
e j
ar e
Ġend nu
Ġgennem fÃ¸r
k l
mm er
v in
H v
Ã¦ ss
sp ro
Ġk ol
Ġbe f
et s
ff ek
Ġs til
r Ã¸r
b rug
ĠÃ¸konom iske
Ġk r
Ġst ad
l ad
Ã ©
Ġ le
Ġh old
al d
Ġst ed
Ġmedlemsstater ne
Ġpoliti k
g Ã¥r
stitu tion
Ġf ru
an ske
k el
Ġd a
Ġre gi
ra kt
a u
k ter
Ġfor es
Ġbe h
j Ã¦l
er es
Ġv er
Ġt al
Ġoff ent
Ġsik kerhed
Ġpoliti ske
Ġtil b
Ġpro du
Ġdem okrati
t ry
m in
ĠmÃ¥ de
Ġh ele
Ġbet yd
r idt
i er
Ġp ar
Ġs e
Ġst ra
Ġn atur
Ġkom p
Ġmu ligt
ĠKommission ens
Ġkol le
Ġl ang
t rÃ¦
Ġan svar
in ci
Ġand en
av n
Ġeurop Ã¦
Ġs i
Ġand et
st re
Ġp ri
Ġved rÃ¸r
f Ã¸re
o de
Ġgi ve
an is
Ġhvil ket
jÃ¦l p
Ġstad ig
ti sk
Ġb udget
sÃ¸ g
Ġfor anstaltninger
Ġ "
ce p
g Ã¥
Ġvir ksom
Ġ N
Ġ eg
st ru
lig vis
Ġbes te
Ġ c
Ġan vend
idler tid
Ġb org
Ġfrem tid
Ġinter es
Ġg Ã¦l
Ġmu lighed
Ġ1 9
Ġmil jÃ¸
Ġe ffek
Ġk ra
m t
Der for
Ã¦ mp
Ã¥l edes
Ġstor e
a p
Ġl y
v es
ning s
Ġg ang
Ġg Ã¥r
Ġsk a
Ġh av
Ġforskel lige
Ġte k
Ġp o
u t
Âł Âł
Ġl i
Ġlov giv
k elig
Ġ nem
Ġi sÃ¦r
Ġreger ing
Ġen er
c ed
Ġt age
tig hed
o b
H vis
Ã¥ de
Ġkl art
Ġsam arbejde
Ġnog en
r es
s ent
Ġsam me
Ġs Ã¥ledes
er et
ring er
Ġgod t
Ġp rÃ¦
ru pp
rakt at
Ġsid ste
ekt or
ĠomrÃ¥ de
Ġs u
Ġgru pp
g en
Ã¦r d
sl u
a ft
Ġf ri
Ġ yder
Ġdire ktiv
Ġnem lig
ord an
Ġforb ed
ter ne
Ġkonk ur
Ġg j
Ġst yr
h Ã¦ng
Det te
Ġfores l
Ġp lan
ol kning
Ġbeh ov
ĠnÃ¦ v
f und
Ġk rÃ¦
Ġfor hold
Ġmennesker et
u st
f Ã¸l
ĠeuropÃ¦ isk
s b
Ġf ol
Ġe m
Ġkomm er
Ġaf gÃ¸r
er i
tag et
c cep
h ver
kt ur
Ġmin e
Ġp ers
Ġt rÃ¦
Ġ Jeg
Ġb id
Ġu nd
l ede
ig heder
Ġb lo
Ġud try
hed en
Ġh jÃ¦lp
K ommission
Ġtilf Ã¦l
Ġ lige
a ss
ord en
ĠlÃ¸ s
Ġop n
n et
Ġ V
Ġfor st
Ġgi ver
Ġim idlertid
Ġst at
vin der
Ġp unkt
Ġf lere
f i
ation er
o ur
Ġt ale
Ġv el
Ġin stitution
l en
Ġres ult
Ġ H
fat t
sp ort
st Ã¦nd
Ġkonkur ren
i m
a kke
Ġh ver
Ã¦ kke
Ġm ang
s et
Ġan gÃ¥r
l a
Ġord fÃ¸rer
inci pp
m ed
Ġn ationale
Ã¦ ftig
Ġvir kelig
Ġn et
o der
Ġsi de
ytt else
Ġblo t
ĠstÃ¸r re
Ġ ig
Ġ %
Ġsam t
Ġproblem er
ti ve
a tiv
Ġst and
k end
Ġkont rol
f te
ĠU d
Ġst Ã¥r
ed er
ru nd
ĠnÃ¸dvend igt
b yg
Ġin de
te gi
ĠomrÃ¥ der
Ġeffek tiv
l Ã¦
Ġ 3
ĠhÃ¥ ber
Ġbed re
Ġop ford
vÃ¦r ende
Ġmen ing
Ġd og
Ġv an
Ġr Ã¥
Ġf Ã¥r
ĠF or
els erne
ol og
Ġunder stre
Ġnatur ligvis
Ġret tigheder
sl and
vi r
v il
Ġhav de
f er
Ġs en
ek ter
Ġs er
ĠD eres
r ik
Ġv alg
Ġt ro
Ġh ur
Ġland brug
org anis
Ã¸ n
Ġt red
sp unkt
an ge
Ġhold ning
Ġsoci ale
ĠbetÃ¦nkning en
Ġhur tig
Ġs Ã¦
p rÃ¦
om rÃ¥
Ġr ed
Ġg ra
s f
Ġ Ã¥b
Ġregi on
Ġ2 0
Ġim od
Ġbesk Ã¦ftig
Ġt ror
ag et
il itet
t ale
or i
Ġg rÃ¦n
Ġd rÃ¸
Ġbef olkning
Ã¸r er
Ġener gi
Ġgrund lÃ¦g
Ġu n
o ver
Ġhv ordan
Ġk vinder
Ġfre mme
Ġ rol
ust ri
ĠvedrÃ¸r ende
Ġr Ã¦kke
Ġformand skab
st en
yl d
Ġb Ã¥de
ly s
Ġop mÃ¦r
O g
Ġlovgiv ning
Ġt ran
Kommission en
Ġs var
f Ã¦rd
c en
Ġtilb age
ĠgrundlÃ¦g gende
Ġvirksom heder
Ġs m
ĠÃ¸ je
Ġsid en
und hed
Ġfort sat
te g
Ġind sat
d s
Ġgen er
am er
S om
Ġ ingen
Ġrol le
Ġsk ul
Ġt jen
Ġkomm e
Ġgj ort
Ġt ak
sÃ¦ tte
e m
sp olitik
Ġintern ationale
Ġa ccep
Ġg lÃ¦
Ġpoliti sk
Ġska be
Ġkon s
Ġ19 9
y m
Ġsam fund
M ed
men ter
Ġl u
Ġskul le
Ã ĺ
dan n
Ġfrem sk
st rÃ¦
Ġe uro
Ġd elt
Ġmil li
Ġver den
Ġt akke
Ġpo si
Ġp en
ĠstÃ¸ tter
Ġkolle ger
Ġvan sk
Ġmind re
v or
Ġpro gra
Ġn avn
S A
Ġgra d
is ker
Ġbek Ã¦mp
Ġn ed
ti ske
g es
si k
l ed
Ġal vor
Ġfor p
Ġtek n
ĠfÃ¸r st
y tte
Ġig en
s til
Ġ ter
v ent
sÃ¦ tt
Ġ eks
Ġin iti
Ġsp il
P Ã¥
ĠÃ¸konom isk
Ġan m
b at
an t
Ġop ret
Ġfor h
Ġre prÃ¦
ĠgÃ¦l der
ĠopmÃ¦r ksom
or ger
ĠParlamentet s
Ġfor s
Ġkl ar
Ġm idler
raktat en
i ve
Ġbek ym
Ġmedlem mer
Ġful d
Ã¸ b
Ġnu vÃ¦rende
ĠrÃ¥ d
ak tisk
ĠÃ¸je blik
Ġret ning
lo b
k omm
Hv ad
k o
Ġudv id
tid ig
si d
Ġf red
Ã¦ss ige
Ġd isk
E n
Ġd re
Ġt re
m ent
i et
Ġvigtig e
Ġkr is
Ġindsat s
ult ur
ord ning
Ġres p
tt et
Ġfin der
Ġr igtig
Ġb i
ti kel
ĠspÃ¸rgsmÃ¥l et
Ġopn Ã¥
Ġfinansi elle
Ġs agt
kk en
yr k
Ã¦l d
Ġnet op
Ġher rer
Ġp arlament
ĠU SA
Ġh el
lig heder
ĠvÃ¦ k
es k
Ġde bat
Ġf at
Ġ 5
Ġd amer
Ġm ynd
ov ed
Ġaf tal
h Ã¦
st ra
Ġtid ligere
Ġbeg rÃ¦n
Ġfor del
ive au
Ġd es
Ġs undhed
Ġg Ã¥
Ġmenneskeret tighed
m a
t age
ĠafgÃ¸r ende
Ã¸ s
Ġfin de
ind es
k te
Ġaf tale
Ġf aktisk
hol der
Ġbeste mm
Ġa ktiv
Ġfremsk ridt
Ġsoci al
ru ger
Ġbe mÃ¦r
ter er
Ġpers on
ru ktur
k ker
Ġr is
F ru
u nder
Ġg lob
m te
un kter
l ov
ud valget
g t
p olitik
Ġhen blik
Ġv isse
ĠtilfÃ¦l de
Ġste mme
Ġoffent lige
Den ne
v and
ste mm
fer en
v ens
ter et
Ġf r
Ġbetyd ning
y de
Ġ Ãĺ
Ġt ager
Ġforp ligt
Ġf a
Ġaf slu
Ġl a
Ġsk ab
Ġborg ere
Ġk val
Ġaf stem
and en
strÃ¦ kk
Ġ W
Ġtal er
Ġ 4
e ci
Ġfol k
Ġin form
ĠUd valget
Ġnavn lig
ĠfÃ¦lles skab
b an
Ġdre jer
Ġar tikel
s orden
Ġind re
Ġop f
am p
Ġfor et
Ġt ing
ĠRÃ¥det s
u ler
Ġt ru
Ġpr incipp
Ġbe v
Ġf indes
Ġk or
Ã¸ det
ĠfÃ¸l ge
Ġn Ã¥
Ġbe hand
u re
Ġgrund lag
Ġsy stem
ĠtrÃ¦ ff
ĠordfÃ¸rer en
Ġ J
ĠsÃ¦r lig
Ġp ra
Ġop lys
Ġyder ligere
Ġb er
u g
Ġf isker
v el
ud en
y stem
ation al
ent r
Ġ organis
Ġ O
Ġkonkurren ce
r id
Ġb il
ĠmÃ¥ ske
Ġs yn
d ens
Ġsp eci
om st
Ġreg ler
Ġst Ã¦r
s ag
r is
s yn
Ġb l
Ġb ag
Ġvi dere
ering en
Ġsag de
ced ur
Ġkra v
yg tig
E U
Ġal tid
ĠnÃ¦v n
Ġved taget
Ġad gang
sÃ¦ tning
Ġst ruktur
Ġind fÃ¸r
is me
Ġs ektor
ra f
f in
Ġhan s
tion er
Ġl Ã¦ng
st and
kl Ã¦r
rupp en
mm et
m ber
Ã¦lles skab
t es
Ġud dann
Ġf un
omm e
u elle
ĠlÃ¸s ning
se mp
Ġan er
Ġst ab
r ede
Ġhand ling
sk ri
r age
Ġbet yder
is s
itet er
Ġk ri
arbej det
Ġin ves
ĠnÃ¸dvend ige
Ġk ultur
Ġl ed
trÃ¦ d
vi v
Ġdag sorden
Ġlang t
Ġsin e
Ġn Ã¦r
ĠglÃ¦ der
Ġfor sÃ¸
Ġm est
Ġgrupp e
hol de
Ġen ig
Ġsig er
ĠvÃ¦ sent
ĠnÃ¸d t
Ġpro j
al er
Ġud n
Ġbet rag
i re
ĠhÃ¥ nd
Ġek semp
Ġpr es
or e
Ġform Ã¥l
ter ing
d ag
Ġp art
Ġkons ek
ar der
Ġsy nes
Ġudtry k
Ġop fatt
on t
E nd
Ġunder sÃ¸g
A l
Ġsk ridt
s am
vis t
Ġj o
cer et
m b
a c
Ġom fat
s ret
Ġ ti
ĠmÃ¥ n
ur der
Ġmilli oner
on d
g rund
y p
Ġfre mm
er er
Ġinteres ser
Ġs v
ĠlÃ¦ng ere
Ġb Ã¦r
Ġter ror
i r
o t
gi fter
Ġt yd
al og
ar itet
ĠvÃ¦r di
ĠÃ¸ v
Ġv en
Ġs n
Ġover ve
ĠbÃ¸r n
Ġv ej
Ġsm Ã¥
h Ã¸r
id del
g a
Ġk o
l agt
Ġtjen este
Ġborg erne
Ġm it
Ġ Ã©
Ġkonk ret
Ġmynd igheder
elig hed
ĠF Ã¦llesskab
Ġbesk yttelse
yd elser
be handling
Ġsik ker
Ġfat tig
Ġud tal
ĠÃ¸jeblik ket
Ġsam tidig
Ġen k
Ġfor svar
Ġvis er
Ġris ik
Ġ ci
Ġm Ã¸de
s our
Ġh eller
ater ne
Ġb orger
f l
Ġstyr ke
vÃ¦r re
Ġstra tegi
ces sen
Ġ ne
Ġfor ud
ĠdrÃ¸ ft
d om
v ik
Ġb r
Ġn ok
v ende
Ġs tig
viv l
Ã¸de var
Ġa kt
Ġh Ã¸r
Ġtil strÃ¦kk
ĠkrÃ¦ ver
ar an
iss ab
ent lig
ĠÃ¸v r
Ġp ass
Ġtid spunkt
ĠvÃ¦k st
al en
sp lan
Ġk ort
Ġsituation en
oliti kken
l id
Ġbid rag
Ġs ol
Ġresult at
Ġ1 0
Ġo fte
Ġpr is
a ser
Ġgennem fÃ¸re
l ende
r om
Ġunderstre ge
Ġinstitution er
k ra
Ġa sp
Parlamentet s
h av
ĠnÃ¦ ste
Ġh ol
Ġoplys ninger
els k
Ġdet s
Ã¥ ende
Ġl idt
Ġforbed re
Ġinform ation
Ġt aget
er n
Ġf ler
Ġdi alog
ĠF ru
Ġsen este
an ce
i c
Ġforslag et
ĠreprÃ¦ sent
f ald
Ã¸r ge
Ã¦ st
Ġsk at
b ru
Ġre j
Ġin stru
Ġ Vi
Ġl Ã¦g
arbej d
Ġtran sport
ĠL issab
in a
Ġgi vet
ens stemm
Ġred u
Ġret te
er ede
2 00
Ġm is
ag es
Ġopfatt else
pro gra
Ġful dt
f al
Ã¦nkning en
Ġfremtid en
u sland
E fter
Ġtred je
Ġenk elt
Ġ ch
Ġforst Ã¥
in e
Ġden s
Ã¦ v
ĠbÃ¦r ed
Ġsted et
som rÃ¥
Ġvi den
st ag
Ġud ford
end t
Ġv old
Ġer klÃ¦r
Ġlig ger
Ġt Ã¦n
lig gen
liggen der
Ġopf yl
Ġiniti ativ
S Ã¥
ĠF N
A f
Ġforb rug
Ġfor val
Ġkomm ende
for mer
tion en
Ġgennem s
v an
Ġan tal
Ġind ustri
ĠT yrk
Ġb ru
Ġst ort
Ġh oved
Ġfor fat
st at
Ġste mte
Ġhen hold
Ġdire kte
al itet
Ġlu ft
N Ã¥r
Ġg aran
op m
Ġny t
Ġv ist
Ġg anske
ord in
Ġk li
Ġposi tiv
Ġlig es
Ġher under
Ġli v
und et
Ġs et
Ġover be
Ġi det
s ra
Ġpen ge
Ġkonsek vens
ati ve
ks is
rom is
omrÃ¥ det
Ġsk er
ĠS t
sion er
Ġop r
fÃ¸l g
Ġkr iti
Ġret s
vis ion
Ġl et
E N
Ġen este
Ġeks ister
al get
s el
ter n
ĠEuropa s
ĠbemÃ¦r kning
Ġs Ã¸
ff er
Ġb el
re g
sm arked
en ter
ensstemm else
Ġf Ã¸devar
Ġfuld stÃ¦nd
Ġer hver
Ġforsk ning
Ġbet ing
Ġgen op
Ġhurtig t
Ġl ok
til ling
E t
Ġen kel
Ġkon st
Ġ 6
Ã¦n ge
Ġf jer
Ġkomp romis
sÃ¦ tter
Ġbestemm elser
ist and
Ġt vivl
Ġind vand
Ġover v
Ġver dens
Ġst y
land ene
Ġ ru
Ġforesl Ã¥
ĠhjÃ¦lp e
Ġfor ordning
D es
t ager
Ġkval itet
Ġh os
ĠR usland
Ġover ensstemmelse
Ġmu ligheder
Ġvigtig ste
Ġg ode
urop a
Ġmed del
Ġved tag
lÃ¦g ge
T il
ko st
Ġm org
Ġmind st
Ġra pp
Ġfor el
Ã¸ se
Ġd at
ati ver
Ġb en
Ġdagsorden en
Ġra mme
ur de
Ġeg en
elsk ab
Ġkon f
Ġud el
Ġs lu
D isse
Ġmenneskerettighed erne
Ġf ej
ok ol
Ġtred j
el edes
Ġud gÃ¸r
le k
Ġf Ã¸re
v ne
Ġg ent
k ende
ĠgennemfÃ¸r elsen
c ere
vÃ¦r d
Ã¥ nd
Ġinteres se
Ġk ap
ĠUnion en
Ġle ver
Ġs and
H er
Ġeksemp el
s ter
ind re
Ġst o
omst ol
Ġd ok
b s
Ã¸j e
M an
Ġle j
m on
Ġen hver
Ġ or
Ġerhver v
Ġp unkter
Ġhens igt
Ġvi dt
g ave
alis ering
Ġh ist
Ġres sour
del es
ĠR e
af hÃ¦ng
g ar
Ġsol id
Ġenkel te
m and
ĠÃ¥r s
Ġfor en
am il
Ġd y
Ġbeslu tninger
Ġkris e
Ġen ige
is ering
Ġret fÃ¦rd
ĠstÃ¸r ste
00 0
pro du
b r
eri ode
Ġmedlemsstater nes
Ġi mp
Ġsammen hÃ¦ng
Ġstab ilitet
g else
ti m
Ġb land
t okol
ĠkommissÃ¦r en
Ġudvikling en
Ġfremm est
i e
Ġa g
Ġf ar
Ġfler tal
ĠbÃ¦red ygtig
Ġ Ã¦r
Ġh aft
eg ne
Ġb yg
ĠsÃ¦ tte
re m
Ġopford rer
Ġhand els
Ġb urde
Ġanm od
2 0
Ġ20 1
Ġeg ne
vÃ¦r ks
k ast
te gra
Ġl Ã¦
mm erne
End elig
tning en
Ġem ne
ĠTyrk iet
Ġlig eledes
ter es
Ġopr ind
ĠfÃ¥ et
Ġhver t
ktion er
Ġpri ori
Ġprodu kter
Ġtro ds
m erne
Ġb an
f ra
ti k
Ġb aser
vik ling
Ġi d
Ġj ur
re b
ning erne
Ġarbejd s
Ġf ok
Ġsk yld
Ġs ke
Ġanvend else
Ġforhandling er
Ġmorg en
Ġfor d
Ġudel u
Ġhen vis
Ġk amp
L ad
ed lem
Ġf l
Ġpra ksis
Ġdirektiv et
fÃ¸r t
ation en
de m
Ġsk et
Ġde fin
Ġpart ner
p ar
t ab
g Ã¦ld
ter inger
Ġbeste mt
f ar
ĠvedrÃ¸r er
Ġforb ruger
k ring
Ġt Ã¦
Ġfisker i
Ġudv alg
Ġ 7
Ã¸ der
Ġland et
Ġ 8
ĠI n
kk et
Ġom fatt
i a
min ist
Ġmenneskeret tigheder
Ġuden rig
ro g
S elv
or er
et en
ĠÃ¥b en
Ġpers oner
la de
Ġv urder
Ġko ordin
es ter
ektor en
ast ro
Ġpri v
Ġi vÃ¦rks
Ġfri hed
Ġen e
Ġfor sÃ¸g
Ġgod kend
ring e
yn de
Ġhand el
Ġbes t
Ġb are
sid ent
Â «
Ġv egne
f ik
Ġinde holder
Ġpolitik ker
Ġbe var
Ġom stÃ¦nd
Ġprodu ktion
Ġin v
hÃ¸r ighed
Ġt v
Ġn iveau
ĠmÃ¥n eder
sm Ã¦ss
Ġbetrag tning
f ul
Ġin tegra
Ġh je
Ġind fÃ¸re
Ġfor eg
Ġoffent lig
sm Ã¦ssige
ĠprÃ¦ c
Ġeffektiv t
Ġtilf red
Ġhand ler
T O
s y
sm edlem
Ġen g
Ġom kring
Ġresp ekt
Ġkli ma
Ġbes trÃ¦
stru ktur
g ere
vi dere
Ġaner kend
Ġaccep tere
Ġgennems igtig
Ġu afhÃ¦ng
Ġr ent
s igt
ĠtrÃ¦ff e
Ġf ald
ĠÃ¦ndring er
Ġfort sÃ¦tte
Ġder med
tt es
ĠS ch
Ġfrem hÃ¦
Ġmil it
Ġtekn olog
Ġb istand
sat te
um ent
ĠÃ¸konom i
U d
Ġf amil
Ġuddann else
ĠgÃ¸r es
at astro
c ces
Ġet ab
i v
Ġhvil ke
Ġbesk ytt
i o
i ci
Ġo f
Ġresult ater
Ġkonf lik
Ġdemokrati ske
sik kerhed
Ġalt sÃ¥
en der
D E
Ġbid rage
Ġund gÃ¥
m Ã¦ssige
Ġun ge
ĠgrÃ¦n se
Ġtil lid
Ġfinansi ering
Ġstil let
fÃ¸l ge
Ġvansk elig
Ġoverv Ã¥
Ġg ange
Ġf em
c ent
Ġbe handling
Ġsu cces
entr al
Ġ el
Ġdes vÃ¦rre
Ġjur id
Ġop gave
Ġanvend es
in der
gÃ¥ ende
Ġa bs
Ġd yr
ĠlÃ¸ se
ĠK on
Ġtredj el
Ġ 9
Ġ1 5
s n
Ġf ly
Ġfor ret
mer ik
al y
" .
Ġs at
Ġek sp
Ġstil le
Ġrigtig t
Ġbesk ytte
ĠI nd
Ġaf sk
Ġl Ã¦nge
rÃ¸ n
kl ar
ced ure
ĠnÃ¦vn t
ĠsÃ¥dan ne
Ġefter som
r incipp
Ġarbej der
Ġtil slu
ĠA l
Ġm agt
Ã¥ det
Ġbed ste
org an
Ġsolid aritet
e byg
Ġomfatt ende
G ruppen
Ġen ighed
ak ter
ĠsÃ¦r deles
Ġa mb
Ġgrupp er
k es
ti fi
Ġs l
k Ã¸n
kk ende
Ġforesl Ã¥r
sk ud
o ve
ĠsÃ¦r lige
Ġo b
i ens
ĠnÃ¦ sten
Ġregi oner
Ġbeslutning sforslag
ĠA f
Ġarbejd smarked
bet Ã¦nkningen
Ġal d
Ġud b
Ġud st
Ġkonk lu
Ġvirksom hed
yd else
Ġarbejd stag
Ġt opm
as se
m ind
Ġ ele
Ã¸ g
Ġin teg
Ġbaser et
t og
p u
ĠÃ¸vr igt
n de
ti er
f ang
an ter
Ġvir kning
ĠÃ¸ ge
ation alt
Ġv Ã¦l
Ġ1 2
Ġaftal er
Ġintegra tion
b esk
Ġbek rÃ¦
sk on
Ġproblem et
Ġbeg ynd
Ġpar ter
ĠgrÃ¦n ser
Ġh am
ord ningen
Ġkomp eten
sk il
an n
ste mer
ĠA n
Ġt ages
ff et
a te
Ġkonkret e
Ġad minist
Ġmang lende
Ġhar mon
ĠhÃ¸j ere
Ġa merik
Ġk Ã¦re
Ġarbej det
Ġk end
Ġfej l
Ġly kk
ĠfÃ¸l ger
Ġind d
k ald
Ġudvik le
Ġd Ã¸d
or de
Ġd ri
Ġpro ces
Ġb eret
Ġpro cedur
Ġhol de
ĠsÃ¦r ligt
ti ver
Ġarbejd sl
Ġkonst ater
Ġforhandling erne
a kt
Ã¥b en
Hv or
ĠRÃ¥ d
re kt
lek si
ĠomstÃ¦nd igheder
Ġli ber
Ġre form
Ġasp ekter
Ġressour cer
Ġafslu ttet
Ġmedlemsst at
Ġom kost
sp Ã¸rgsmÃ¥l
Ġkri min
al ut
ĠfuldstÃ¦nd ig
Ġbland t
Ġh al
Ġkl are
Ġrisik o
r ene
ĠprÃ¦ sident
Ġid Ã©
Ġly kÃ¸n
Ġtil trÃ¦d
Ġb red
Ġlej lighed
ĠgÃ¦l d
ĠbekÃ¦mp else
u b
spro gra
Ġsam hÃ¸righed
er nes
Ġbru ge
ind ustri
Ġfor n
sp lad
ĠhÃ¸j t
p lan
ĠgennemfÃ¸r else
g Ã¸re
Ġop st
ĠÃ© n
sl in
ĠÃ¸n ske
ra k
Ġfor nu
end es
Ġparlament smedlem
Ġtid en
Ġla de
Ġbehov et
Ġv and
Ġc ent
ĠtilfÃ¦l det
f art
Ġtil p
Ġf al
hold t
ar d
Ġaktiv iteter
S am
Ġh u
ĠbestrÃ¦ b
j erne
m Ã¦nd
feren cen
Ġbag grund
Ġhvor for
stra tegi
Ġbev Ã¦g
ĠB ar
Ġm oder
lige vel
k rig
Ġkomm un
ik kerhed
Ġh un
Ġfor l
u menter
Ġmen s
Ġm Ã¦r
Ġkolle ga
Ġd Ã¥r
n ov
Ġviden skab
ĠfÃ¸l gende
p eg
ĠomrÃ¥ det
Ġiniti ativer
leksi b
Ġarbejd splad
Ġp er
Ġeksister ende
val g
Ġud gang
vis e
Ġud gifter
ag else
k elige
Ġom fang
Ġm et
Ġforval tning
l in
Ġs eks
Ġst ater
ĠbegrÃ¦n s
s ud
sk er
ĠvÃ¦r d
Ġbekym ring
ĠÃ¦nd re
Ġer far
Ġskat te
ĠvÃ¦ gt
Ġ200 0
ent ur
E uropa
Ġfa kt
Ġtyd eligt
rupp e
ver e
Ġald rig
Ã¸ st
Ġpro tokol
an s
en ede
Ġbeg ge
Ġ1 1
Ġafstem ning
Ġdisk us
fÃ¸lg elig
r ere
Ġk v
Ġpartner skab
n ede
in de
ran sport
Ġsp rog
ĠnÃ¦r m
ĠK ina
ĠnÃ¦v ne
Ġprincipp er
Ġkap it
var ende
ek anis
inci p
sland ene
Ġind til
Ġrapp ort
ss ystem
Ġvi a
b al
ĠbeskÃ¦ftig else
ĠbekÃ¦mp e
um an
Ġabs ol
sÃ¦tt es
Ġforpligt elser
Ġfor ebyg
led ning
Ġskab er
p Ã¥
Ġm and
gi ft
Ġomfat ter
Ġk rig
Ġalvor lige
Ġf leksib
a ff
Des uden
ĠrÃ¥d ighed
Ġliges om
Ġin nov
Ġmarked s
ĠF ran
ĠFor enede
ĠivÃ¦rks Ã¦
Ġg lem
al Ã¦st
Ġhvil ken
N u
skri ft
r it
Ġbr iti
Ġproj ekter
Ġu m
Ġudvid elsen
ĠnÃ¸dvend ig
Ġforret nings
Ġafstem ningen
g n
Ġend elig
Ġprogra m
Ġretning slin
Ġfor ven
Ġsk i
ter ede
ok ra
a j
rincipp et
Ġste mmer
m Ã¦ss
ĠgennemfÃ¸r es
ĠLissab on
Ġforfat ning
omrÃ¥ der
ighed en
Ġf ran
Ġv e
Ġvi de
r ager
Ġ ro
Ġdemokrati sk
gÃ¦ld ende
Ġan vende
Ġk ar
Ġs lag
komm en
rÃ¥ d
Ġh Ã¥r
Ġdisk u
ĠreprÃ¦ sen
Ġr ele
Ġn ab
Ġprincipp et
y sk
Ġvil je
Ġmang ler
Ġb al
med lem
ist an
Ġmind ste
Ġinv ol
Ġener g
Ġforbrug erne
Ġkra ft
Ġn r
ati sk
Ġindvand ring
r ende
ĠvÃ¦rdi er
Ġu an
or m
Ġt ra
Ġfor vent
ĠpÃ¥ gÃ¦ldende
Ġs yg
ĠfÃ¸r er
Ġfremtid ige
aft alen
Ġglob ale
Ġd est
Ġund tag
Ġmellem st
id en
Ġlok ale
) .
Ġsid st
ĠD er
Ġste mt
" ,
ĠprÃ¦c is
V ores
Ġs Ã¸rge
Ġtek st
Ġind lÃ¦g
lad s
Ġkri ter
Ġal mind
b ar
Ġf ire
vir kning
Ġoverve j
p o
at or
Ġsen ere
Ġh id
R Ã¥det
Ġra mmerne
ven tion
Ġproj ekt
Ġyder st
Ġbefolkning en
Ġabsol ut
Ġu t
Ġposi tive
Ġakt uelle
ĠgennemfÃ¸r t
Ġbudget tet
k n
Ġsikker t
ĠS oci
Ġt raktaten
il le
Ġfattig dom
Ġtil syn
Ã¸j er
Ġor det
Ġmellemst ore
Ġforbind elser
ĠforsÃ¸ ger
Ġg av
Ġre vision
Ã¸j elser
hol det
g j
ĠL i
Ġdes uden
V ed
sp olitikken
iddel hav
Ġopret t
ra tion
Ġpass ende
ftig t
Ġunder sÃ¸
Ġ Â
Ġal ene
Ġprogra mmer
ĠnÃ¦vn te
ĠmiljÃ¸ et
Ã¦r er
r on
Ġpositiv t
rik a
stil ling
sÃ¦ tninger
en es
Ã¸ ver
v Ã¦
Ġfok us
ĠUnion ens
tig e
ĠstÃ¦r k
D a
Ġrigtig e
Ġf les
j ek
. .
n al
cer ede
Ġu lov
Ġci vil
tid en
Ġa k
Ġind g
uler ing
Ġh uman
ort ug
ur en
Ã¦ ste
Ġk atastro
i erne
k Ã¥r
ce mber
Ġpr incip
Ġt an
Ġf ik
Ġselv fÃ¸lgelig
Ġde cember
ĠÃ¸ del
Ġkonsekvens er
Ġen de
Ġh Ã¸rer
Ġind t
ĠsÃ¥ som
Ġle ve
Ġtjeneste ydelser
Ġvis e
Ġinves teringer
in stitution
sm in
Ġtredjel ande
s ler
Ġhist or
Ġu ge
Ġny lig
Ġforretnings orden
E r
ek omm
Ġan aly
Ġforb ud
Ġspil ler
Ġre former
Ġg e
Ġfor sik
Ġudv alget
rÃ¦ nd
m idler
s an
Ġst ede
vis er
Ġhvor v
Ġsag en
Ġbriti ske
I nd
Ġintern ational
Ġ lev
Ġkomm et
Ġregion ale
ra le
Ġind gÃ¥
pu blik
i ver
Ġhver ken
Ġmeddel else
somrÃ¥ det
Ġbeting elser
Ġud arbejd
Ã¦n ger
vi le
Ġ yde
p Ã¸rgsmÃ¥l
este mm
Ġd ele
Ġbet al
Ġudford ringer
ĠÂ »
Ġb y
Ġformand en
si di
B et
Ġn ational
Ġfl yg
Ġgj orde
Ġforb er
od en
Ġv ok
Ġg am
Ġdelt age
Ġinvol ver
Ġh in
Ġalvor ligt
Ġstig ende
ati ske
rag ende
Ġbek l
Ġ eget
Ġover hold
ĠstÃ¦r kt
Ġstra ff
Ġvel kommen
Ġhens e
tt en
Ġ organ
Ġpri or
hand el
Ġforesl Ã¥et
Ġne g
Ġly set
Ġved tage
Ġmu lig
Ġforst Ã¥r
Ġber Ã¸r
Ġamerik anske
ĠÃ¸ get
sp rincippet
Ġforbed ring
st o
ĠKon ger
Ġmedlem merne
k else
Ġkor rekt
Ġj ob
alut a
ĠforsÃ¸ ge
val u
Ġfun ger
Ġr el
Ġfles te
ĠV er
Ġj ern
il jÃ¸
ure au
Ġmarked et
ken der
Ġopn Ã¥et
Ġm Ã¦nd
ist rik
Ġud arbejde
Ġstand arder
Ġmu lige
ĠFran krig
Ġsig t
Ġi den
Ġreger inger
Ġvansk eligt
M ange
Ġpra k
skrift lig
be f
un i
Ġ2 5
Ġhal v
ĠFÃ¦llesskab ets
Ġ1 4
ĠbemÃ¦rkning er
rer et
Ġst Ã¥
Ġop byg
Ġvi d
Ã¦v n
Ġp lads
ĠsÃ¥ vel
Ġved varende
Ġb ede
Ġarbejdsplad ser
Ġhje m
ĠM en
est en
Ġspil le
f ond
Ġdiskus sion
Ġved tog
re vet
Ġarbejdstag ere
sst at
Ġk n
Ġst ren
Ġhand le
Ġbed er
ĠlÃ¸s ninger
Ġopfyl de
Ġher af
Ġt vÃ¦r
in ens
Ġinstru menter
Ġind led
Ġk Ã¦mp
Ġu til
Ġfor hand
i ven
sam ling
Ġe j
Ġs an
d istrik
kald te
ĠopmÃ¦rksom hed
vis ning
anstal tning
Ġt ab
ĠbeskÃ¦ftig elses
fra struktur
Ã ¶
ĠlÃ¸ bet
Ġsu b
Ġarbejdsl Ã¸s
Ã¸ tte
our g
Ġh ind
s ig
Ã¦g t
Ġdok ument
Ġfrem ragende
Ġinstru ment
Ġetab ler
Ġsk ri
Ġsn ar
a ccep
sp ek
Ġb ort
ve m
Ġorganis ationer
Ġfor elig
r land
accep tab
itet en
spro cessen
Ġt raktat
ĠpÃ¥ peg
feren ce
Ġu acceptab
h e
Ġforh indre
ĠhÃ¸j de
Ġk rÃ¦n
Ġkar akter
Ġover ord
os ov
ĠR et
Ġhuman it
Ġra mmer
ĠlÃ¸ n
id st
Ġstra teg
Ġeffek tive
Ġtekn iske
Ġspeci fi
Ġtil gang
Ġgener elt
is sion
Ġkonkurrence e
Ġi r
alÃ¦st inens
Ġoverve je
Ġlandbrug spolitik
ker et
tig t
ĠlykÃ¸n ske
ĠsÃ¥ kaldte
Ġdet al
Ġm ob
sÃ¦tt else
I n
ik ation
Ġfr yg
ten ti
Ġterror isme
Ġskyld es
Ġregering s
ĠafgÃ¸r else
Ġforet age
Ġind fl
Ġer stat
v else
sfor mand
Ġtra di
Ġan g
Ġ3 0
ler ne
Ġud mÃ¦r
u el
ktiv et
Ġoverbe vist
lÃ¦g ger
ĠÃ© t
im od
Ġhin anden
U nder
ve j
Ġoffent lighed
ri min
som t
Ġdelt agelse
Ġh endes
Ġanm oder
Ġsik rer
Ġtak ker
ĠsÃ¦ tter
s dag
ĠtÃ¦ t
Ġud arbejdet
Ġv Ã¥ben
handling en
ĠbestrÃ¦b elser
s v
bru get
stem ningen
Ġtil lad
Ġjern ban
Ġg lad
Al le
A t
konom iske
Ġaftal en
ysk land
Ġudelu kkende
ĠÃ¸ st
rid ende
ob b
t raktaten
okra ter
ĠUnion s
Ġel ekt
Ġs el
ĠW TO
i fi
Ġd age
ĠundersÃ¸ ge
Ġal ligevel
ol er
v s
l edes
ĠundersÃ¸g else
Ġtru ffet
tt ede
Ġborger nes
ĠgÃ¦ld ende
el les
ek sl
Ġsp Ã¸rge
Ġeg entlig
Ġhense ende
s erne
ri hed
Ġmin de
s ystem
Ġi l
Ġtil sk
Ġgennemsigtig hed
le ver
n ere
raf ik
m ens
Ġb ar
Ġad skil
Ġstil ling
Ġr im
pp e
Ġs let
Ġaf h
Ġretningslin jer
ĠB ru
Ġ1 3
Ã¸ mm
Ġinde b
ret al
Ġopford re
ĠhÃ¸r t
Ġe vent
Ġforhandling en
ĠvÃ¦sent lig
Ġaf hÃ¦ng
d am
grund lag
Ġantal let
Ġsam arbejdet
l ande
x elles
Ġen s
ss til
Ġ200 7
st ed
Ġcent rale
Ġo li
ĠI rland
Ġdest o
Ġin t
Ġmin im
si ve
Ġm on
mm elig
Ġbeg iven
vil ling
Ġfol ke
ĠovervÃ¥ g
Ġal tern
Ġf Ã¦rd
Ġat om
Ġst art
Ġbef Ã¸jelser
Ġprotokol len
Ġek stra
m arked
Ġj uni
for slag
cen ter
Ġspecifi kke
Ġfri e
Ġn Ã¥et
Ġdat a
ri b
Ġl ille
u ar
Ġ y
kra ft
Ġindfl ydelse
ĠB el
ĠK osov
Ġm Ã¸d
gi ve
kon t
Ġforber ed
Ġklima Ã¦nd
ĠLissab ont
Ġbekl ager
ĠtÃ¦n ker
Ġfran ske
Ġuan set
ĠBru xelles
Ġan ledning
Ġforven ter
Ġve jen
ser v
ĠÃ¥b ne
sra el
Ġt yp
Ġanvend elsen
g Ã¦ng
Ġudford ring
m Ã¥l
Ġudtal else
p olitikken
ĠtilstrÃ¦kk eligt
gi ver
Ġgener elle
oliti ske
Ġpen sion
Ġmind retal
Ġdel eg
Ġstat us
Ġtro vÃ¦rd
S E
en er
Hv ordan
y tter
Ġr elig
Ġhid til
si v
ord ninger
Ġansvar lige
Ġform er
Ġg rÃ¸n
Ġland ene
) ,
ak tion
vÃ¦r di
Ġop er
Ġdy b
Ġvurder ing
g ede
ĠT yskland
Ġkrimin alitet
ĠpÃ¥ vir
Ġend elige
Ġkon stru
Ġb ud
Ġstat s
h oved
Ġb ringe
Ġt alt
Ġbeslutning en
ĠS p
Ġar g
ber et
ark o
gj ort
m od
ag ere
Ġu for
Ġt y
Ġfrem gang
bal an
Ġflyg tning
Ġsu pp
Ġfort jen
Ġgen sid
alis eringen
di re
Ġhens tilling
an uar
g o
m anden
smÃ¦ss igt
Ġd Ã¦
ĠÃ¦r ede
Ġle g
s h
Ġpriv ate
j et
Ġj anuar
F Ã¸r
sp unkter
ĠtilstrÃ¦kk elig
P ro
Ġl av
Ġm aj
Ġfrem sat
Ġsn art
ĠreprÃ¦sent anter
Ġover gang
Ġbef inder
ĠlÃ¦g ge
ĠKonger ige
i de
Ġt ur
progra mmet
la der
i der
tal ien
w e
Ġsam lede
Ġe valu
Ġind k
Ġinnov ation
Ġra tifi
Ġsyn spunkt
H an
ol u
Ġudvid else
Ġtopm Ã¸det
k le
Ġresultat et
Ġmulighed en
strategi en
ĠbevÃ¦g elighed
Ġalvor lig
ĠÃ¥r sag
Ġaf fald
Ġrele van
ĠÃ¸del Ã¦g
g erne
Ġbevar e
o u
y nder
ĠhÃ¸j e
N Ã¦ste
behandling en
k an
ater i
org ere
a pp
e fter
ol k
Ġeuro en
Ġresp ekter
age ment
ĠmÃ¥l sÃ¦tning
Ġdetal jer
s omme
s ek
Ġfort Ã¦l
p ris
s ende
Ġm io
art s
ken land
ĠdrÃ¸ fte
rÃ¦ kenland
ĠnÃ¦rm ere
Ġaf sp
Ġf are
Ġfor ker
Ġh Ã¸re
Ġu ger
Ġh Ã¦
Ġredu cere
Ġgam le
skab et
elskab er
Ġud Ã¸
o c
Ġh il
Sam tidig
Ġamb iti
Ã¦g ter
Ġf undet
industri en
s ger
Ġpo tenti
Ġ5 0
urop Ã¦iske
st Ã¥
ret t
s g
Ġp eri
h an
Ġbek endt
Ġd vs
b are
Ġbal ance
Ã¦g te
P E
ĠfremhÃ¦ ve
Ġglem me
Ġsel ve
s vis
over sk
Ġn Ã¸je
9 9
ist en
Ġdebat ten
Ġg avn
Ġmennes ke
Ġfors in
h en
ch e
Ġformandskab et
ven tionen
Ġbrug es
d a
Ġfor Ã¥r
ss am
ytt et
Ġslag s
Og sÃ¥
Ġsammen lig
Ġland mÃ¦nd
p te
b og
Ġred eg
ĠlÃ¦ ge
ĠM ar
r agt
ĠE C
Ġ yd
Ġeksp er
Ġin tet
vÃ¦r k
Ġindd rag
Ġv ende
Ġeng agement
Ġgru nde
ĠM on
ĠmÃ¥n ed
besk yttelse
Ġem ner
Ġfrem over
Ġf Ã¸
Ġsto ffer
Ġvansk elige
Ġbi fal
ĠEU R
Ġpro cedure
ĠÃ¸vr ige
Ġp eriode
Ġt old
Ġforn y
Ġp alÃ¦stinens
Ġfor ekomm
Ġa ut
Ġluft fart
k rati
ĠerklÃ¦r ing
Ġben ytte
Ġa s
Ġtyd elig
ĠC entral
el l
m an
si tet
ĠM iddelhav
b a
ĠE uro
Ġend videre
ga ver
ĠAn liggender
s in
Ġinves tering
Ġnab o
Ġg Ã¥et
Ġmu nd
o ber
ĠE F
Ġparlamentsmedlem mer
Ġm ar
Ġs yd
Ġbel Ã¸b
Ġb ureau
Ġm or
Ġb ruger
Ġhel hed
aft ale
Ġafsp ej
S pÃ¸rgsmÃ¥l
b yr
fÃ¸r es
ĠG rÃ¦kenland
Ġkriter ier
Ġin frastruktur
Ġmang el
For handlingen
Ġreg n
h avn
Ġn ord
og raf
ing e
vin de
Ġek sport
ĠRe publik
Ġkatastro f
Ġm arts
Af stemningen
Ġkompeten ce
ĠbegrÃ¦n se
Ġuddann elses
ĠvÃ¦sent lige
ar iske
komm ende
sÃ¸ ger
ĠmÃ¥l sÃ¦tninger
ĠvÃ¦sent ligt
Ġm ak
olog iske
Ġkend sger
is ere
Ã¸r et
Ġvirkelig heden
Ġindeb Ã¦rer
ĠFÃ¦llesskab et
Ġhu ske
Ġin ten
M in
O m
Ġf ag
Ġtil tag
Ġbes var
Ġk ender
for handling
Ġmin ister
c ering
d omme
Ġdi men
Ġforb r
hoved et
ĠglÃ¦ de
sret ten
Ġhvorv idt
ĠKosov o
Ġjurid iske
Ġfr it
is tiske
Ġkomp li
b estemm
Ġtjen ester
Ġfunger er
b eg
sk ning
Ġfordel e
Ġag entur
Ġret ten
Ġ200 9
Ġrelevan te
skon ferencen
Ġl ad
Ġj a
ĠÃ¥rs ager
spro ces
Ġmod stand
sl ande
ru m
ĠM a
ĠbetÃ¦nkning er
Ġof re
Ġend da
Ġn orm
Ġforekomm er
Hvor for
Ġmilit Ã¦r
Ġoprind elige
ĠmÃ¥ tte
el d
Ġbet ragt
am ent
Ġudn ytte
oversk ridende
um Ã¦n
Ġ199 9
af stem
Ġbeg ynde
Ġsand syn
Ġmod el
giv ning
ĠB udget
pte mber
Ġs ager
Ġd els
sk ra
Ġ200 4
on den
Ġmilli arder
h ar
o st
ĠI rak
Ġhandling splan
Ġomkost ninger
i le
s udvalget
Ġkonkurrencee vne
Ġind virkning
m et
Ġf jerne
Ġvar er
Ġansvar et
Ġ1 8
Ġf isk
Ġen gang
Ġas yl
Ġover hovedet
Ġse ptember
Ġbehand le
an ien
Ġ Parlament
Ġland distrik
Ġproblem erne
es iske
Ġvalg t
Ġen or
alis tiske
ater ale
Ġjurid isk
Ġforel Ã¦g
i tion
Ã¸r ger
vir ksom
Ġtradi tion
and id
s d
Ġkris en
Ġre elt
arbej der
Ġkont in
r il
ĠSoci al
y s
Ġudtry kke
Ġrej se
Ġforb undet
ĠLissabont raktaten
omrÃ¥ de
ĠgrÃ¦nse overskridende
Ġkamp en
cedur en
Ġm Ã¸det
ĠfÃ¸r t
Ġlykk edes
Ġm Ã¸der
ĠtÃ¦n ke
Ġafsk aff
min ister
ĠÃĺ st
Ġkultur elle
Ġudvikling slandene
smin ister
kk es
al l
Ġanerkend else
Ġhold ninger
ĠN ord
Ġv alget
Ġind hold
Ġbegynd elsen
Ġ200 8
Ġen ten
S t
k tiver
Ġh vem
Ġim Ã¸de
n en
k lu
Ġbid rager
s es
ĠsÃ¥dan t
Ġunderstre ger
Ġgent age
ĠG ruppe
ol en
ĠtrÃ¦ff es
ĠreprÃ¦sent ant
Ġfor anstaltning
Ġan liggender
land ske
ĠindfÃ¸r t
ĠA m
an si
konom i
ĠI srael
ĠudmÃ¦r ket
Ġska de
Ġskab t
Ġtil st
Ġn ationalt
Ã¦ld re
Ġasp ekt
Ġbev idst
ĠlÃ¦g ger
sret tigheder
Ġbeslu ttet
b art
ret ning
pp er
Ġop hÃ¦
rÃ¥ det
Ġforh ind
k tive
ĠM ellem
ori e
Ġ200 6
h a
ri be
Ġbureau krati
Ġfun gere
lÃ¦g ges
Ġsyn spunkter
t on
Ġc a
Ġhvor i
ove mber
e ffek
Ġtilfred s
Ġb o
Ġ201 0
Ġbet ale
Ġir ske
Ġbehand les
b ud
Ġregion en
Ġminim um
Ġt og
Ġdok umenter
Ġstil ler
Ġk al
Ġ1 7
Ġn ovember
smÃ¦ss ig
Ġomfat te
Ġf Ã¦ng
il der
Ġbed st
Ġu h
Ġdel er
Ġforsvar e
Ġlovgiv ningen
Ġsektor er
ĠretfÃ¦rd ig
k a
id dag
at et
ĠR umÃ¦n
ĠIn tern
Ġfleksib ilitet
Ġk a
Ġsi mp
ing erne
Ġp arlam
Ġbud skab
Ġv aluta
ĠL and
Ġa pp
Ġfort sÃ¦tter
q u
gi en
Ġf and
Ġn Ã¸j
Ġvanskelig heder
Ġprocedur er
Ġ200 5
Ġfor uren
aft aler
Ġder imod
ĠS yd
Ġfun ktion
Ġd ra
Ġs ende
hand els
ynd ighed
Ġsub sidi
arko tik
ĠforeslÃ¥ ede
Ġresp ek
Ġind lede
Ġsty kke
Ġt yrk
ĠI talien
ati sti
okrati ske
ĠbeskÃ¦ftig elsen
Ġre for
Ġg rÃ¦
Ġfrem gÃ¥r
Ġsk ov
Ġen stemm
Ġsig nal
Ġsted er
omstol en
Ġp ligt
Ġland bruget
ĠkrÃ¦ ve
B i
Ġrets grundlag
lig gende
n ende
Ġfast sat
kl are
Ã ¡
ul gar
kt ober
0 1
Ġigen nem
Ġved kommende
agt en
Kommission ens
Ġfornu ftig
Ġ1 6
Ġpar ti
ĠÃ¸nsk ede
Ġan sÃ¸ger
ĠreprÃ¦sen terer
Ġudgang spunkt
tag else
Ġreg el
Ġaf ten
Ġc entral
Ġhandling er
Ġstab il
Ġo ktober
progra m
ĠU kra
for anstaltninger
Ġsp anske
Ġj ord
ur dere
del ing
Ġkonstater e
Ġland ets
Ġliges tilling
ag ne
Ã¸ sten
Ġk Ã¸
ro s
Ġst k
Ġci vile
t s
ĠfÃ¸devar er
Ġmynd ighed
Ġsnar ere
Ġek stre
Ġele menter
p art
y stemer
ĠbegrÃ¦n set
n iveau
ch ar
ster dam
Ġm ul
Ġter rit
Ġm ekanis
ĠforstÃ¥ else
Ġover trÃ¦d
Ġleg iti
Ġbifal der
is men
sk i
ĠAf rika
N og
Ġregn skab
r ist
Ġstruktur fond
Ġdisk rimin
Ġs vÃ¦r
Ġp len
ak tiv
Ġret sstat
eksl ing
Ġom hand
Ġtil gÃ¦ng
Ġforpligt else
Ġmarked er
Ġty ske
ĠbekrÃ¦ ft
Ġ Z
d elt
ĠhÃ¥ b
Ġi fÃ¸lge
Ġord ning
Ġsan ktioner
Ġre aktion
Ġop stil
kast et
Ġkapit al
Ġstil lede
b es
Ġop gaver
giv et
Ġkonkurren ced
Ġ2 1
k ede
Ġfor an
Ġk ommission
I kke
Ġt un
Ġdimen sion
Ġhel st
i um
Ġkonflik t
Ġmennes kelige
b ringe
Ġhvor pÃ¥
Ġ200 3
ring en
Ġaf balan
Ġre el
ĠovervÃ¥g ning
Ġk andid
Ġeffektiv itet
ĠSt ra
Ġsikkerhed en
Ġla der
Ġbeg rund
Ġforud sÃ¦tning
Ġj u
Ġinter ne
form and
sk u
Ġos v
ĠindfÃ¸r elsen
Ġfortjen er
ĠÃ¸ k
Ġt rag
Ã¥r et
ĠberÃ¸r te
tim od
Ġfri vil
c entr
ĠSp anien
spro du
Ġford Ã¸
Ġud sat
rati ve
Ġhel d
Ġtilslu tte
Ġberet tig
Ġtal te
ind ende
ss iske
h und
k elser
ed sm
Ġbek lag
Ġli vet
Ġspeci fik
ĠUd vikling
Ġa ss
ĠL e
olog i
ve je
Ġreg ist
Ġforretningsorden en
Ġs es
yg tighed
Ġkriti k
ĠP PE
p l
sprogra m
Bi fald
Ġl Ã¦re
Ġopret te
Ġparlam enter
Ġhand ic
Ġi de
Ġvil kÃ¥r
Ġ200 2
si tu
Ġtil lade
Ġun iver
Ġd Ã©
Ġintern ationalt
Ġbetyd elige
red it
Ġspeci elt
Ġopfyl der
ĠAm sterdam
Ġp l
ĠdrÃ¸ft elser
k rÃ¦
tal iens
Ġoff ici
ĠB er
Ġfor ordningen
Ġpro f
Ġkontrol ler
Ġregler ne
as ning
v id
Ġmod taget
em b
ĠundersÃ¸g elser
ortug al
tter e
Ġu ly
d es
el en
Ġpass ager
Ġadminist rative
Ġbeh Ã¸ver
Ġkun net
Ġbetyd ningen
ĠFor b
F R
Ġher til
Ġful de
elses pro
Ġsk u
ven der
Des vÃ¦rre
ĠÃ¥r hund
Ġbrug t
u ligheder
Ġforsk els
Ġimp ort
sn iveau
ĠI ran
Ġanmod ning
Ġforh Ã¥b
or ter
Ġgaran tere
Ġst ar
en gen
For slag
k om
ĠretfÃ¦rd ighed
ĠfortÃ¦l le
ĠMellem Ã¸sten
Ġfrem lÃ¦gge
Ġdemokrati et
p er
Ġhist orie
Ġ2 7
Ġhurtig st
Ġintern et
ac itet
po si
Ġresult aterne
Ġd u
ĠÃ¦nd ret
Ġbehand let
Ġkonklu sion
is te
Ġder efter
Ġkommun ikation
ĠL u
Ġud l
rem ier
hold es
Ġb as
Ġover holde
Ġb or
re v
Ġn arkotik
giv ningen
Ġarbejdsmarked et
Ġsk ad
f old
Ġsam let
ĠM iljÃ¸
Ġte ks
Ã Ĩ
o w
Ġl in
sl i
ĠhÃ¥r dt
Ġsamfund et
Ġf e
Ġtekn isk
Al t
Ġharmon isering
Ġover d
ĠarbejdslÃ¸s hed
ĠC O
Ġud fÃ¸rt
Ġ20 20
yp ern
Ġ200 1
Ġinstitution elle
Ġhol der
et Ã¦re
ĠB al
Ġpro cessen
Ġkonklu sioner
Ġfand t
Ġfor klar
un t
st ager
ĠUkra ine
ud over
Ġbekym ringer
Ġa ktioner
kont rol
u elt
Ġbetyd elig
Ġfremgang sm
Ġland es
alis me
sstil lende
ig es
Ġfrem sÃ¦tte
ud vikling
Ġreg ulering
alis tisk
Ġud form
Ġtilf Ã¸je
k eligt
r ige
Ġag ter
Ġselv om
ativ t
f ri
Ġret tet
Ġeks terne
Ġfor and
Ġ1 00
v ed
Ġ4 0
Ġoprett elsen
rÃ¦nd sto
gÃ¸r else
Ġredu ktion
Ġbest Ã¥r
Ġl Ã¥
Ġf und
Ġmilit Ã¦re
Ġoli e
Ġmed fÃ¸rer
iv id
Ġbe villing
omm en
ĠP ortugal
ĠfÃ¸ ler
Ġplen ar
Ġeller s
Ġprogra mmet
effek tiv
Ġneg ative
Ġterrit ori
Ġindg Ã¥et
Ġgodkend t
ĠtiltrÃ¦d else
Ġredeg Ã¸r
Ġfre mmer
end ens
Ġudv ide
Ġret lige
ĠSch engen
Ġele ment
sam fund
Ġju li
Ġvedtag elsen
Ġmed vir
Ġl ave
Ġlang sigt
Ġind ivid
Ġu de
sm et
Ġfrem lagt
Ġris ici
re gi
Ġem b
Ġliber alisering
Ġbestemm elserne
P L
Ġom tal
Ġd an
Ġd om
re bet
ĠfÃ¸devar e
Ġlykk es
Ġd obb
ĠN A
blem et
Ġk Ã¸n
ĠI I
Ġst rid
Ġdire ktiver
ĠÃ¸ j
Ġfjer n
ĠsÃ¦rdeles hed
Ġad fÃ¦rd
I T
Ġs eri
ful de
lÃ¦g ning
Ġutil strÃ¦kk
ring erne
T ak
y st
Ġind rÃ¸
Ġenerg ik
Ġre elle
par ti
Ġum u
Ġu nion
ĠÃ¥r et
l Ã¸s
eg ion
Ġbehand ler
ĠRe vision
Ġfor Ã¸
remier minister
Ġt rafik
Ġsundhed s
Ġudb red
Ġm idlertid
Ġbeskytt elsen
Ġre k
Ġper spek
udget tet
arbej ds
Ġtilst ede
Ġprior itet
ĠhÃ¸r ing
Ġfryg t
Ġudn yttelse
ĠRumÃ¦n ien
st Ã¥ende
Med lem
ss el
ent ligt
Ġvidenskab elige
Ġanm ode
V S
Ġl Ã¦r
be fal
Ġdeleg ation
Ġstyr kelse
Nog le
Ġstyr ker
Ġst atisti
Ġpart nere
Ġne j
Ġr en
Ġp at
Ġkontrol lere
Ġoffentlighed en
Ġsam mens
Ġansvar lig
Ġdelt ager
Ġbet yde
S k
Hv il
Ġkra ftigt
ering s
u lere
Bet Ã¦nkningen
Ġsupp ler
cer es
Ġpar tier
Ġarbejd stager
amer ik
Ġstrukturfond ene
Ġmand at
Ġfast lagt
Ġting ene
Ġang reb
Ġflygtning e
Ġob lig
Ġfors y
Ġregion al
Ġglob al
Ġ Ã¥nd
be hold
ĠC ypern
Ġforel agt
Ġde char
Ġbetyd eligt
ak tioner
ĠA nd
Ġaktiv itet
ĠmÃ¥l et
ĠrÃ¥d sformand
Ġopst Ã¥r
Ġtek sten
vi der
Ġover slag
afstem ning
produ ktion
taliens ke
Ġalmind elige
Ġm ateri
Ġerfar inger
Ġfamil ie
Ġorgan er
Ġforker t
Ġfund ament
Ġsikkerhed s
Ġforskels behandling
g ene
u ser
Ġa p
somrÃ¥ de
er ende
O r
Ġfrem ad
Ġfors igtig
E F
s on
le g
Ġg ik
Ġr om
Ġord fÃ¸r
Ġteknolog i
es ikkerhed
Ġvedtag es
Ġbes Ã¸g
Ġmund t
Ġt rakt
Ġmod tager
Ġra mt
Ġs Ã¸j
Ã¸j else
Ġi talienske
Ġudtal elser
i j
ris en
Ġprodu kt
Ġrej ser
0 2
FÃ¸r st
r in
Ġan befal
Ġaccep tab
b in
sst ra
a z
Ġforbrug ere
Ġl agt
sk yld
ĠnÃ¸dvend igheden
ing s
Ġsi der
ru p
Ġplan er
Ġt us
un s
ont rol
Ġdri v
Ġhumanit Ã¦re
Ġkendsger ning
re j
Ġmang fold
ĠuafhÃ¦ng ighed
svar ende
Ġska der
cer er
Ġetab lere
Ġsl Ã¥
Ġf od
nes keret
els ke
Ġk ul
Ġforet aget
st jen
Ġinteres s
Ġ Ã¦gte
sst aterne
pl om
Ġs Ã¥r
Ġbeslutning stag
Ġvirksomhed erne
ĠindfÃ¸r es
Ġfokus ere
Ġsik ring
ĠF ol
Ġfok user
Ġk erne
Ġg ribe
ĠA VS
ĠG ruppen
olog isk
Ġap ril
c it
o te
Ġv urdere
ĠG rÃ¸n
Ġstrateg iske
Ġgener al
Ġlet tere
Ġmet oder
Ġaner kender
Ġslu t
sm and
ĠvÃ¦l ge
Ġsu ver
Ġuacceptab elt
Ġh jer
ĠÃ¦ndringsforslag ene
Ġmed fÃ¸re
Ġl eder
ĠpÃ¥peg e
Ġreger ingen
Ġselv stÃ¦nd
Ġg li
Ġkomm ent
Ġv in
try k
rupp er
dann else
Ġforelig gende
Ġop lev
ĠstÃ¸ tten
Ġ199 8
Ġs und
o le
Ġb indende
Ġover ra
Ġiden ti
Ġh y
ĠSocial dem
ri ft
Ġmoder ne
Ġfinansi el
Ġmidler ne
ss ektoren
ĠdrÃ¸ fter
Ġaktiv t
h Ã¸rer
Ġk ur
fin ansi
s els
ĠÃ¥ben hed
Ġp remierminister
Ġbegiven heder
ĠbekÃ¦mp elsen
ĠB ulgar
Ġtyp e
ĠS am
Ġfa se
Ġb yr
Ġforen k
o f
ĠE n
est Ã¥ende
Ġc entr
ograf iske
Ġenor me
Ġsyg domme
g ruppen
.. .
ĠforeslÃ¥ s
Ġgenop byg
on de
Ġpriv at
Ġforbed ringer
ĠhÃ¥nd tere
ic in
dire ktivet
bet ing
Ġn Ã¸g
Ġt endens
v ede
bet al
Ġm asse
Ġstig ning
ist ens
Ġsimp elt
Ġkomment ar
Ġudtry kk
olu tion
Ġkontin ent
Ġoblig ator
Ġbeg ynder
Ġr est
Ġind holdet
Ġperson ligt
a sk
ĠerklÃ¦r inger
Ġin s
Ġa ktion
Ġanaly se
Ġkon vent
M Ã¥
Ġsig te
Ġefter fÃ¸l
g han
Ġtyrk iske
n ene
si m
Ġend og
ation erne
rik anske
reg ler
Ġopf yld
Ġpres se
Ġforebyg gelse
Ġrisik erer
for en
Ġdem on
End videre
v urder
n Ã¦vn
Ġre agere
Ġeuro omrÃ¥det
E S
Ġm ist
sst Ã¸tte
ĠÃĺ konomiske
d van
Ġher om
Ã¸rg sel
ĠindfÃ¸r else
Ġinteg reret
jek k
Ġlig nende
Ġl og
ĠS om
Ġforeg Ã¥r
ĠNA TO
b i
Ġbe vis
Ġevalu ering
Ġforsk elle
Ġudarbejd elsen
ik t
Ġkonkurrenced ygtig
x emb
ĠP olen
Ġtil svarende
Ġdi plom
Ġbev Ã¦
ĠdrÃ¸ft et
Ġsubsidi aritet
u le
ĠsÃ¦ ttes
Ġforb li
Ġfjer de
Ġdy re
ĠS ver
Ġeksemp ler
and ene
ĠP ro
Ġu en
ĠklimaÃ¦nd ringer
i ra
K un
Ġmod sÃ¦tning
Ġp ati
Ġej end
Ġmis brug
Ġbyg ger
Ġan ti
Ġkon cent
pro j
es s
Ã¥r ige
Ġte gn
M V
Ġbetrag ter
Ġkonflik ter
Ġgrund en
mÃ¦ss igt
Ġfor klare
Ġt or
Ġkom bin
Ġafbalan ceret
Ġstil les
ĠG e
Ġsandsyn ligvis
ĠstÃ¸ ttet
is sioner
ful d
xemb ourg
yd ende
Ġp ol
Ġlet te
Ġgaran ti
ring sforslag
ĠfÃ¸rste behandlingen
Ġkoordin ering
Ġdechar ge
p or
Ġv ore
vens ke
Ġ199 7
A n
Ġhind ringer
or ien
ĠnÃ¦ st
ab ilitet
Ġan ser
v Ã¦g
ĠmÃ¦r kning
ĠU n
Ġelekt ron
ĠIntern ationale
Forslag et
ĠordfÃ¸rer ens
ĠnÃ¸j ag
Ġvirkning er
c erne
ss ystemer
Ġl ove
Ġmenneskerettighed s
Ġs venske
ĠtÃ¦ ttere
si en
Ġanvend t
Ġpr Ã¸
isker i
ĠCentral ban
ret tet
Ġkont akt
ros o
Ġop posi
kk ede
s ektoren
Ġn eder
Ġstar te
ĠRet tigheder
Ġsoci alt
Ġadskil lige
p eriode
Ġfast sl
Ġind byg
ĠsvÃ¦r t
Ġn o
Ġind tryk
Ġtru ssel
Ġm Ã¦ng
Ġop ly
ra b
ĠÃ¸konom ien
ĠS ikkerhed
Ġsvar e
Ġan vender
Ġop m
Ġsvar er
Ġbyg ge
h jÃ¦lp
sl en
Ġvis um
Ġvedtag else
ar us
Ġd Ã¸
Ġin klu
ks omme
a de
ĠstÃ¦r ke
Ġoverord nede
Ġakt Ã¸rer
on e
en nem
ĠC h
Ġpri mÃ¦r
Ġtak ket
Ġopm unt
Ġforsik re
ĠlÃ¸ b
Ġsy stemer
Ġar t
ak ken
sb ourg
ag en
Ġsp Ã¸rger
ĠÃ¸nsk et
Ġreg uler
Ġinstitution erne
Ġkvinder s
Ġbrug en
Ġhil ser
Ġhv id
ĠkrÃ¦ fter
Ġ Ã¦ldre
it uation
Ġr esten
Ġtilfred sstillende
Ġsp ort
Ġunder try
Ã¸ret Ã¸jer
Ġeksister er
ĠS lov
sfor manden
ĠtilstrÃ¦kk elige
Ġover fÃ¸r
Ġprodu center
Ġskab es
Ġforsk nings
Ġfattig e
Ġtak ne
Ġovervej elser
ĠlÃ¦ge midler
n or
Ġkor rup
Ġin st
ber ale
Ġrefor men
ĠA r
Ġhoved sag
g te
g res
sl av
ĠhÃ¥nd hÃ¦
Ġd rage
Ġem ission
Ã¸b en
Ġr ede
ad ende
ĠStra sbourg
Ġfast sÃ¦tte
Ġop d
Ġforpligt et
Ġoprett else
for sy
skab er
Ġforeg Ã¥ende
ĠAf ghan
Ġrespek tere
Ġher med
ĠeuropÃ¦ ere
Ġstra ks
Ġdyb t
Ġmod st
Ġtopm Ã¸de
for samling
Ġti de
n it
Ġenergik ilder
Ã¸ben havn
t ens
Ġvel ly
Ġ lighed
Ġsik res
Ġkvalitet en
rÃ¦n gende
as ter
nÃ¦vn te
I fÃ¸lge
Ġorganis ation
ĠG u
ug o
ĠVer dens
Ġ% .
om en
ĠdÃ¥r ligt
til le
Or d
Ġomfat tet
sn it
a y
K an
sf rihed
k erne
Ġet n
Ġtan ke
hver t
mÃ¦ss ig
Ġtilstede vÃ¦r
orger nes
yn am
Ġass oci
Ġs ent
Ġmob ilitet
ĠBel arus
s ere
Ġkon vention
ĠopmÃ¦r ksomme
Ġudenrig s
Ġudv eksling
Ġnog ens
ĠivÃ¦rksÃ¦ tte
el adende
land et
Ġindvand rere
Ġch ance
Ġv est
Ġstart en
Ġp ortug
Ġerfar ing
Ġafspej ler
ĠmÃ¥ der
Ġh Ã¦v
Ġgi ves
ĠlÃ¸s es
Ġgensid ig
Ġsv ig
Ġe vne
Ġmet ode
ĠK Ã¸benhavn
Ġbetragt es
ĠSver ige
Ġord en
Ġh us
Ġk Ã¸re
Ġfinansi eringen
M it
Ġfast lÃ¦gge
ar isk
ĠgÃ¦l de
vil kÃ¥r
n Ã¥r
Ġmoder n
Ġsig ter
stil let
Ġprior iteter
Ġkra ftig
Ġbekym ret
ĠBal kan
Ġdisku tere
Ġaccep terer
san liggender
sst ater
Ġk em
Ġper man
Ġindustri en
Ġoverhold else
skra ft
o ter
Ġem net
Ġfremgangsm Ã¥de
0 3
Ġfolk es
Ġsv ag
Ġ19 8
ĠprÃ¦ sen
Ġli der
bru d
Ġsam arbejds
besk ytt
Ġbesk at
Ġsty re
Ġlin je
ugo slav
Ġs elskab
Ġhold t
ĠdÃ© r
ĠefterfÃ¸l gende
produ kter
ĠforÃ¥r s
M ine
d ommen
Ġu ret
Ġregering skonferencen
Ġsystem et
ĠsÃ¸ ger
ĠÃ¥b ent
Ġra mm
Ġy t
ĠN eder
Ġportug is
Ġd omstol
hed erne
der ne
ĠtrovÃ¦rd ighed
Ġperson lige
or te
Ġaf g
on en
ĠmiljÃ¸ mÃ¦ssige
Ġmangfold ighed
ĠS MV
Ġm ia
ste gn
Ġhensigt smÃ¦ssigt
Ġarg umenter
Ġdobb elt
Ġd ynam
Ġoverra sk
ĠM ed
ek Ã¦mp
Ġinvolver et
Ġgod kende
Ġres ul
Ġled ere
Ġejend om
g elsen
Ġfal der
Ġk in
ĠÃĺst rig
Ġafslu tning
Ġbil aterale
in iti
spro cedure
c el
Ġh und
Ġpo st
ĠAfghan istan
Ġud gift
Ġf iske
ĠkrÃ¦ ves
ĠidÃ© er
Ġm idt
Ġsituation er
Ġanvend elses
esk yttelse
bru ar
s ol
Ġnogens inde
Ġglob alt
Ġfe bruar
Ġprak tiske
h Ã¥nd
Ġr ig
Ġens art
ĠGrÃ¸n ne
Ġre alitet
Ġkons ol
et er
alis ere
Ã ¼
9 7
Ġfor behold
Ġfamil ier
ĠN i
Ġkval ifi
Ġrelig ion
ar ter
200 1
Ġbesk ri
9 8
Ġtal ere
ÃĨ nd
Ġtilsyn eladende
Ġk redit
ister ne
Ġafh Ã¦nger
Ã ¨
is tisk
Ġmed icin
Ġhistor iske
sl am
Ġst u
Ġnarkotik a
b ring
Ġan sÃ¸g
Ġop tim
ar i
Ġopret holde
Ġbet eg
Ġinteress ant
Ġaner kende
Ġberet ning
Ġfornu ftigt
Ġtilp asse
Ġop lever
d ik
ĠÃ¦nd res
Ġforbind elserne
Ġmind ske
s end
Ġan bef
Ġregering erne
Ġ199 6
Ġborger es
Ġsuver Ã¦n
i fik
Ġsp Ã¦nd
Ġhurtig ere
Ġfor tal
Ġlanddistrik terne
ĠBudget udvalget
Ġf Ã¦r
Ġ2 3
os ter
ĠtiltrÃ¦d elses
Ġ rund
red s
Ġhandic app
sk Ã¦r
Ġunder skud
kk else
Ġla vere
Ġsket e
Ġad var
Ġhenvis er
ĠtrÃ¦ff er
n Ã¦r
Ġe v
Ġtil lader
f re
ĠlÃ¦g ges
ĠÃ¥rhund rede
ĠstÃ¸ ttes
Ġrelig i
ĠA t
Ġkomp ens
- ,
ass er
Ġtil trÃ¦
p e
Ġv or
Ġslu tte
ent lige
Ġsk j
Ġb ange
sst and
Ġtilsk ynde
Ġil leg
Ġprocedur en
ĠnÃ¦v nes
en hed
Ġi mm
Â« .
Ġfor vÃ¦r
ro ati
Ġefter sp
ire ktivet
Ġdefin ition
Ġom struktur
Ġkr ist
ĠInd re
Ġd Ã¸r
Ġf il
Ġm iddel
Ġd ikt
Ġhumanit Ã¦r
Ġte mmelig
Ġstand ard
ĠopnÃ¥ s
Ġbas is
ĠprimÃ¦r t
Ġut ro
an sk
stat s
Ġu und
ĠspÃ¸rgsmÃ¥l stegn
ĠsÃ¸ ge
Ġrespekter er
Ġf ang
Ġt j
Ġfors am
ĠNeder landene
Ġs ek
ers on
ĠBulgar ien
tag es
Ġto tal
ff ekt
Ġp la
Ġig ang
ĠInd ien
ĠDem okrater
bog en
or br
Ġaf gift
Ġperi oden
i z
Ġunder teg
ĠbekrÃ¦ fte
Ġind gÃ¥r
it ann
Ġslu tningen
Ġgli m
Ġkonstru ktiv
orbr itann
Ġarbejdstag erne
di o
Ġom h
Ġp akke
Ġa nder
Ġgennems nit
ode ks
Ġ6 0
ĠMen neskeret
Ġfinansi ere
Ġoprind elses
Ġulov lig
A r
r el
h us
ĠK y
st yr
Ġru ssiske
ĠmÃ¸d es
Ġmak sim
b orgere
i ets
ĠgrÃ¦ ske
SpÃ¸rgsmÃ¥l et
ĠB N
p unkt
b y
20 1
Ġkorrup tion
Ġform uler
ĠM in
r yd
Ġf rug
Ġm er
ĠpalÃ¦stinens iske
ĠforhÃ¥b entlig
ĠF in
Ġser vi
ĠtvÃ¦r timod
r est
ĠlÃ¸ st
Ġbeskytt elses
Ġre vider
Ġforslag ene
ĠsammenhÃ¦ng ende
Ġumu ligt
Ġn go
Ġl iste
Ġbed t
Ġstat sb
opm Ã¸det
Ġiden tifi
ĠN e
ĠgrÃ¦n serne
Ġperson ale
ĠdÃ¥r lig
Ġander ledes
o se
Ġtid splan
ytt es
Ġf art
kk erne
Ġsimpelt hen
Ġfor holdet
Ġud kast
Ġin former
ĠbÃ¸r ne
Ġsocial dem
Ġforbruger nes
sl ov
Ã¦ d
Ġbeslu t
ĠA g
organis ationer
Ġsty ring
ĠforsÃ¸g t
Ġgrundlag et
sfor anstaltninger
ĠLand brug
b land
Ġsikkerhed spolitik
g ruppe
V il
ation s
Ġaf holdt
Ġmul til
ĠsÃ¸j le
Ġs Ã¦l
Ġpris er
Ġru m
Ġkatastrof e
vÃ¦ sen
Ġh ende
ĠGe or
Ġskri ft
Ġmedlem skab
ĠS er
Ġfakt um
Ġforsam ling
Ġst ol
Ġet hvert
Ġfores p
Ġsy mb
Ġulov lige
Ġprak tisk
Ġglim rende
Ġl o
Ġh Ã¦nd
Ġ% ,
Ġun gar
un ion
ab rik
Ġmod tage
ĠV est
Ġmob il
ud valg
Ġevent uelle
Ġsy v
Ġunderstre ges
Ġenergi effektiv
K O
Ġkonst ant
s vin
sp eriode
Ġvigtig ere
ĠJ ugoslav
Ġanmod et
Ġh ed
Ġen hed
Ġudtrykk eligt
ĠstÃ¸r r
Ġmedlem slande
ĠopmÃ¦rksom heden
Ġ2 4
5 0
Ġnet vÃ¦rk
le je
Ġtilslu tter
Ġperspek tiv
Ġgen stand
Ġmedlemsstater s
Ġsk Ã¸n
ĠforelÃ¦g ge
Ġl ange
Ġkandid at
Ġinternet tet
Ġprincip i
Ġforbr ydelser
n Ã¦st
Ġp eg
Ġka teg
Ġspecifik t
Ġunderstre get
ĠSt orbritann
Ġomhand ler
kon ventionen
ĠuafhÃ¦ng ige
ĠBar roso
am mer
Ġber eg
f rem
v a
Ġudgifter ne
Ġvok sende
Ġo ven
Ġunder skri
or itet
Ġ 000
o ss
Ġidenti tet
Ġst rÃ¦
Ġf rig
raktat ens
l ene
Ġum iddel
yg ge
Ġbesvar e
Ord fÃ¸rer
Ġs ej
yg g
Ġforp lig
Ġdat o
Ġkon ver
Ġambiti Ã¸se
Ġ2 2
Ġmor al
Ġi sra
Ġb rÃ¦ndsto
Ġfortsat te
b est
Ġkon centr
Ġbeste mte
v elsen
Ġl id
ser ing
Ġfar lige
Ġstrateg isk
an ger
mÃ¥l et
v Ã¥ben
Ġig nor
Ġforbed ret
ĠRet lige
Ġra c
lag te
p eget
Ġfast holde
s spÃ¸rgsmÃ¥l
Ġvar et
SÃ¥ dan
Ġof rene
Ġopbyg ge
pp ort
ĠovervÃ¥ ge
m ark
K on
ĠbeskÃ¦ftig er
ĠfuldstÃ¦nd igt
Ġrest rik
v ig
arbej dere
Ġrej st
fÃ¸r else
blem er
Der udover
vÃ¦ k
Ġinter institution
Ġbidrag et
Ġdat ab
gar n
at in
Ġteknolog ier
is eret
Ġlovgivning smÃ¦ssige
Ġm om
Ġopfyl dt
sfor hold
Ġyder ste
Ġoverhold es
U den
ĠpÃ¥ tage
3 0
Ġomkost ningerne
ĠK roati
Ġd is
el Ã¦g
ĠivÃ¦rks at
Ġsam arbejd
Ġkoncentr ere
k al
MÃ¥ ske
ri c
st Ã¸tte
ĠstÃ¦rk ere
Ġregerings che
Ġud f
ĠFol ke
Ġvel fÃ¦rd
ot or
oc k
Ġun Ã¸d
Ġforfat ningen
Ġhvor af
Ġorganis eret
Ġbetal ing
Ġtradition elle
Ġgent ager
Ġyt ring
a i
s re
Ġudvik lede
Ġsig es
sag n
Ġtv un
ĠkÃ¦mp e
Ġforelig ger
Ġudvik let
ĠH er
Ġop trÃ¦
v ant
Ġpres ser
Ġkap acitet
ĠvÃ¦rd ighed
Ġful gt
Ġforny et
Ġhen lede
strÃ¦ kning
Ġportugis iske
ĠtilgÃ¦ng elige
Ġpar at
Ġu op
Ġfor kast
k atastro
Ġved tager
ĠR egion
Ġbeslutningsforslag et
Ġindd rage
serv at
Ġf ys
Ã¸ bet
ĠS ol
Ġdag ens
Ġvis ion
Ã¦ isk
tag en
ĠÃĺ konomi
sstand arder
Ġh e
Ġo n
lys ende
Ġgen et
Ġk il
Ġrek lam
Ġtilb ag
Ġsk Ã¦r
Ġfiskeri politik
Ġsp red
ĠredegÃ¸r else
Ġgennem sku
Ġudgang en
Ġun g
p olitiske
ind elser
our nal
Ġforet ages
Ġti der
l ler
an a
b ien
Ġfor lig
Ġpolitik ere
Ġkonsekvens erne
Ġor ien
l it
ĠC an
Ġsyg dom
Ġkommer ci
Ġven ter
virksom heder
t ransport
Ġafslu tte
Ġtjen er
Ġmellem tiden
Ġforsik ring
h er
on i
Ġundtag else
ĠtvÃ¦r s
Ġaut om
Ġgener el
Ġover holder
Ġkont ra
ĠFolke parti
ĠtrÃ¦ kke
Ġhalv del
Ġbes Ã¦
Ġhenvis ning
Ġgodkend else
marked et
Ġb ringer
Ġord entligt
os n
Ġkontrol len
al et
Ġpro te
Ġob jek
ĠstÃ¸ ttede
ol l
sp olitiske
alis eret
Ġopford ring
Ġsp or
Bet Ã¦nkning
Ġm Ã¦l
Ġregion erne
Ġsektor en
sp oliti
fÃ¸r te
Ġforvent ninger
ĠDet te
Ġforst Ã¦r
Ġsto pper
ĠÃ¸konom ier
Ġfakt orer
amerik a
Ġbeting elserne
Ġind lysende
ĠSikkerhed s
it Ã©
ĠvÃ¦r re
Ġkonsek vent
Ġhistor isk
en det
Ġaf snit
ri ch
9 6
i tioner
ord fÃ¸rer
Ġsk am
Ġvis te
Ġforl Ã¦ng
ĠbegrÃ¦ns ninger
Ġvalg k
cen terne
fÃ¸r elsen
Ġrim eligt
ĠansÃ¸ger landene
Ġforst Ã¥et
ĠRevision sretten
sikkerhed en
Ġinteg rer
Ġunder sk
Ġak tive
Ġbet aler
Ġm ark
ot o
Ġindt Ã¦gter
Ã¸r get
Ġsand t
Ġp as
ĠR om
som hed
at orer
bet Ã¦nkning
Ġm o
Ġfol ks
Ġmer vÃ¦rdi
v ok
ĠstÃ¸r st
Ġoverbe visning
Ġrisiko en
Ġ Y
t jen
an cen
p oliti
Ġbesk ed
Ġber Ã¸rer
Ind en
Ã¦ b
m ynd
Ġkriti ser
sprogra mmer
Ġvir ker
ĠtilstedevÃ¦r else
Ġi sol
ĠnÃ¦v ner
or is
Ġtilb yde
Ġaccep teret
Ġproduktion en
Ġs alen
ed on
Ġaf sl
pro cessen
ssystem et
Ġled else
Ġf Ã¦n
ĠhÃ¸jt stÃ¥ende
Ã¸ konom
Ġbred ere
on a
komm e
Ġres er
res sour
ÃĨnd ringsforslag
Ġforenk ling
E L
Ġsku ff
le ve
Ġvalg te
Ġn ation
Ġgen gÃ¦ld
Ġstren ge
A F
Ã Ń
ĠafgÃ¸r elser
Ġuniver sitet
Ġrund t
sstra tegi
Ġnorm alt
Ġud strÃ¦kning
tokol len
Ġpriori teringer
Ġopret tet
system et
B e
P T
b o
Ġt rÃ¥d
Ġsk and
ĠarbejdslÃ¸s heden
g ens
Ġmennesker s
Ġgennem fÃ¸rer
Ġti t
C O
Ġsp ek
ĠnÃ¸dvendig vis
Ġinvolver ede
Ã¸r erne
ĠÃ¥r lige
yder e
Ġs elskaber
Ġinves tere
ĠP ar
b red
m ning
t v
Ġnab ol
Ġlegiti m
Ġd rÃ¦
Ġgaran tier
Ġf Ã¸d
rag ender
Ġhenstilling er
sÃ¦tt elsen
somrÃ¥ der
Ġkli m
Ġven te
sli vet
Ġudenrig spolitik
Ġd ig
f Ã¦l
sm ekanis
Ġomh ygg
hold else
Ġlejlighed en
a us
Ġdri ft
ĠimÃ¸de gÃ¥
Ġbeslu ttede
ĠLi berale
ĠStorbritann ien
Ġud fÃ¸re
Ġan satte
Ġkonkurren cen
Ġ199 5
Ġoffici elle
ĠfÃ¦r re
Ġparlament ariske
Ġ8 0
ĠLu xembourg
sf onden
i ch
ĠmÃ¥l ene
Ġpen gene
Ġenerg is
Ġindled t
Ġinform ationer
R e
en tere
al erne
Ġi slam
ĠRÃ¥ ds
Ġpri m
in er
Medlem sstaterne
Ġkriti sk
ĠÃ¸st rig
Ġy det
for hold
Ġmu ligvis
ĠhÃ¸j este
ĠEC U
Ġarbejd skraft
giv ende
sted elen
Ġudst Ã¸d
k i
jekk iske
ĠfÃ¸l somme
ĠudÃ¸ ve
Ġbl od
ĠH a
Ġr yg
Ġ Og
ig vis
Ġmulighed erne
medlem sstater
Ġbek ost
Ġsamt lige
Ġkend skab
ĠBN P
Ġk endet
Ġsk yl
Ġind stilling
Al ligevel
smin ist
ĠformÃ¥l et
d y
ĠM c
op lys
del e
ĠD an
ĠlÃ¸ fter
ĠT ur
Ġcentr alt
yd es
Ġopford res
Ġtj ene
sprodu kter
es lu
Ġer kende
Ġin cit
Ġpotenti ale
ssam fund
Ġstruktur er
Ġindsat sen
Ġkon ference
ĠU den
sl Ã¸s
ekt et
op er
Ġrom a
Ġvest lige
et id
ĠfÃ¸devar esikkerhed
Ġindivid uelle
Ã¸ konomiske
Ġforb erede
Ġberettig et
Ġsk ygge
ĠB e
a be
Ġfolke afstemning
u tter
Ġrele vant
es ien
Ġti mer
ĠhjÃ¦lp er
ĠÃ¦nd rer
Ġstyr ket
Ġfor k
alis erede
Ġk yst
ba kning
. ,
ĠsuverÃ¦n itet
Ġarbejdstager nes
Ġkendet eg
Ġ Hvis
Ġal der
Ġlok al
lag de
slu tning
Ġsymb ol
Ġisra elske
Ġdiskrimin ation
k ler
Ġj ournal
Ġforh Ã¥nd
Ġfr ist
svin kel
ĠbÃ¦red ygtighed
Ġop bakning
Ġprincipp erne
) :
Ġfrihed srettigheder
Ġkval ifik
fÃ¸r ing
N atur
ĠS e
S iden
ĠB ur
Ġlovgiv nings
Ġsyd lige
O p
Ã ħ
p ri
Ġmod satte
k ur
Ġmyndighed erne
Ġhandicapp ede
b udgettet
Ġfort olkning
Ġramme program
Ġforhand le
ste uropa
Ġfakt or
Ġmig ration
l eder
Ġfor uro
Ġher for
Ġven ner
Ġadminist ra
ĠEurop ol
Ġhvor nÃ¥r
sf ri
Ġkommentar er
Ġm Ã¸n
Ġapp eller
Ġteks til
Ġs alg
as h
ĠlÃ¦ se
un de
Ġbefolkning er
Ġtor sdag
Ġkvinder ne
Ġforesl og
Ġindt rÃ¦ngende
Ġmundt lige
sp ar
Ġsu kker
ĠV aluta
Ġforuro lig
y re
For manden
a h
sion en
Ġher sker
Ġ ...
In gen
Ġforbed res
ituation en
Ġoplev et
fl Ã¸j
Ġfrug t
Ġg as
Ġbel g
Ġtilp asning
Ġfor holder
Der es
progra mmer
Hvil ke
1 99
H ar
ap an
s ning
an k
osn ien
Ġ 0
ner gi
sat lan
it au
Ġtakne mmelig
for b
ko hol
Ġden gang
Ġt el
Ġal li
Ġnu kle
sf ond
Ġbi ler
Ġsuppler ende
on s
ak edon
cedur er
ĠpÃ¥vir ker
Ġk Ã¸d
Ġsk el
Ġre ager
Ġbe viser
Ġr Ã¦
R es
sm idler
Ġud ryd
Ġrim elig
Ġmedlem slandene
ire kte
ind vis
Ġglob alisering
Ġarbejdsmarked ets
situ ationen
Ġd Ã¦kke
byr des
end a
Ġaf gjort
esk Ã¦ftig
Ġned skÃ¦r
id ste
Ġunder lagt
Ġsvar et
Ġpoliti kken
Ġbeslutningstag ning
d else
ĠfÃ¸r es
Ġkra vet
Ġafh jÃ¦lp
Ġs jÃ¦l
Ġhurtig e
ĠSoci ale
Ġt oler
var er
Ġtjeneste g
Ġ3 1
Ġkin esiske
Ġop hold
Ġaf gifter
Ġeksper ter
Ġvel stand
Ġdialog en
Ġnabo skab
Ġlandbrug s
sp il
ab il
ĠB SE
or et
Ġfor fÃ¦rd
ĠP ak
Ġfast sÃ¦ttes
ĠT il
Ġover alt
Ã ³
Ġtil veje
Ġvir kelige
ĠuafhÃ¦ng ig
m iddag
al der
Ġl ag
re vne
for sk
Ġstyr kes
skri ter
Ġf ond
ĠD omstolen
ĠSer bien
Ġfattig ste
Ġkonflik ten
Ġh j
Ġpro tes
ĠG en
ful dt
un ikation
ri m
ven tioner
Ġfag foren
Ġenstemm igt
elle kt
ac c
Ġbekost ning
is tere
v o
Ġforet rÃ¦
L AF
r ering
ĠPro di
ĠUn garn
m el
Ġa sy
Ġefter middag
Ġgent agne
Ġatom kraft
siv t
Ġperman ent
Ġforel Ã¸b
Ġaltern ativ
Ġoffent ligt
ĠInd ustri
ĠbekrÃ¦ fter
Ġher pÃ¥
ĠB osnien
Af slutning
Ġforval tningen
Ġoper ation
Ġvir ke
Ġkrav ene
Ġtilp ass
Ġstraff eret
beret tig
Ġly s
h n
Ġ2 6
yl de
Ġfa ir
Ġimp or
ĠCentralban k
c ens
Ġ2 8
Ġprim Ã¦re
org erne
Ġbehandling en
Ġundtag elser
ĠpÃ¥vir ke
tt else
Ġsen der
Ġforskel lig
Ġomstruktur ering
ek Ã¸d
spro ceduren
Ġrapp orter
omrÃ¥der ne
Ġsid der
Ġuret fÃ¦rd
ĠUden rig
sm od
Ġtil t
sm Ã¦nd
Ġfores tille
KO M
ĠKroati en
ĠÃ¸ gede
ĠMon etÃ¦re
Ġf oder
ĠgennemfÃ¸r elses
Ġhje mme
Ġforven te
mb ud
Ġud vise
Ġan giv
af gifter
Ġnord lige
R O
sst raf
Efter som
Ġeng ager
Ġski b
ĠsÃ¥r bare
der ende
Ġdra m
Ġmekanis mer
Ġd on
Ġover sv
rer er
Ġud sÃ¦ttes
Ġb om
ĠK in
ĠUd valg
Ġrespekt en
n edsm
Ġh Ã¦r
Ġunder min
Ġmin utter
Ġopst Ã¥
ĠFin land
Ã¥ g
Ġvirkelig hed
Ġm otor
ĠTyrk iets
ver si
ĠprÃ¦c ist
Ġerhverv slivet
Ã¥l et
tt rÃ¦
ĠnÃ¦st formand
ad til
Ġudvid et
200 0
Ġassoci erings
Ġher i
vÃ¦r ker
ĠidÃ© en
Afslutning svis
Ġtillad else
ĠdÃ¦ kker
Ġpresser ende
Ġind irekte
Ġkl ager
en te
Ġud gÃ¸re
ret te
val itet
Ġl yd
Ġposi tion
Natur ligvis
Ġmin der
pro ceduren
ĠdrÃ¸ft else
Ġaf holde
Ġbil lede
Ġcivil samfund
Ġt Ã¸r
Ġind byrdes
ĠM akedon
Ġforvent es
Ġint ellekt
in i
Ġop fat
ĠafhÃ¦ng ige
Ġaltern ative
Ġarg ument
Ġenergieffektiv itet
Ġu sikkerhed
Ġhav ne
komm er
ĠkÃ¦mp er
Ã¸j et
ĠvÃ¦l ger
s aktioner
Ġord ninger
ĠhÃ¥ be
ĠstÃ¸r stedelen
stru ment
ĠrÃ¥ der
Ġs endt
ĠT ransport
Ġfem te
Ġadgang en
ĠfÃ¦rd ig
Ġvelly kket
t ede
Ġo tte
Ġh Ã¦nger
ĠpÃ¥ lid
art ret
Ġbeg Ã¥et
Ġra dik
Ġtrag ed
Ġoply se
cel ona
O ver
ed el
Ġform iddag
Ġbekym rede
Ġvar e
k raf
Ġly tte
Ġudst yr
Ġgrupp es
Ġkons ens
Ġhvorv ed
Ġtrakt aterne
Ġmon op
kraf ttrÃ¦
t ra
Ġopn Ã¥r
sk rÃ¦n
eri oden
ĠbegrÃ¦ns ede
Ġk endt
Ġneder landske
Ġtredjel and
Ġoplys ning
Ġ ,
Ġkomp lek
Ġbr agt
Ġudenrig sminister
ĠKy oto
u ss
Ġsk ub
af rika
an erne
Ġind ik
organis ation
Ġhensyn tagen
Ġsystem atisk
Ġsv Ã¦
Ġopposi tion
s be
Ġra dio
Ġtru sler
0 4
Ġtil lÃ¦g
For mÃ¥let
Ġal kohol
Ġregnskab s
Ġvigtig heden
Ġtid s
ar s
Ġud tale
Ġstrategi er
Ġoverbe vis
Â« ,
Ġski be
ĠkrÃ¦n kelser
Ġtilfreds hed
kning en
Ġtid ligt
Ġinde holdt
Ġniveau er
Ġforretningsorden ens
Ġudn Ã¦vn
Ġkriti ske
Ġanerkend t
forhandling erne
Ġi krafttrÃ¦
Ġr inge
Ġs tim
Ġformandskab s
Ġkonvent et
Ġsp ur
ĠGeor gien
m ann
ĠB orgernes
Ġkrimin elle
ĠSlov ak
Ġtydelig vis
ud s
ĠL am
ĠlÃ¥ n
v it
Ġaf br
sk o
ĠDer for
Ġforuren ing
Ġp ap
Ġlu kke
Ġfremm ed
m uligheder
Ġm as
l ang
Ġinst ans
ĠNi ce
Ġungar ske
Ġd Ã¸de
te kn
ĠtrÃ¦ de
Ġdom in
Ġtran satlan
id s
Ġfremsk ynde
ĠkommissÃ¦r er
ry de
Ġf ant
men terne
Ġuh eld
Ġreligi Ã¸se
Ġtil sagn
ra ksis
Ġgenop retning
Ġeg entlige
f rihed
Ġsom mer
el lig
Ġforl Ã¸b
Ġlangsigt ede
Ġin sp
gÃ¸r elsen
Ġtraktat ens
K ommissÃ¦r
Ġf anger
E urop
on ing
ĠlÃ¸s ningen
ĠbekrÃ¦ft et
beret ning
Ġindk Ã¸b
Ġkonsol ider
Ġen sid
ĠdÃ¸d sstraf
Ġfor vir
Ġbelg iske
a der
ĠJ apan
Ud valget
Ġby er
Ġst od
Ġbestemm else
ĠBel gien
or ier
Ġforb und
Ġetn iske
Ġan lÃ¦g
Ġklar hed
spÃ¸rgsmÃ¥l et
ĠF Ã¸r
Ġut vivl
lad t
m indre
sp or
Ġan liggende
ĠO r
Ġmed ier
ĠrÃ¥d sformanden
f un
Ġk Ã¸retÃ¸jer
Ġmarked erne
Ġbes Ã¸
ar Ã¥det
di rekt
Ġbeklag eligt
ft et
u ra
ad a
Ġfri handels
ĠdÃ¥r lige
Ġer kender
Ġan kl
ore a
Ġ201 1
f e
Ġt ort
J a
Ġinform ere
Ġbil ag
ĠBar celona
A nd
Ġst rÃ¸
ener gi
Ġfornuftig e
Ġhed der
G ennem
Ġland s
Ġbevilling er
Ġe ffekt
ĠMenneskeret tighed
b aser
Ġudvik ler
Ġfamil i
Ġhenvis e
Ġutvivl somt
Ġbo lig
Ġ Ã¥
Ġlov en
Ġplan lagt
sag en
ed ig
Ġfred sprocessen
Ġyd es
Ġven der
ĠordfÃ¸r erne
ris e
Ġban ker
eg en
Ġkomm entere
ast rich
Ġtvun get
ĠC ol
ĠhÃ¥r d
Ġbeg rebet
oplys ninger
ĠMin ister
Ġer kend
Ġadminist ration
Ġkommission sformand
Ġsubsidiaritet sprincippet
ĠlÃ¸b ende
Ġind fÃ¸rer
Ġflertal let
k ri
ĠG al
Ġforhind rer
Ġbekym rer
E ller
Ġtil kende
Ġtil hÃ¸rer
Ġensart et
obb y
an svar
mm es
Ġundersk revet
E C
ĠC ub
ĠIn ter
ĠÃĺ ster
tag elsen
Ġch arter
Ġteknolog iske
rÃ¥ dt
ĠberÃ¸r t
Ġplenar forsamling
OrdfÃ¸rer en
Ġk Ã¸b
Ġre alistisk
ci p
initi ativ
Ġafslu tningen
Ġyd re
Ġuund gÃ¥
ĠForb ruger
Ġelekt ric
M Ã¸det
Ġvi der
ĠtrÃ¦ der
Ġkompeten te
Ġigang vÃ¦rende
Ġsk Ã¦b
Ġaf rikanske
ĠD o
ult in
hÃ¥nd en
o et
Ã¸ ber
Ġaf klar
at ten
it al
ri fter
Ġanaly ser
om p
ret Ã¦r
b il
l od
Ġnyt tigt
is ch
Ġob servat
ĠÃ¸strig ske
te k
Ġret tighed
ĠMakedon ien
Ġu l
Ġj us
ĠP Ã¥
Ġbetyd nings
Ġindk omst
Ġemb edsm
ĠÃĺ steuropa
Ġkrist ne
vÃ¦rd igt
ov a
Ġfa ste
ĠPak istan
v ande
or erne
ĠbÃ¦redygtig e
ĠdrÃ¸ft elserne
Ġafskaff e
s a
y ring
ĠpÃ¥ peget
Ġban k
Ġfrem stil
ĠC o
finansi ering
Ġm ultin
Ġerstat ning
ĠT h
Ġsm ule
feren cer
ĠfÃ¦ng sl
Ġkonsens us
Ġopst Ã¥et
Ġobligator isk
Ġregion alt
Ġunderstre gede
Ġl isten
Ġekstre mt
Ġven stre
Ġudtry kt
aktiv iteter
vand et
Ġkv ind
Ġerstat te
Ġkonklusion erne
Ġforesp Ã¸rgsel
ele f
im b
ĠklimaÃ¦nd ringerne
I S
Ġu form
Ġ2 9
Ġte g
Ġ Ã¦re
ĠEurop arÃ¥det
Ġfast sÃ¦tter
ĠbegrÃ¦ns ning
bef olkning
Ġu rim
Ġbeslu tte
Ġkonver gens
Ġ5 00
Ġkompli ceret
ĠMa astrich
an aly
Ġkonstru ktive
mm ere
Ġkon ventionen
Ġmenneske handel
Ġtort ur
Ġluftfart ss
ĠovertrÃ¦d elser
ĠfÃ¦n omen
ste kn
ĠO mbud
Ġoverbe vise
Ġuly kker
Ġlangsigt et
Ġpass er
Ġkvalifik ationer
Ġo ks
ater ede
Ġforebyg ge
Ġdiskussion en
ĠÃ¸j ne
Ġin fl
ere fter
Ġunder visning
v Ã¦gt
on g
Ġstat sstÃ¸tte
Ġeks istens
Ġvirksomheder s
Ã¸ tten
ĠpÃ¥ beg
Ġinter vention
ult atet
Ġpartnerskab s
Ġind f
Ġkun st
Ġres olution
Ġ7 0
ĠlÃ¸ fte
Ġspil let
Ġfred elig
Ġge ografiske
Ġlanddistrik ter
Ġfar ligt
Ġoversv Ã¸mm
Ġdefin ere
Pro blemet
Ġs c
Ġv ent
Ġkatastro fer
Ġil lu
Ġforbli ve
ĠfÃ¸r te
Ġbesk ytter
Ġefter retning
Ġtran se
Ġmodst rid
Ġelektric itet
m Ã¸det
ĠJ o
p rÃ¸
ind sat
ĠSocialdem okratiske
Ġanbef aler
Ġbeskat ning
ĠG az
Ġforet ager
for uren
Ġu sik
Ġdirektiv ets
Ġuop sÃ¦tt
y kke
Ġaf viser
Ġsammens Ã¦
ch en
spro j
Ġforst and
Ġbefolkning ens
Ġtilslu tning
b ak
m ar
Ġaf sat
ag entur
Ġkvalifi ceret
Ġplan lÃ¦gning
Ġdisku terer
Ġfrivil lige
H ver
N L
m else
in o
Ġud peg
ĠreprÃ¦sen teret
beskytt elses
Ġhu sker
ekomm unikation
k as
ĠAg enda
Ġd omm
Ġevent uelt
s regler
Ġret ss
mp ro
Ġaccep teres
Ġlej ligheder
institution erne
Ġlok alt
Ġinddrag es
u lighed
ĠÃ¸ ger
Ġins ister
Ġl ast
Ġlever e
ĠprÃ¸ ve
Ġop fÃ¸lg
is eringen
Ġfrem satte
Ġstand se
Ġmedvir ke
m yndighed
Ġu reg
Ġop taget
ekÃ¦mp else
n am
for klar
imb ab
Ã ¤
si li
Ġforsigtig hed
Ġbyr de
ĠF iskeri
Ġaf stand
ret tigheder
Ġglob aliseringen
serv ative
Ġnabo er
Ã¦r t
Ġ9 0
Ġh as
Ġu g
ve jen
gÃ¸r es
ĠÃ¥rsag erne
ĠunÃ¸d vend
gi vere
S ituationen
Ġand el
ytt ede
ĠMar ok
at ter
e x
st an
ĠprÃ¦ get
we iz
Ġg ro
ra d
ĠCub a
ĠmiljÃ¸ ven
t Ã¦n
Ġstabilitet sp
Ġinten si
g elser
Ġre v
ĠbÃ¸rn s
Ġpol ske
Ġm egen
Ġrapp or
Ġlev nedsm
Ġover vinde
vÃ¦rd ige
i tionen
ĠDen ne
Ġtilsk ynd
Ġmon etÃ¦re
Ġk re
ĠM an
Ġkris er
Ġjernban e
Ġk vinde
Ġ we
ĠM art
ĠfÃ¸l gerne
Ġinterinstitution elle
Ġmed ierne
kontrol udvalget
N et
k ap
Ġhalvdel en
M U
Ġstraff e
Ġdriv hus
Ġh avn
and a
ĠsÃ¦ dvan
reg lerne
ĠbestrÃ¦b elserne
1 5
Ġd anske
Ġn or
Ġmekanis me
for me
Ġstruktur elle
Ġoffentlig gjort
g elses
Ġfor fal
Ġbred t
Ġmed taget
Ġforen kle
Ġovervej else
L and
g elig
ik al
o ul
Ġsik ret
Ġudb ud
Ġpat ent
r Ã¶
Ġfor v
ĠÃ¥r tier
ĠbegrÃ¦n ser
Ġratifi ceret
Ġinddrag else
cip lin
u e
ĠS a
ĠÃ¦ndringsforslag et
Ġtilfred se
Ġb og
Ġmeddel e
vurder ing
Ġrespekter es
Ġdemon st
Ġ .
Ġund lade
Ġacceptab elt
Ġd oll
Ġder ved
ĠB us
ket s
ĠBer lin
Ġom gÃ¥ende
Ġfrem stilling
ĠfordÃ¸ mmer
Ġs ti
Ġmen te
i p
Ġom gang
ring es
bestemm elser
Ġop hÃ¸r
Ġmak ro
Ġfran sk
mp ing
Ġfinansi eres
Ġforebyg gende
Ġint ellig
Ġtranse uropÃ¦iske
Ġp es
vend t
Ġalmind elig
ener al
skra v
ĠudstÃ¸d else
p unkter
ig er
Ġ19 7
Ġstabilitet s
al a
Ġn av
Ġtilb ud
Ġamb itioner
c o
Ġsk ole
Ġpris en
Ġpriori tering
Ġmis for
Ġparlamentsmedlem merne
Ġve je
Ġfisker iet
Ġskad elige
F ra
iver sitet
Ġuden landske
ĠMinister rÃ¥det
Ġstra f
t yd
Ġfor ordninger
tiv t
Ġekstre m
sid es
b el
Ġpro cent
sfri heden
F I
Ġny lige
Ġly kke
ĠEC B
Ġasy lan
Ġf Ã¸der
Ġind stillet
Ġhel bred
Ġforker te
ĠlandmÃ¦nd ene
Ġb ist
re vis
mm elighed
ri en
Ġterror ismen
F aktisk
Ġfor kastet
Ġmin ist
lÃ¦g gelse
ĠglÃ¦ d
Ġneg ativ
ak ker
st ren
Ġoks ekÃ¸d
Ġud dy
M O
Ġord entlig
ĠL a
st ater
ĠpÃ¥ st
sk odeks
Ġluft havn
ĠÃ¥ revis
Ġdag en
Ġpri vile
jet jen
ik ro
Ġn ationer
ru nde
ĠP SE
ĠRegion al
a se
Ġ z
Ġu ro
ĠMaastrich t
v nen
ra sili
Ġch artret
Ġb rev
Ġmod ifi
ĠvÃ¦r kt
Ġtel ekommunikation
ĠE nergi
Ġforb yde
ĠL atin
Ġro se
Ġtjenesteg rene
Ġforand ringer
Ġen estÃ¥ende
Ġanerkend es
ĠÃ¸j nene
eskÃ¦ftig else
Ġbe vil
Ġdelt og
Ġseks uel
Ar bej
Ġaf holdes
il l
ĠB u
ĠB ro
Ġfinan sk
ves tering
ĠRepublik ken
Ġekstra ordin
Ġv inde
Ġred skab
Ġfordel ing
Ġstig er
Ġgrund igt
Ġudtal elsen
Ġa b
be villing
Ġefter hÃ¥nden
Ġbeh Ã¸r
lem ent
lov givningen
Ġutil f
Ġdetaljer et
Ġservi ce
s ordninger
Ġopford ret
Ġgener ation
Ġpriori tere
sprogra mmet
Ġgrund ig
Ġdan ne
C E
Ġud vist
ul d
ĠFor mand
c eringen
Ġhold es
Ġverdens plan
ĠuafhÃ¦ng igt
stats lige
Ġbudget ter
ĠhÃ¸j re
ĠnÃ¥ ede
ka ste
Ġhund red
ov jet
as si
ĠbeskÃ¦ftig e
Ġt ac
rÃ¦ kkende
ĠlykÃ¸n sker
an er
til lid
Ġfred en
Ġforfatning st
ĠkrÃ¦ ft
Ġeksp or
ĠmÃ¦r ke
Ġh ul
Ġbet Ã¦n
ĠAl ban
fre mt
ĠhÃ¸r te
Ġstrategi en
Ġf abrik
Ġtil nÃ¦r
Ġtan ken
M iddelhav
ul ation
200 2
Ġseri Ã¸st
Ġkompens ation
Ã¥ d
Ġn i
Ãĺ F
ĠP rÃ¦
Ġudst ed
Ġcent rum
ol i
af gift
politik ker
Ġetabler et
g rÃ¦n
an terne
vÃ¦rd ig
ĠnÃ¸g le
Ġk ald
Ġop h
tid ige
vet yd
ĠgrÃ¦n sen
ĠvÃ¦l gere
n a
Ġsnar est
ĠBudget kontroludvalget
rab iske
del ingen
Ġkor te
ĠÃ¥ben bart
Ġindled ende
) )
Ġto bak
Ġdiskus sioner
ĠforÃ¸ gelse
Ġtur isme
ĠbevÃ¦ ge
ĠMarok ko
Ġsl Ã¥et
ĠnÃ¦rm este
Ġforsy ning
v ind
Ġudvid es
Ġulov ligt
S P
ĠF ri
Ġforsvar er
proj ekter
Ġar rest
Ġanvendelses omrÃ¥de
Ġkompeten cer
Ġvider eg
ĠSlovak iet
Ġmultin ationale
S Ã¥ledes
Ġkor re
Ġinv est
Ġpati enter
ĠtilfÃ¦l d
id ligere
Ġfa c
Ġbeting else
ĠM o
ĠBur ma
fik ation
Ġomfang et
Ġfastsl Ã¥
ĠDan mark
Ġl obby
ff e
sst yr
aft alerne
ĠÃ¥b ner
handling er
Ġmyndigheder s
Ġkrig en
Ġung dom
ĠsjÃ¦l d
N G
Ġh om
Ġt Ã¸
Ġretningslin jerne
g Ã¥et
el ov
Ġtilb aget
sp ligt
Ġkolle ktive
Ġtv ing
Ġfal det
Ġprote ktion
g rib
Ġbeskytt es
Ġrac isme
Ġhvor med
Ġudvikling slande
sb estemm
Ġstren g
ĠÃ¦nd rede
Ġnatur katastro
Ġetabler ing
Ġtillad t
k or
Ġmarked sÃ¸
sek retÃ¦r
ĠC ar
ressour cer
ĠLatin amerika
k ort
Ġkl og
Ġtil rett
Ġtil kn
ĠspÃ¸rgsmÃ¥l ene
sy stemer
B eg
Ġhjem land
Net op
Ġudvikling ssam
ĠV an
Ġ199 0
Ġinteresser et
Ġambiti Ã¸s
part ner
st abilitet
union en
U nion
ur g
Ġmin ut
ĠmÃ¥l rettet
Ġudtal t
f erne
si der
sik ring
lov givning
ĠvÃ¦kst p
Ġhandel en
Ġstren gere
ĠafhÃ¦ng ighed
ĠforlÃ¦ng else
Ġbefolkning erne
Ġtru er
Ġf ak
Ġover skud
Ġprogra mm
Ġben ytter
Ġford Ã¸mm
Ġhovedsag elig
Ġfor Ã¦ld
Ġb ad
Ġal men
Ġover holdt
Ġerhverv sud
ĠAl li
Ġord ningen
Ġopr igtig
Ġb ro
Ġover f
hav ne
Ġkal de
h ov
am b
ĠÃ¸ ges
elskab erne
Ġomtal te
Ġl yder
ĠL itau
ĠNe w
Ġs lov
ĠoverfÃ¸r sel
u er
Ġmed mindre
Ġbegrund else
Ġf j
ĠZ imbab
organis ationen
Ġskatte yder
Ġkn yttet
j a
Ġudvik les
ĠA sien
Ġarbejds tid
Ġkv oter
Ġinklu sive
h ad
ĠbetÃ¦nkning ens
rÃ¸r ende
Ġsl Ã¥r
smet oder
ĠÃĺster sÃ¸
Ġret sfor
f tt
Ġarbejdsl Ã¸se
Ġtransatlan tiske
Ġen orm
g yp
ag ner
par elser
sg rupper
Ġ ydelser
Ġb rede
sÃ¦ dvan
ĠkrÃ¦ vet
Ġoprind else
l yd
Ġm ister
Ġaf ven
Ġinformation s
a ch
Ġv alut
re ger
ĠÃ¸st lige
p res
Ġind gÃ¥ende
ĠsamhÃ¸righed spolitikken
Ġned bringe
Ġpotenti elle
Ġm ent
Ġembedsm Ã¦nd
Ġaf vise
Ġsundhed sp
Ġeffektiv iteten
Ġsamfund s
Ġmultil aterale
Ġj orden
Ġind ust
Ġopret tes
l Ã¸se
Ġra tion
san te
Ġder til
Ġbegynd t
Ġkonkurrencedygtig e
Ġgenet isk
Ġr ige
ĠordfÃ¸r ere
kal dt
Ġst Ã¸j
Ġunder tiden
Ġem issioner
ĠkrÃ¦n kelse
ĠT un
ia sko
Ġdikt atur
und heden
Ġnatur lige
Ġsen est
ĠfordÃ¸ mme
ĠJugoslav ien
forslag et
E ÃĺF
Ġ3 5
Ġinformer et
ĠK ar
Ġkal der
Ġmodern isering
1 0
pris er
p ass
r al
Ġan k
Ġsto ppe
Ġu sÃ¦dvan
it Ã¦re
Ġstadig vÃ¦k
Ġtv ang
Ġanden behandlingen
Ġinteres sante
Ġafsk edig
Ġdisku teret
Ġhjer t
Ġtran saktioner
ĠvÃ¦k sten
t o
an te
virksom hed
Ġf iasko
Ġb und
Ġud betal
ĠvÃ¦r ste
ĠMiddelhav somrÃ¥det
Ġpriori terede
vend else
ĠprÃ¦cis e
ĠvÃ¦sentlig ste
Ġretsstat sprincippet
gang en
Ġind tage
Ġrel ation
Ġregering skon
Ġelektron isk
Ġliber ale
ĠÃ¥rsag en
ĠMiddelhav et
ro ds
Ġund skyld
id aritet
Ġvid ner
Ġsk rÃ¦
ĠAlban ien
Ġinteg rere
Ġli de
ĠÃĺ MU
Ġfryg ter
Ġelektron iske
Ġder af
Ġenergi forsy
Ġb ringes
Ġharmon isere
Ġfal de
Ġbar n
ĠkÃ¸ be
Ġforurolig ende
Ġplenarforsamling en
Ġsam ling
skab else
omstol ens
Ã¥ der
mm en
ĠfÃ¦llesskab s
Ġ201 3
Ġfisk ere
Ġfokuser er
Ġstol t
Ġsp lit
Ġmedlem sland
Ġsy mp
Ġobligator iske
v Ã¥g
ter ende
Ġkolle gerne
ĠPrÃ¦ sidi
F rem
Ġsp Ã¸rget
Ġinitiativ et
beting elser
ĠCan ada
Ġmed arbejdere
Ġst ammer
sm e
Ġprincipi elt
c k
Ġudvikling sb
ĠL ond
ĠdrÃ¦ b
ĠE r
Ġover sk
Ġparlament arisk
Ġforsin kelser
stjen ester
Ġvil d
ĠP alÃ¦st
form ation
ĠbÃ¦r er
sk ede
Ġkur s
H un
ly kke
Ġred de
Ġdetaljer ede
Ġstu derende
I B
ist rib
Ġko st
for val
R eg
ĠmiljÃ¸ beskyttelse
ag n
ri ber
Ġgenop taget
Ġaf gÃ¸re
Ġmed tage
Ġud fÃ¸rer
ĠM old
Ġreg ne
Ġfast satte
Ġstat en
Ġdemon stra
Ġn Ã¦gter
Ġre videre
Ġsam arbejder
Ġkl age
Ġuacceptab el
es sion
Ġrel ationer
ĠÃ¸k ologiske
m es
Ã¸ mme
Ġafskaff else
L iges
g od
klÃ¦r ingen
ĠM il
199 9
j ede
ler ede
od iversitet
jetjen ien
Ġg yld
under sÃ¸g
Ġsan ktion
ĠLand distrik
Ġkontra kter
t a
Ġg a
Ġforud sÃ¦tter
ĠfremhÃ¦ ver
Ġbetal inger
ĠC on
b old
Ġh indre
Ġ199 4
Ġjournal ister
n else
Ġfor lan
land enes
ĠÃ¦r ligt
ĠbrÃ¦ndsto f
spro g
Ġlu ftt
ko t
h u
an cer
Ġind sam
Ġprodu ktiv
Ġforn Ã¸d
ĠTur isme
Ġbekym rende
Ġr y
Ġmagt en
Ġaltern ativer
Ġtus indvis
be vÃ¦g
200 6
Ġinteg r
Ġtaler en
esk ytt
Ġreg ulere
Ġprodu centerne
sm anden
Ġret ter
ĠA sh
gyp ten
ĠB eskÃ¦ftigelse
ĠfÃ¸l ges
smod el
Ġudn yttes
Ġan stren
ĠadfÃ¦rd skodeks
ĠstÃ¸rr else
Ġh a
Ġkon cep
ĠhÃ¥nd tering
ĠdrÃ¸ft es
ĠGen Ã¨
m idlertid
fÃ¸l else
Ġliber aliseringen
ĠlÃ¸ sl
Ġforud sÃ¦tninger
Ġautom atisk
ĠbemÃ¦r ke
Ġoverve jer
c eg
Ġsam ordning
ĠO LAF
ĠselvstÃ¦nd ige
Ġilleg ale
Ġkvinder nes
Ġureg el
Ġk at
Ġre al
t opmÃ¸det
v ning
ĠG eneral
Ġrapport en
Ġsy vende
Ġteks ter
Ġmidlertid ige
Ġumiddel bart
ĠhÃ¸j st
Ġpar terne
Ġperi f
Ġenstemm ighed
Ġsk revet
Ġdig it
Ġkomplek se
Ġpriv ati
Ġmonop ol
Ġi rak
sl ed
Ġvar ig
ĠT jetjenien
ĠFor skning
ĠskÃ¦b ne
men tere
Ġtil stand
at s
Ġste get
Ġenergi politik
dire ktiv
rist elige
Ġlegitim itet
ĠeuropÃ¦ erne
s tig
sk et
ĠU N
Ġfornu ft
Ġsam le
y er
Ġs Ã¦n
Ġhistor ien
Ġaf give
Ġtrag iske
ti s
ĠM er
Ġtjeneste mÃ¦nd
Ġforbli ver
ĠÃ¥b ning
ĠLond on
Ġm ikro
Ġban e
Der med
ĠÃ¸delÃ¦g ge
Ġregi me
Ġbl ok
Ġbegynd te
Ġform elt
Ġfordel ene
in s
ĠF isch
k elsen
ter ingen
ĠpÃ¥ krÃ¦
Ġlev ende
Ġeksper t
t om
hold elsen
Ġasylan sÃ¸g
kon ferencen
Ġbetrag te
Ġudarbejd es
Ġu over
Ġform od
Ġmellem lang
Ġpris erne
Ġmeddel elsen
Ġkil de
S p
Ġsin de
Ġintern t
p asning
Ã¸ ft
Ġkon ferencen
Ġser b
Ġven lig
Ġbyg ninger
Ġforhand ler
Ġansvar lighed
Ġforbed rer
Ġforplig ter
Ġomhygg eligt
0 5
ĠtrÃ¦ k
ĠopnÃ¥ ede
Ġprof it
am enter
Ġe p
Ġtyd elige
Ġeksempel vis
Ġbi odiversitet
Ġgenopbyg ning
201 3
Ġtil delt
Ġen der
Ġop hav
Ġindbyg gere
at o
ĠS undhed
Ġg uns
ĠF Ã¦lles
gÃ¸r ende
Ġopford rede
kost ninger
gj orde
ĠfremhÃ¦ vet
Ġmist et
Ġp il
ĠfÃ¸r ende
sp er
Ġopbyg ningen
bar hed
Ġs ult
Ġfor ene
Ġv ort
Ġp sy
Ġinformation ssamfund
Ġtan ker
Ġhensigt en
Ġprivat li
Ġkem ikal
Ġkommerci elle
Ġfolkes undheden
p ligt
Ġgrad vis
Ġarbejds giver
Ġrevision en
Ġud kastet
ub lin
ĠafhÃ¦ng ig
Ġtrakt ater
Ġimm un
rÃ¦ t
r ang
Ġb ran
elig heden
Ġgen ind
Ġforeg Ã¥
institution er
Ġkonkurrencee vnen
Ġmil j
iden skab
Ġfak tiske
B eslu
Ġkoordin ere
ĠprÃ¦cis ere
bestemm else
Ġtab t
ĠindrÃ¸ mme
e an
Ġfin ske
Ġundertry kkelse
an i
Ġforfat nings
Ġopstil le
Ġfant as
ĠE l
Ġkerne kraft
) ).
ĠPalÃ¦st ina
sto ffer
Ġforanstaltning erne
ĠutilstrÃ¦kk elige
ger ende
. "
Ġredu ceret
Sam men
Ġgeneral sekretÃ¦r
f en
fÃ¸r st
Ġgennem gÃ¥
Ġfremm es
or s
ĠÃ¥r ets
ĠivÃ¦rksÃ¦ tter
Ġforand ring
M ens
Ġdem ografiske
Ġcivil is
sÃ¦tt elses
Ġfjer net
Ġu lem
Ã¸r en
net tet
Ġteknolog isk
Ġaf vis
tt ende
ets udvalget
l Ã¸b
giv else
Ġprocedur erne
Ġhy kler
Ġud send
Ġv acc
Ġfol keret
ra pport
Ġt est
ĠreprÃ¦sent ation
en terne
Ġm Ã¦g
Ġplan lagte
or k
Ġhvor ledes
Ġeftersp Ã¸rgsel
Ġb yde
Ġud lever
Ġvirkning erne
Ġkont ro
Ġkonkurren cep
ĠAnd ragender
Ġmed fÃ¸rt
Ġsy ge
ĠfÃ¦llesskab slov
op ul
ĠLanddistrik ter
ĠmÃ¦l ke
Ġse par
Ġrespek tive
Ġpro por
Ġom sider
f olk
Ġt ysk
stru menter
Ġaftal t
Ġrel ativt
Ġuregel mÃ¦ss
f lik
Ġan gÃ¥ende
F ord
Ġu beg
Ġud fÃ¸res
Ġstraff es
Ġhandlingsplan en
Ãħ r
Ġte ma
bet ydende
Ġperson lig
vÃ¦rdi er
Ġform id
Ġhensigt smÃ¦ssige
Ġens betydende
u ssiske
Ġat ter
Ġud byg
ĠundersÃ¸g elses
Ġenor mt
bland ing
s ordning
Ġan ses
ĠValuta spÃ¸rgsmÃ¥l
d rag
ĠsÃ¥ fremt
ang reb
ĠM arked
Ġinnov ative
Ġhind ring
ĠMiljÃ¸ udvalget
Ġtilrett elÃ¦g
sb eg
la us
fÃ¸lg else
Ġprof ession
for and
Ġan n
Ġbesk revet
Ġpres set
Ġk ig
ag ter
at ori
Ã¸j es
ĠM alt
ĠkommissÃ¦r ens
yp ri
y ret
lu s
vÃ¦r timod
Ġimp lem
Ġuacceptab le
H O
I midlertid
Ġindustri elle
Ġindg reb
ĠophÃ¦ velse
ĠafhjÃ¦lp e
Ġsm u
Ġudn ytter
ote kn
Ġbeslut somhed
Ġ201 2
Ġudvalget s
Sk rift
ĠLitau en
sk amp
Ġfort ol
Ġhalv t
Ġny tte
End nu
ĠE gypten
ĠM ad
Ġtid sf
Ġkoordin eret
Ġgensid ige
ĠZimbab we
Ġforbud t
ti t
Ġsp are
ĠnÃ¦ ppe
ĠovertrÃ¦d else
ex ic
Ġmis te
Ġforbruger en
Ġanbefal inger
ss ektor
Ġudvalg s
ĠivÃ¦rksÃ¦ ttes
sig else
D omstolen
Ġt jekkiske
Ġud landet
ĠudmÃ¦r kede
Ġlandbrug sprodukter
ĠfÃ¦llesskab sretten
Ġmis tillid
Ġud sigt
Ġfrem lÃ¦gger
Ġny de
Ġidentifi cere
Ġk ed
Ġsk ar
Ġprogra mmerne
ĠbegrÃ¦ns es
Ġoverord net
Ġfod bold
Ġhovedsag eligt
ĠGenÃ¨ ve
Ġfor Ã¦ldre
le y
old ater
Ġfler Ã¥rige
Ġregeringsche ferne
t raktatens
Ġ Hvad
an e
gÃ¸r elser
Ġvel kend
Ġfisker is
t us
Ġtil sides
Ġtilbage hold
ĠD ublin
Ġdri kke
Ġmateri ale
Ġud forme
Ġmod tag
spolitik ker
Ġop tagelse
sl ang
yl dt
Ġlandbrug ere
klÃ¦r ing
Ġvid ne
j our
Ġfrem lagde
Ġpl uds
kra v
g av
n erne
Ġprojekt et
ĠFÃ¸r st
in t
Ġaf b
Ġom bud
Ġl yttet
Ġfri heder
ĠkrÃ¦ vede
ĠbemÃ¦r ket
direkt or
ord fÃ¸r
ĠundersÃ¸g t
ĠbevÃ¦ ger
Ġfor ek
Ġh oris
st ad
ĠF ra
Ġdefin itionen
Ġtradi tioner
Ġfor kaste
Ġforbruger beskyttelse
ĠutilstrÃ¦kk elig
g reb
Ġfor um
Ġforsk ningen
Ġim ellem
Ġfinan ser
rÃ¸ der
Ġtal es
Ġgaran terer
Ġkoordin ation
Ġkriter ierne
rasili en
ran ter
Ġg lade
sp raksis
Ġny der
Ġprodu cent
b nede
kur ren
Ġud viser
sm ynd
ĠG lob
En hver
s ind
Ġstig e
rel aterede
ĠF er
Ġlang var
Ġnem t
Ġfar lig
Ġvidenskab elig
Ġpassager er
Ġlog isk
prÃ¦ sent
1 2
Ġinden rig
Ġsv ind
Ġer indre
Ġundtag elses
Ġtil skud
sud gifter
ĠhÃ¥ bet
Ġinde holde
Ġsig n
Ġad vok
Ġvirksomheder nes
Ġkapit el
Ġon sdag
Ġintellekt uelle
And re
Ġmennes kelig
Ġgener ationer
ĠnÃ¸jag tig
S CE
sk ap
ĠS y
Ġet iske
ug ust
Ġterritori um
Ġd istrib
ĠIn vestering
sret tens
Ġkv Ã¦g
p et
Ġforret ning
ĠM al
Ġretsgrundlag et
Liges om
m iddel
le j
ab le
ĠT ak
Ġudtry kker
Ġmarkeds fÃ¸ring
en z
pp et
ok s
ĠE st
ĠF Ã¸devar
Ġfart Ã¸jer
Ġa jour
Ġb jer
at t
Ġdelt aget
Ġfleksib el
ĠLi by
Ġsocialdem okrater
Ġtil lige
Ġtilbage vend
Ġdefin eret
Ġkonstater et
Ind til
Ġmodstand ere
b u
ĠT i
Ġfast lÃ¦gges
ob ling
Ġstatsb orgere
Ġcivilsamfund et
p on
ĠpÃ¥ skud
val iteten
Ġto ba
Ġerhverv s
ĠfornÃ¸d ne
Ġtil lykke
ĠR o
Ġkultur el
Ġstabil isering
lÃ¸s ning
ers oner
ell it
Ġdel vis
Ġalmind elighed
Ġoverord entlig
Ġuniver s
Ġudbred t
Ġfly tte
U E
b und
pro tokollen
Ġkont rakt
ĠH ar
For mand
Ġfast holder
ĠV en
Ġsand heden
ĠGaz a
Ġmisfor stÃ¥
Ġtoba ks
b li
Ġv ind
Ġu skyld
at te
Ġind samling
Ġbeslutning erne
Ġc y
ĠFiskeri udvalget
a si
Ġtran spor
Ġnyt tig
g in
m Ã¸de
Ġtil h
Ġst aterne
Ġber Ã¸
Ġmis sion
Ġhandic ap
ar tikel
ik ere
yd elses
Ġlig ge
ktion en
ir land
Ġstilling er
Ġs jet
Ġs Ã¸rger
Ġtilb yder
Ġbi ob
ĠO p
Ġterror ister
ĠretfÃ¦rd igt
o ff
ĠÃ¥ben ly
fÃ¦l de
Ġstabilitetsp agten
ste uropÃ¦iske
Ġk ro
and el
fÃ¸r sel
Ġetabler ingen
situ ation
ĠTun esien
Ġind skrÃ¦n
Ġsam ord
Ġforhold ene
Ġtru et
Ġkonkurrence for
Ġvidt rÃ¦kkende
Ġrum Ã¦n
Ġret tes
Ġbeg reb
Ġsu sp
ĠundersÃ¸g es
elsespro cessen
Ġdiplom atiske
m ission
Ã¦r sk
Ġlov et
ĠbemÃ¦r k
ire ktiv
ĠvÃ¦kstp agten
u gen
Ġk ir
mm else
Ġlu kket
200 3
Ġinddrag et
vÃ¦sen et
Ġnav ne
y e
stitution elle
rupp ens
Ġvok ser
K ristelige
f rit
Ġf lag
sst ruktur
ĠbÃ¦redygtig t
Ġl ede
ĠerklÃ¦r ede
Ġfjer nes
vit tighed
sm yndighed
H vem
ok ument
Ġfattig dommen
ĠforsÃ¸g te
mm ende
Ġtilp as
Ġnorm ale
ĠpÃ¥ lÃ¦gge
Ġfast lÃ¦gger
Ġudarbejd else
k omst
ĠK vinder
Ġskat ter
Ġpriori teres
Ġank lag
c y
ud an
vis ter
lad es
au ff
Ġbevidst hed
Ġreklam e
Ã¸r n
sm uligheder
ograf isk
ĠAsh ton
T A
t else
ĠÃ¥rs beretning
ĠophÃ¦ ve
h jer
or n
Ġk oster
Ġen tyd
els ens
Ġsam vittighed
ĠIntern ational
ĠnedskÃ¦r inger
H U
N ej
s agt
ĠR etsudvalget
Ġkonstater er
Ġhid tidige
ĠforÃ¥rs aget
Ġtil hÃ¸r
age fter
Ġf onde
Ġb rem
Ġtillid en
Ġoper at
ĠFormand skonferencen
Ġluft havne
handel en
Ġstatisti kker
aus ul
Ġud sÃ¦tte
Ġnaturkatastro fer
ig eri
Ġ3 00
ystem et
ot h
Ġnyt tige
Ġbevar else
k ar
Ġstemme forklar
Ġled s
Ġgodkend te
Ġklima forand
ĠNord irland
Ġa rabiske
Ġh o
els est
ĠF l
spro blemer
Ġlige vÃ¦gt
Ġinteresser ede
Ġfleksib le
ĠpÃ¥peg ede
ĠgrÃ¸n bogen
Ġfys iske
en sk
Ġar v
ĠmÃ¦ng der
Ġk van
Ġvedtag ne
Ġfor ne
hav et
ĠSt ock
Ġru ss
Ġkompli cerede
ĠforelÃ¸b ige
Ġvalg periode
s endt
ĠfortÃ¦l ler
ĠkÃ¸re plan
st ransport
lighed en
Ġkorre kte
ĠbemÃ¦rk elses
g rupper
Ġfor g
Ġlige behandling
Ġorganis erede
an set
Ġind tager
Ġpes ti
Ġsjet te
tik ler
rett ede
ĠB rasilien
ĠsÃ¦r skil
Ġopbyg ning
Ġbor det
Ġnor mer
ĠMold ova
am as
ĠsÃ¥ kaldt
Ġper f
Ġlid elser
Ġfor rige
Ġb rÃ¦nd
ĠD a
tal er
Ġsv age
Ġind stil
Ġkon servative
Selv om
Ġapp el
Ġins istere
h i
es terne
Ġfrem sÃ¦tter
ĠerklÃ¦r er
Ġdag lig
Ġforbr ydelse
Ġintegr itet
un g
ĠD el
ĠomstÃ¦nd ighed
Ġk ende
tt elsen
Ġdemokrati sering
anstaltning erne
ĠbeskÃ¦ftig et
orger skab
Ġliv sk
Ġmo tiver
an o
Ġal ar
Ġan fÃ¸rt
Ġtal rige
produ kt
Ġkn ap
Ġregel mÃ¦ssigt
o ffer
Ġsm it
ĠmÃ¥lsÃ¦tning erne
Ġbesvar et
Ġmoral sk
Ġytring sfrihed
Ġa ugust
Ġvil lig
end te
jer n
Ġprodu cere
Ġmilli on
Ġkompromis er
Ġoverhold elsen
ud dannelse
Ġbeslutning sprocedure
Ġredu ceres
Ġkont akter
ĠFor samling
Ġvanskelig ere
Ġte mp
Ġforen et
b ruger
m Ã¸n
o fi
bring else
A L
kost ningerne
ĠSch weiz
Ġmand ag
Ġudgift somrÃ¥de
Ġhoris on
Ġel i
ĠÃ¸del agt
Ġmidlertid ig
Ġtraged ie
ĠSundhed sanliggender
Ġb Ã¦re
ret ari
Ġlig eg
Ġtv inge
Ġforvent ede
Ġvedtog es
bes lu
Ġinfl ation
NG L
Ġpsy k
r iske
Ġaf vist
Ġanden behandling
Ġska ffe
ĠerklÃ¦r et
ĠhÃ¥r de
Ġfys isk
ĠforetrÃ¦ kker
as en
Ġbort set
Ġn Ã¦g
D irektivet
ĠuregelmÃ¦ss igheder
ĠE IB
ĠÃ¸ steuropÃ¦iske
Ġtal etid
Ġregist rering
ĠSocialdem okrater
stitu t
ĠÃ¥rhund red
ov ina
Ġressour cerne
Ġkonkur rere
Ġtur ist
Ġutro ligt
Ġteg ner
Ġb u
Ġb agefter
for skning
ĠnÃ¥ s
sig ter
sg rÃ¦n
ĠopfÃ¸lg ning
N S
p s
Ġmed borgere
T vÃ¦rtimod
Ġmodifi cerede
c u
Ġpar all
Ġengager et
T rods
urop Ã¦isk
Ġover fl
ĠfÃ¸l gelig
Ġmang len
bi ler
n ed
Ġ199 2
Ġbegiven hederne
Ġal les
Ġlige frem
Ġop t
Ġover lev
Ġber o
d yr
handling erne
Ġreg ner
Ġund gÃ¥r
Ġliv slang
Ġhensigt smÃ¦ssig
Ġt rÃ¦n
ĠE fter
ĠvÃ¦rdi fulde
Ġkem iske
t y
Ġf u
Ġregnskabs Ã¥ret
ĠmarkedsÃ¸ konomi
h ne
isk rimin
Ġv og
ret ten
ĠL ad
Ġsu per
Ġanmod ninger
sin strument
Ġpr ag
ĠrÃ¥d givende
cent re
Ġindik atorer
i vet
r iti
Ġm ass
og ra
rÃ¥ b
Ġbru tt
ĠfremhÃ¦ ves
Ġuform elle
Ġprag m
M Ã¥let
Ġvil lige
ĠbetÃ¦n kelig
ĠInvestering sb
t est
si den
yl der
Ġnatur ligt
ilitet er
ac k
ĠmÃ¦ng de
Ġskygge ordfÃ¸r
Ġtil deling
ĠLi ban
befolkning en
ab el
Ġform elle
Ġar ter
rib en
K Ã¦re
m ekanis
st rÃ¶
for bud
Ġunder gra
Ġkl assi
Ġdelt ag
ĠÃ¸k ologisk
v eksling
Ġ ing
for brug
Ġsp is
Ã¸rg slen
ĠlÃ¸sl ad
strÃ¶ m
Ġf lo
ĠF ond
Ġrestrik tioner
nings vis
ĠmÃ¸de periode
ĠlÃ¸ ser
res ult
pris erne
Ġtil strÃ¦
Ġud sk
rer es
Ġkont or
Ġstat ut
Ġs mer
mm elser
led ende
Ġtac kle
Ġi ran
Ġudv Ã¦l
Ġoffici elt
A R
Ġform entlig
mm elige
pro blem
Ġblo ker
ĠG UE
Ġevent uel
L ige
a il
k orea
Ġud gave
Ġdi ver
Ġpr Ã¸ver
ĠN Ã¦ste
tik a
ĠdÃ¸ mt
Ġs unde
del eg
Ġdag lige
Ġord lyd
Ġinstitution ers
ra mme
Ġt viv
mÃ¦r kning
ĠtÃ¦n kt
ĠCon go
Ġdel vist
sb orgere
Ġ3 7
ĠundersÃ¸ ger
ĠikrafttrÃ¦ den
A ft
i ler
sk ontrol
ĠK an
Ġhens ig
ĠG ar
ĠdrÃ¸ft ede
sv ing
Ġincit amenter
ĠLiby en
en ti
Ġfor lade
ci der
Ġpap ir
Ġ lem
ger iet
Ġkon ventioner
Ġaccep t
Ġhenvis es
Ġformandskab ets
Ġak tiver
Ġforbud det
Ġopstil let
ĠAt lan
Ġdu mping
ĠpÃ¥krÃ¦ vet
Ġsk it
ĠO SCE
Ġmarkeds ordning
Ġopposi tionen
Ġkonstruktiv t
Ġskrift ligt
ĠIndustri politik
men nes
ĠpÃ¥beg ynd
Ġkontro versi
Ġ w
Ġgennem gang
ĠhÃ¦ vet
Ġhy pp
Ġgennemsku elighed
ol a
Ġafbr Ã¸d
ĠCol om
m il
s ede
Ġvir keligt
Ġovergang en
f lu
Ġtyp er
ĠhÃ¦nd elser
Ġopfat ter
ul z
Ġhenvis te
Ġudviklingsb istand
Ġind vend
Ġ7 5
Ġdra sti
Ġt he
ĠhÃ¦v der
Ġhav et
Ġopfyld es
ar v
ver den
ek n
Ġuan svar
k Ã¦mp
et land
virkning er
Ġutro lig
ĠsammensÃ¦ tning
Ġsk oler
Ġkr yd
Ġled ende
Ġne ut
Ġamerik anerne
Ġterritori ale
kot land
sk Ã¦l
Ġfinan smarked
Ġkontroller es
ud vik
forhandling er
ar et
om ster
Ġbudget mÃ¦ssige
Ġbefolkning s
Ġsat ellit
ĠlÃ¦r t
Ġperif eri
Ġs li
ĠsÃ¥ gar
Ġmod sat
Ġled sag
bru dt
ĠGal ile
lÃ¦g gelsen
sb udget
Ġanmod ede
Ġkateg ori
Ġtil hÃ¦ng
amp ere
ebyg gelse
p ersoner
st Ã¥et
Ã¦r ende
Ġop var
Ġfred s
Ġvalgk reds
tek st
tal lige
Ġski bs
Ġs ort
Ġm ad
Ġer ind
sfor br
eri oder
Ġeksper ti
ĠMalt a
Ġd rag
Ġsk il
Ġop give
Ġbest yr
Ġeks tern
splan en
ĠRusland s
Ġlegiti me
Ġfrivil lig
ĠSy rien
h al
Ġinsp i
Skrift lige
smynd igheder
Ġi h
Ġmenneske heden
ĠTi bet
f onden
Ã¦ t
st aterne
Ġt ol
ĠB o
ĠfÃ¦ng sel
Ġt av
vÃ¦r ket
Ġintegrer ede
Union en
Ġirak iske
2 5
ig et
is brug
sk rig
Ġvigtig hed
Ġforst yr
Ġpeg er
ol le
Ġin spek
pro blemet
Ġsand hed
Her ceg
br agt
he ugen
d is
ens ke
ff en
Ġfar vande
p en
is erede
Ġind fald
ud io
Ġdynam ik
ĠforfÃ¦rd elige
Ġst Ã¥et
an ser
Ġde centr
Ġbes vÃ¦r
Ġrim elige
y tning
Ã¥ den
ĠOmbud smand
Ġug uns
lad ser
Ġbeste mme
Ġrets akter
Ġforklar ing
fun gerende
in frastruktur
Ġt om
pro blemer
Ġudvid ede
foruren ing
f onde
Ġp asse
l Ã¸st
skriter ierne
Ġstatisti ske
ĠVerdens handels
p akken
Ġdire kt
Ġstats lige
Ġfjern syn
sminist rene
om pu
om itÃ©
til ler
ur d
Ġre alistiske
Ġbes id
ĠgrÃ¸n bog
ĠSlov en
Ġunderteg net
ĠÃ¸ ver
Ġfort ro
Ġbegiven hed
Ġpropor tion
Ġrej ste
Ġagentur er
Ġbureaukrati ske
Ġimm ig
Ġdistrib u
f ly
Ġbeslu tter
L T
Ġne mmere
ĠSyd afrika
Eller s
Ġrev olution
er en
ĠT ampere
Ġkol oss
Ġpar ad
h r
Ġop leve
sra pport
Ã³ n
ĠdrÃ¦b t
i dem
Ġud adtil
Ġop rÃ¸r
Ġratifi cere
indsat s
Ġfor holde
ren es
sb udgettet
Ġforh Ã¸jelse
Ġk ilder
Ġder nÃ¦st
Ġamb ass
po st
Ġspur gte
Ġsp id
Ġindustri er
Ġforhand let
Ġra mte
Ġbegynd else
ĠForbruger beskyttelse
Ġaf f
st Ã¸
Res ultatet
2 1
Ġp opul
ĠÃ¸jeblik kelig
Ġbeskytt et
ĠspÃ¸rget iden
ĠfÃ¸ le
ai w
Ġa vis
Ġbeg Ã¥
ĠH els
Ġindt Ã¦gt
regi on
Ġmenneskerettigheds situationen
ĠStock hol
Ġind ledes
Ġkor n
Ġvidenskab eligt
Ġforplig te
Ġhensig ter
U anset
alis eres
olog ien
Ġufor hold
produktion en
Ġdrivhus g
Ġb ord
Ġheld igvis
Ġperspek tiver
st Ã¸d
ĠS kotland
Ġkultur er
Ġvold en
ĠforÃ¸ ge
ĠFÃ¸devar esikkerhed
0 6
S V
trÃ¦ den
sf ald
Ġarbejdsplad sen
Ġudform ningen
C S
Ġtil lÃ¦gger
Ġfrem stillet
Ġvel fungerende
Ġambiti Ã¸st
on ational
red se
Ġbi otekn
Ġtredj edel
Ġbaggrund en
medlem mer
Ġkatastrof ale
Ġpeg e
ĠBus h
Ġtilh Ã¦nger
Ġramm ed
ĠKvinder s
Ġkort sigt
vikling en
tv inge
I sÃ¦r
erer er
Ġci r
Ġresul tere
Ġpoliti et
Ġmennes kel
Ġsoci o
sra els
Ġudelu kke
Ġforbered else
Ġudform ning
udio vis
kk ens
Ġbi om
ĠÃ¦r lig
sl im
Ġtran si
Ġtekn ik
Ġagentur et
Ġk var
Ġund sk
Ġred skaber
Ġfred elige
Ġratifi cering
Ġnukle are
Ġkald es
ĠPrÃ¦sidi et
ĠpÃ¥ tager
Ġegen skab
Ġfors oning
esk ab
P erson
f ur
p akke
ĠnÃ¸dvend ighed
Ġoffentlighed ens
Ġfrivil ligt
Ġanstren gelser
Ġ Â«
Ġle get
Ġbr yder
ĠstrÃ¸ m
sk aff
Ġlov lig
Ġ199 3
Ġsat te
Ġkl Ã¸ft
kend else
Ġimp eri
Ved rÃ¸rende
Ġhund rede
Ġmultil ater
Ġforvir ring
ĠFisch ler
B ar
G od
Ġs o
Ġno teret
Ġsundhedsp leje
Ġforsvar et
Ġmar gin
Ġbevilling erne
Ġacceptab el
Ġbereg net
Ġfor vejen
skab ende
kri ter
Ġtilsides Ã¦
Ġr ene
Ġind se
forval tning
g yld
ĠpÃ¥ stÃ¥
tighed erne
Ġgennemsigtig e
Ġforsin kelse
Ġjord skÃ¦l
ĠLiban on
Ġres terende
U SA
ord re
ks terne
ĠT idligere
trÃ¦d ende
Ġag gres
Ġfolke afstem
ĠgrÃ¸n ne
sproj ekter
Herceg ovina
Ġs Ã¸s
ol ie
Ġin vi
Ġfinansi elt
ĠAl geriet
Ġsidst nÃ¦vnte
Ġpil ot
Ġo nd
Ġu tallige
rund en
Ġforsvar spolitik
RÃ¥det s
regi onen
Ġud arbejder
Ġuen ighed
Ġfil os
Ġkamp agne
Ġbevar es
ĠansÃ¸g ning
A C
t el
Ġ4 5
Ġforsk ere
ĠfÃ¸l somt
ĠN Ã¥r
Ġparlament s
Ġudtal te
Ġskat tes
ĠimÃ¸de komme
Ġmul ti
Ġrealitet en
Ġdram atiske
Ġimmun itet
os f
komm et
ĠK ultur
ĠÃ¥r ligt
au kas
Ġbl ande
ĠlÃ¦ ser
Ġa udiovis
Ġind givet
ĠmÃ¥ ttet
ĠbÃ¸rn ene
Ġamb ition
r yg
Ġomtal t
Ġtus inder
Ġlovgivning smÃ¦ssig
dann elses
sam men
ĠsÃ¸ fart
Ġforel ag
Hvil ken
l ok
Ġlang s
Ġbrutt onational
Ġeksperti se
. -
ru st
Der nÃ¦st
yg domme
Ġned sÃ¦ttelse
Ġluft rum
Ġsign aler
b ia
m ord
m iljÃ¸
u tten
Ġfred ag
Ġintegra tionen
ĠforÃ¥rs ager
ĠDo ha
S K
Ã¦ den
Ġp u
200 4
Ġvurder er
ĠdÃ¸d sstra
Ġut vetyd
Ġp leje
ĠP ol
Ġfor tid
Ġe jer
ud gifter
Ġdriv kraft
Ġg rati
Ã¥l mod
Ġgrupp en
ĠtrÃ¦ kker
ĠmÃ¥lsÃ¦tning en
Ġm ord
ag tt
ver ne
Ġkom it
ĠDem okratiske
Ġprodu cerer
Ġkolle ktiv
ĠretfÃ¦rd ige
L O
Ġa c
Ġfor arbejd
Ġre fer
produ center
Ġsammenlig net
elef on
Ġlevnedsm idler
sp Ã¦nd
sp art
ĠM ich
ĠL etland
Ġpo in
ĠforlÃ¸b ne
l else
Ġakt Ã¸r
Ġrets sikkerhed
ffer enti
ĠtrovÃ¦rd ig
ĠhÃ¦ ve
b org
Ġar ran
Ġhen vist
Ġsamt ykke
Ġvurder es
Ġskri ve
Ġtilsk ynder
Ġformuler et
ĠtilnÃ¦r melse
h Ã¸j
Ġb ryde
Ġind blanding
est and
ĠG MO
ĠE t
Ġop fÃ¸rt
ak tive
spro blem
Ġtru kket
Ġopfatt es
ĠkÃ¸ ber
k ul
Ġlav t
ĠM exic
ĠomrÃ¥der ne
Ġpl ur
ĠnÃ¸jag tigt
Ġkonsekvens analy
Ġsku ffet
ĠVen stre
sst rÃ¸
Ġplan en
orien teret
Ġkvind elige
Ġa ids
Ġover fÃ¸re
stil lad
Ġgodkend es
Ġdynam isk
ĠoversvÃ¸mm elser
el len
Ġfin t
Ġres olu
Ġtro ede
Ġlandbrug spolitikken
Ġfjer ner
Ġmulig gÃ¸re
S F
ed ygtig
ri erer
Ġvar mt
Ġforhold sregler
Ġslu tter
Ġgam mel
pris en
Ġopmunt re
in formation
ĠlÃ¦r ing
Ġhvid bogen
Ã¸konom ien
Ġu be
Ġgrad vist
Ġtv inger
Ġoverrask et
ĠSikkerheds rÃ¥det
ĠuundgÃ¥ eligt
Ġs Ã¸rg
Ġinstitution el
Ġbev idste
ĠundgÃ¥ s
Ġdatab eskyttelse
b urg
Ġf ir
Ġstabilitet en
Ġrefor mpro
Ġinsister er
Ġoverfl Ã¸d
ad gang
ĠvÃ¦ bnede
Ġhen hÃ¸rer
Ġned sÃ¦tte
ĠpÃ¥peg er
ĠRevision srettens
Ġobservat Ã¸rer
ĠÃĺstersÃ¸ en
s u
Ġmil len
Ġislam iske
Ġskar p
K ort
Ġsam rÃ¥d
land t
ten eg
le ks
ĠVer heugen
I A
st anden
Ġdebat ter
Ġgenop rette
Ġpriori teret
Ġleget Ã¸j
h o
Ġafstem ninger
Ġanmod ningen
Ġoffentlig gÃ¸re
ĠSol idaritet
Ġankl age
p erson
at a
sm Ã¸de
Ġpartnerskab er
Ġat t
Ġsej r
Ġdigit ale
T yrk
a lem
ra tegi
Ġudv eksl
Ġ3 6
reg ulering
Ġbest Ã¥ende
Ġglem mer
Ġover skri
Ġdre jede
ĠdÃ¸d sfald
ĠbevÃ¦g else
1 1
Ġmennes k
ĠI sraels
eks le
Ġmidlertid igt
Ġanbef ale
Ġpluds elig
K vinder
ĠW ien
cedur erne
alÃ¦stinens iske
Ġopfyld else
kra in
Ġproces ser
ĠsÃ¦l ge
initiativ et
Ġafven ter
Ġmenneskel iv
Ġmed delt
Ġc ompu
Ġpen sioner
Ġsyn svinkel
organ er
medlem sstaterne
Ġetabler es
ĠSam hÃ¸righed
Ġiran ske
eg ler
ĠB on
Ġlu kkede
Ġgrati s
re en
Ġud fÃ¸r
Ġbe vist
Ġned sat
Ġborger lige
Ġforl Ã¦nge
Ġtur ismen
Ġoverbevis ende
Ġminist re
Ġfor ring
it y
Ġoprind eligt
ĠPar is
B Ã¥de
b en
in ki
Ġudvikling s
Ġkur d
Ġstol te
Ġfor tiden
Ġfor estÃ¥ende
el te
rer ede
Ġfinansi eret
Ġansvar ligt
Ġbr and
progra mmerne
Ġudelu kket
Ġvelly kkede
for deling
tal let
Ġpar ate
Ġforud gÃ¥ende
bef Ã¸jelser
Ġorien tering
Ġbaser es
Ġvurder inger
Ġdoll ars
Ġregeringskon ference
ej st
Ġforhold svis
ĠH an
ĠtiltrÃ¦d elsen
Ġjob skabelse
Ġseri Ã¸s
Ġsund heden
Ġincit ament
ĠAlli ance
k ret
sk abe
olog ier
Ġforbered t
a sien
Ġm al
ik o
for men
Ġmod tog
Ġforny else
Ġdyre vel
Ġl an
Ġlever and
ĠnÃ¸j es
E uro
Ġs oldater
sl Ã¸se
ĠR oth
ĠP atten
Ġaftal erne
ĠW all
sto f
Ġkandid ater
ĠdÃ© t
a dem
ul y
Ġopmunt rende
p il
Ġud dan
sp rincipp
ĠS anter
De m
Ġbekl age
Ġinst anser
ĠSloven ien
w a
Ġv Ã¥b
is eres
ens igt
Ġheller e
Ġfang st
4 0
D R
Ġi kk
Ġlov lige
Ġbil lig
ĠVerdens ban
Ġstrafferet lige
ĠfÃ¦ngsl et
Ġtid lig
vi c
Ġressour ce
Ġignor ere
Ford i
et nam
Ġm ask
Ġk Ã¸r
fter ne
rÃ¸ b
spro cedurer
Ġetn isk
i mp
Ġbe vise
ĠB Ã¶
Selv fÃ¸lgelig
Ġanaly sere
ĠÃ¸delÃ¦g gende
Ġtanke gang
k ultur
Ġh aster
te x
it ter
Ġan stÃ¦nd
komm ent
i dere
Ġl Ã¦st
ĠÃ¸ re
ri ere
Ġorganis ere
AL E
Ġop krÃ¦
Ġbes parelser
ĠÃ¥b net
Ġkriti sere
initi ativer
â Ģ
ig ennem
ri der
ĠlÃ¸ ber
Ġarbejd sprogram
Ġskand al
CO D
Ġk vik
ĠAn g
ĠnÃ¦rm est
Ġtilpass es
Ġer kl
ĠU nder
Ġlov ede
Ġaccep terede
Ġpres sen
Ġramme af
Ġerkl Ã¦re
Ġm yr
Ġv inder
Ġi agtt
Ġaf kald
ret nings
Ġforfatningst raktaten
Ġopvar mning
ĠHels inki
Ġl atter
Ġform ulering
Ġgen skabe
ĠnÃ¸d hjÃ¦lp
Ġberettig ede
SÃ¥dan ne
k vens
er klÃ¦ringen
Ġu lighed
Ġud t
gen nem
Ġby erne
Ġpesti cider
Ġret lig
ĠreprÃ¦sen tere
ĠpalÃ¦stinens erne
Ġinvest orer
ind t
gi er
Ġudtry kte
ĠopmÃ¦rksom t
Ġfremmed had
Ġud vis
Ġskab elsen
ĠJ ac
ĠhÃ¸r inger
vej s
Ġsammenlig ning
ĠParlament ariske
Ġs endes
ed omstol
an lÃ¦g
sp ris
Ġret ligt
Ġbi be
ron tex
Ġtilveje bringe
Ġindfald svinkel
si a
Ġbi ologiske
bland t
ĠGalile o
kon vention
Ġkons ul
Ġmis ly
ĠSch ulz
smet ode
Ġpat enter
EC D
ĠnÃ¦r hed
Ġanerkend te
ĠÃ¸k os
Ġbjer g
s Ã¸l
am me
Ġfag lige
Ġbyr der
Ġytring sfriheden
ĠoptrÃ¦ der
Ġusik re
Ġkonkurrencefor v
s ch
Ġk ast
Ġu b
Ġlang somt
Ġlovgiv ende
Ġinitiativ betÃ¦nkning
Ġsupp lere
Ġleder skab
Ġtilkn ytning
m agt
Ġt Ã¦rsk
for ordningen
Ġfinan sfor
Ġforhandling s
Ġfremtid ens
EU R
Ġch o
Ġtilpass et
ĠskyggeordfÃ¸r erne
m ere
Ġs tik
Ġfolkes undhed
ogra fi
t an
Ġst Ã¥l
Ġ3 2
Ġbest and
Arbej d
Ġudviklingssam arbejde
in teres
Ġaf vig
ĠS udan
pro cedure
led ningen
Ġomkost ning
Ġekstraordin Ã¦re
ĠMad rid
ĠH amas
sorden en
stand arder
mod tag
Ġsammens lu
Ġuen ig
Ġmoral ske
Ġstim ulere
ĠdÃ¸dsstra ffen
Ġh ast
Ġmin er
ĠbemÃ¦r ker
Ġdan ner
Ġensart ede
ĠtiltrÃ¦ de
Ġhvor efter
Ġfors vinder
Ġtilbaget rÃ¦
Ġtransi t
sp o
trÃ¦ der
Ġbru d
Ġarbejds gruppe
ĠMc C
Ġsvind el
Ġfrem trÃ¦dende
smÃ¥l ene
Ġfort rin
mÃ¦r ket
Ġmindre Ã¥rige
Ġglem t
Ġinformationssamfund et
et ten
Ġb Ã¥nd
Ġsk rÃ¸b
Ġover lade
ĠH us
Ġretsstat en
Ġplenar mÃ¸det
Formand skabet
B landt
gen hed
ĠInvesteringsb ank
Ġn Ã¦gte
Ġstand punkt
Ġhjer te
ĠfÃ¸l else
A T
a in
der er
Ġfrem fÃ¸rt
Ġgod kender
Ġfors v
Ġudvid elses
sd ri
ĠvÃ¦rkt Ã¸j
m o
Ġud lig
tal t
Ġforskel lene
ĠÃ¸delÃ¦g ger
ĠfÃ¦ng sler
Ġsundheds ydelser
Ġtoler ance
Ġerhvervsud dannelse
s sikkerhed
Ġf onden
Ġvidt gÃ¥ende
ĠbrÃ¦ndsto ffer
Ġkemikal ier
ĠtilhÃ¦ng ere
el Ã¸b
Ġuly kke
Ġnaboskab spolitik
Ġinteres sen
Ġoplys ningerne
Ġvok se
S ch
Ġbed Ã¸mm
ĠgrÃ¦n sek
Ġindled ningsvis
Ġmist Ã¦n
Ġpati ent
b orgerne
ĠÃ¦ndring en
Ġund lod
publik ken
ĠrumÃ¦n ske
Ġ cer
Ã¸ ste
ĠprÃ¦sen tere
Ã¦ der
Ġbet alt
Vi r
organis ationerne
sÃ¦tt elser
ma er
Ġudenrig spolitiske
Ġeng elske
Ġspred ning
Ġho sp
sk laus
Ġudform et
Ġfantas tisk
sp erioden
omst ole
Ġci terer
Ġlav et
Ġmar ker
ĠFor lig
Ġg riber
Ġsk Ã¦v
Ġdi fferenti
Ġpriori terer
Ġkv o
ĠlÃ¸n ninger
baser ede
Ġundskyld ning
ed ele
ĠEurop Ã¦isk
Ġerhverv sdri
Ġkoncent reret
ĠEst land
ri v
aukas us
Ġaudiovis uelle
ĠÃ¸jeblik keligt
Ã¦ ver
ing ton
Ġover fÃ¸res
Ġover greb
ĠF U
af stemningen
os eks
Til lad
ĠLissabon strategien
Sk al
Ġindvend inger
k v
ĠvÃ¦ g
jen ester
Ġkor rig
Ġkraftig ste
Ġspid sen
on om
Ġtil deles
ak is
Ġbesk yld
Ġbed rager
Ġbel ast
Ġterritori al
Ġmillen n
Ġforb yder
op i
gra mmet
ati k
ĠP a
ĠfÃ¸l elser
Ġfamil ien
Ġskel ne
Ġintensi ver
m osf
Ã¦ ne
ĠspÃ¦nd inger
Ã¸r ste
ĠG Ã¶
Ġstyr kelsen
uler er
Ġro s
Ġforbered elsen
har a
Ġfisk erne
n elsen
or iteter
ĠC or
Ġfolkeret ten
V er
Ġoff er
rafik ken
Ġappeller er
l ine
Ġperson oplysninger
Ġeng elsk
beskytt elsen
Ġuskyld ige
ĠsÃ¦rskil t
P rÃ¦
Ġly tter
Ġmedlemmer nes
Ġoperation elle
i mer
v t
ad dam
ĠnÃ¦r er
Ġregeringsche fer
M F
or det
Ġv on
Ġudelu kker
Ġneg ativt
ĠbesÃ¸g te
Beg ge
til trÃ¦d
ĠA L
Ġhold ningen
ĠvÃ¦l gerne
Ġdeleg ationer
Ġdram atisk
ĠbetÃ¦nkelig heder
ab our
ĠA SE
ly mp
la ir
Ġ3 3
akt or
Ġjernban et
Ġforsy nings
Ġfortal te
Ġuniversitet er
smekanis me
Ġmakro Ã¸konomiske
ĠW at
Ġ4 8
aktiv itet
Ġilleg al
Ġnabol ande
an vendelse
eks istens
ĠforhÃ¥b ninger
Ġgenopbyg ningen
M ere
s direktivet
et t
Ġudv and
Ġliv s
ĠJugoslav iske
Ġdis p
Ġprivatli vet
s ens
Ġaller fÃ¸rst
ĠN igeri
Ġeuro ens
200 5
Ġabs urd
Ġbetal ings
ĠA z
ĠbestrÃ¦ be
Ġoper ationer
ose vic
g ik
Ġud sÃ¦ttelse
Ġsn Ã¦ver
ĠForlig sudvalget
o x
Ġu krain
ĠS an
Ġmark ant
mynd igheder
Ġover tage
ĠD ar
Ġkommun istiske
ĠmÃ¦r k
% .
r incip
sk rÃ¦
ĠKin n
Ġperf ekt
o tiske
Ġp akken
Ġder udover
over vÃ¥g
okra terne
Ġka ste
Ġoverd rag
Ã¥ n
ar er
Ġk Ã¸rer
se m
ĠundersÃ¸g elsen
eter in
Ġf elt
Ġlov forslag
stitu tter
ĠVer ts
Ġhalv Ã¥r
Ġstren gt
Ġforsin ket
Ġinfrastruktur er
Ġkonkurrenced ygtighed
Ġat mosf
yd ning
Ġklassi fi
D A
sk ont
Ġar res
ĠS Ã¥
Ġvar ier
Ġudn ytt
sig elser
ĠpÃ¥lid elige
ol f
Ġr Ã¥de
Ġover leve
os si
ĠfÃ¦llesskab splan
Ġbetal es
proj ektet
Ġemission s
Ġeftersp Ã¸rgslen
Ġr Ã¸d
ĠG i
Ġstad ighed
aff ald
Ġcentral ban
ĠfÃ¦llesskabslov givningen
Ġbiob rÃ¦ndsto
ĠKin as
Ġsymp ati
f Ã¦st
in en
Ã¸ v
Ġaf visning
ĠT aiw
Ġ4 00
Ġmedlemsstat s
al mind
Ġom tale
Ġt rÃ¥dt
Ġre aktioner
kom ne
ĠrÃ¦ kker
Ġsc ene
ĠsjÃ¦ld ent
Ġefter Ã¥ret
alis men
Ġuen ige
s ektor
Ġm istan
Ã¸d elÃ¦g
ĠS ovjet
Ġlov ligt
Ġmilli ard
Ġmulig gÃ¸r
Ġoverd re
S idste
f a
ĠT jekkiske
ĠP alÃ¦stinensiske
Ġbeslutning sprocessen
ĠEn g
Ġkonsol idere
tjen ester
C NS
m ene
ag ens
Ġu ligheder
ĠD omstolens
ser et
red ning
Ġhj ul
Ġprotektion isme
S et
Ġu om
ĠpÃ¥ lagt
ĠS ak
ĠM ange
Ġver sion
Ġgrupp erne
dag en
Ġreform ere
Ġoverrask ende
or lov
Ġsk ol
Ġmu slim
valg te
ĠUdenrig sudvalget
Ġf lys
es er
Ġsam taler
ful gt
Ġfald ende
ĠhÃ¦ nder
Ġdis ciplin
r ent
Ġh iv
Ġbi fald
Ġuh yre
ĠbekrÃ¦ft ede
Ġmen inger
ĠD isse
Ġd rager
Ġhen vende
Ġfremtid ig
Ġban kerne
Ġge ografisk
Ġtilbagevend en
p erioden
Ġa re
Ġbetrag tninger
ĠindgÃ¥ else
ĠdÃ¦ kket
baser et
s op
ĠD u
yn g
ĠA b
Ġbeg ejst
vil je
f iskeri
en sion
Ġindeb Ã¦re
bestemm elserne
ĠForb und
k risen
Ġbudget post
Ġhoved et
Ġgenop tage
Ġ9 5
Ġaf brudt
Ġsam eksistens
Ġobjek tiv
Ġhj Ã¸r
Ã¦ de
sk Ã¸n
ss en
ss at
Ġanvend te
san lÃ¦g
Ġkredit vurdering
ek en
Ġbr Ã¸d
Ġforval te
gav en
Ġs orte
Ġk y
Ġforskel ligt
sf olk
I P
Ġud Ã¸ver
Ġbil ligere
ern en
ĠKonger iges
ĠkrÃ¦n ker
Ġomhand lede
Ġankl ager
ĠmiljÃ¸ven lige
ĠM yndighed
orien terede
Ġkurd iske
til fÃ¦lde
Ġunder vis
Ġvej transport
Ġbetragt et
amerik anske
Ġfiske best
Ġskyl den
sbestemm elser
Ġklog t
ĠAL DE
c a
Ġu af
ĠprÃ¦ m
ĠnÃ¦r t
ĠSol ana
Ġoprigtig t
B orgerne
Ġt rin
ry k
ĠafgÃ¸r elsen
Ġsek retari
Ġkritiser et
Person ligt
ret s
Ġudn yttet
Ġch auff
Ġdokument et
i b
Ġfast sÃ¦ttelse
ĠÃ¦r lige
Ġopst od
Ġtal lene
ĠkÃ¦mp et
Ġdon or
ĠsÃ¦n ke
ele j
Ã¦ld ende
Ġsammenlig n
Ġkvalifi cerede
Ġf inger
Ġfor fÃ¸lgelse
Ġu lige
ĠE ksterne
ĠS elv
Ġord ene
Ġopret holdes
Ġgennemsigtig heden
Ġskj ul
l at
Ġfor fÃ¸l
ĠS al
Ġlangt fra
ĠfuldstÃ¦nd ige
Ġopford ringen
Ġbriti sk
ĠgrÃ¦nsek ontrol
T E
ens en
li ma
Ġpoliti ker
Ġfort sÃ¦ttelse
Ġkn ytte
ek terne
Ġop ererer
sst Ã¸tten
Ġny hed
Ġkompromis et
akt orer
Ġindbyg ger
Ġarrest ordre
grib ende
F in
ind elserne
sforslag et
sam arbejdet
Ġindvandring spolitik
ĠStra ff
Ġuund vÃ¦r
a sp
p ag
ens yn
yld est
sin iti
ru d
Ã¥r ig
Ġmennes kets
F lere
c os
ĠT jen
Ġad op
Ġgav ne
ĠVer den
qu es
ĠY ork
Ġfork aster
L ig
u tte
Ġ es
Ġs av
Ġk Ã¸ret
Ġind sigelse
Ġop tage
as c
Ġfremsk ynd
ĠnÃ¦r mer
Ġatom vÃ¥ben
ĠansÃ¸ger lande
Ġhvid bog
R usland
v og
Ġen heder
Ġmed tages
Ġtal erne
ĠprÃ¦ st
ĠMon teneg
ĠhÃ¥ndhÃ¦ velse
Ġ Ã
Ġf ed
gen er
Ġti me
ĠreprÃ¦sent anterne
Ġban aner
Ġobjek tive
Ġkoncep t
S idst
al es
ĠS addam
Ġfinan s
ĠForb indelser
Ġreager er
A N
k amp
Ġfor fÃ¸lge
op oul
Ġra ti
Ġafslu ttes
ĠO ECD
Ġsl og
Ġleve vilkÃ¥r
Ġl Ã¦rer
id rag
giv elser
Ġkonf ron
Ġsyg dommen
Ġforbund ne
ĠMexic o
in ten
Ġtro pper
Ġrets akt
Ġarbejds tiden
Ġ15 0
ĠsamhÃ¸righed spolitik
vid elsen
Ġmidt vej
Ġg alt
ĠpÃ¥ lÃ¦gges
ug ling
Ġkompli mentere
Ġskj ule
bevilling er
Ġhom oseks
Ġdyrevel fÃ¦rd
Ġu s
Ġom vendt
vir ke
Ġspeci al
e uropÃ¦iske
Ġaf givet
Ġkl ass
Ġru nde
ĠFolkeparti s
Ġappeller e
Ġ Ã¦
Ġs vin
Ġover taget
lÃ¦g ningen
Ġlov giver
Ġsv Ã¦kke
Ġalli erede
Ġvenstre flÃ¸j
Ġsto f
Ġbal ancen
Ġufor stÃ¥
Ġhil se
Ġkendsger ninger
Ġperman ente
ĠprÃ¦sen teret
Ġtredjeland sstat
Ġm este
Ġvel komment
Ġkonkurren cer
Ġkre ativ
Ã¸ be
Ġb Ã¸
Ã¦nd ringsforslag
ĠF rontex
Ġmennes kes
fal det
Ġemission erne
Ġtotal t
ĠmÃ¸n t
ĠMil osevic
ĠVerdenshandels organisationen
ĠD i
av Ã¦rende
Ġeg net
Ġoverv Ã¦ldende
ĠInd on
Ġtendens er
berettig ede
ĠfordÃ¸mm else
Ġet ik
Ġsyn er
Ġwe b
s ne
els on
Ġmed ie
Ġan sigt
Ġdirektiv forslag
Ġfar er
Ġlev estand
Ġredeg Ã¸re
A S
e p
Ġd avÃ¦rende
Ġh erefter
ĠD av
Ġindg riben
Ġskov brug
ĠLandbrug sudvalget
Ġtil sÃ¦tning
Ġimp oner
Ġerhvervsdri vende
b ed
Ġdet ail
ap e
Ġab ort
Ġbruttonational produkt
ĠSamhÃ¸righed sfonden
Ġl od
Ġvar ighed
mer ende
Ġ19 6
ĠH ol
is erer
ĠS orte
fatt ende
Ġla ver
Ġhandling sprogram
kom p
Ġoven nÃ¦vnte
Ġvalgk amp
Ġudryd de
E k
Ġb yder
Ġre f
Ġhen vender
Ġafsk a
sud valg
mÃ¥l ene
sÃ¸l v
b orger
m id
Ġforb ru
Ã¦nd ring
Ġenk le
ij ing
Ġlivsk valitet
Aft alen
p ort
Ġ3 4
Ġru mmer
Ġforbered elserne
ĠudÃ¸ vende
Ġopfyld elsen
ĠLa eken
ĠColom bia
sl iv
Ġlu xembourg
Ġakt uelt
Ġvold s
ek end
Ġover ensk
Ġan sÃ¦ttelses
Ġgaran teres
Ġmor atori
Ġkombin eret
Ġv agt
Ġan sl
Ġform el
Ġarbejds vilkÃ¥r
Ġudbred else
Ġfrygt elige
politi sk
Ġspur gt
kurren ce
Ġledsag es
F Ã¸l
y det
Ġmed fÃ¸lelse
tion erne
Ġan givet
Ġmod eller
Ġfundament ale
Ġspek ulation
Ġlag de
H ele
te borg
it ra
sst offer
Ġ3 8
Ġdefin iti
ĠforelÃ¦g ger
ĠNigeri a
s sk
Ġs cen
Ġv et
ig n
ĠvÃ¦r t
Ġindvand rer
Ġsty ret
Ġforen ing
Ġamerik ansk
Ġdisku teres
Ġudarbejd ede
KommissÃ¦r en
Tyrk iet
S te
Ġmed arbejder
Ġand ragender
est yring
mÃ¦r ke
Ġbest Ã¥
Ġstart ede
fri heden
f abrik
Ġom gÃ¥
Ġsk ove
land sk
rer ende
ob od
Ġbevar er
Ġlog ik
amb od
el in
Ã¦nd ringer
ĠindgÃ¥ s
Ġramm es
Ġafg rÃ¸der
0 8
Ġbe b
ĠS w
Ġundtag en
Ġmon et
Ġvent et
Ġillu st
le jer
st ans
ĠI C
Ġsammen brud
kes undhed
ĠÃ¸delÃ¦g gelse
ĠSam arbejde
J o
s ige
Ġi talien
Ġk m
ĠP er
Ã º
Ġr ing
Ġmin oritet
ĠC ot
Ġkval it
Ġarbejds givere
Ġtidsplan en
Ġsocio Ã¸konomiske
r ont
ĠFor svar
ĠbekÃ¦mp es
Ġbegrund et
ĠutilstrÃ¦kk eligt
Ġmas sive
Ġkonsolider ing
ĠbehÃ¸r igt
Ġligeg yld
ĠmÃ¥ le
ĠlÃ¦ ger
ĠkÃ¸ bet
Ġkateg orier
Ã¸konom isk
Ġdrivhusg asser
F olk
Ġforn Ã¸jelse
ĠtilgÃ¦ng elig
Ġserb iske
ĠpÃ¥ taget
Ġtyrk isk
Ġseri Ã¸se
spÃ¦nd ende
v est
ĠdÃ¦ kning
Ġregist reret
Ġstar ter
Ġkoncent ration
ĠHa iti
Ġradik ale
le x
ro du
ab et
Ġinde vÃ¦rende
Ġak ti
Ġforbered ende
ĠLissabont raktatens
Ġtav s
Ġu mennes
ĠpÃ¥ h
ber ed
Ġprak ti
Ġproduktiv itet
s arbejde
ĠB lair
Ġfri heden
Ġfun ktioner
Ġkultur arv
ĠsÃ¦l ges
forb indelser
ĠpÃ¥ lÃ¦gger
Ġr yst
Ġbrug te
Ġbudget p
Ġsol idt
Ġkritiser er
smekanis mer
sminist re
ĠE L
Ġan t
Ġpro test
Ġmod ige
tag elser
ĠÃ¦ndring erne
ĠÃ¥b ningen
Ġ201 5
Ġmundt ligt
Ġunderskri ve
ĠtrÃ¥d te
Ġluftfartss elskaber
k redit
Ġb elig
sm ission
Ġindre j
Ġtjeneste ydelses
Ġkend te
Ġinvestering erne
Ġdiplom atisk
Ġmobil isere
Ġtidsf r
P A
T iden
sf ul
Ġvurder ingen
rÃ¦nd ing
Ġvid ste
ĠpÃ¥vir ket
ĠforÃ¥r et
part nere
Ġdobb elte
ĠGÃ¶ teborg
g as
an en
Ġrisik ov
Ġenergis ikkerhed
Ã¸ mt
ĠR ed
ĠbetÃ¦nkning erne
ĠL an
Ġund lader
ine a
Europ as
Ġusik ker
ĠasylansÃ¸g ere
ĠKinn ock
Ġ Q
Ġd omme
Ġaf k
Ġhen rett
Ġforber eder
Ġsupp lement
Ġfinansk risen
eskytt elses
ĠStraff edomstol
p ap
Ġa van
Ġt raf
Ġbil ater
Ġti bet
Ġinvolver er
olk este
Tak ket
Ġreguler es
ĠSikkerheds rÃ¥d
Ġfamili el
Ġm el
ĠS IS
Ġforsigtighed sprincippet
b ning
Ã¦r ing
ser b
ĠL abour
ug le
ĠnÃ¦r vÃ¦rende
ĠFol kesundhed
Ġskyl der
b ringer
k valitet
y al
om Ã©
Ġharmon iseret
ĠMenneskeret tigheder
Ġb Ã¸l
Ġsammen k
bat ten
Ġdikt ator
Ġd omstole
on ess
Ġaf vik
ok umenter
ber g
Ġsikkerhed sforanstaltninger
Ġgra tu
Ġned bringelse
Al lerede
Ġlever er
Ġskyld ige
ssystem erne
Ġmindretal s
beting et
Ġintellig ent
ĠDar fur
Ġudv eksle
ĠrÃ¦kke vid
splan er
Ġprincipi elle
T o
rÃ¦n set
Ġplan lÃ¦gger
Ġel end
ulighed erne
Ġfor f
Ġaf sÃ¦tte
ĠivÃ¦rksÃ¦ ttelsen
ĠselvstÃ¦nd ig
ĠBe ijing
Ġforsyning spligt
I F
Ġvar i
ĠH ong
Ġvold elige
Ġkriter ium
Ġforuren ende
Ġroma erne
Ġintensi vere
A d
Ġ X
ud n
Ġfordel ingen
ĠW ash
ĠforstÃ¥ eligt
Ġejendom sret
Ġskuff else
Ġundermin ere
Ġindust ris
Ġtviv ler
b udget
Ġder eg
Ġsag ens
rik as
Ġsolid arisk
Ġfokuser et
ĠRegional politik
ĠEng land
ati kken
Ġfortjen este
ĠforvÃ¦r ret
Ġtving ende
L issab
s af
Ġom sÃ¦tte
Ġt Ã¥lmod
il i
Ġgennem gribende
Ġbefolkning sgrupper
Ġemb ry
Ġfiskeris ektoren
Ġdag ligt
ĠmÃ¥l est
Ġeks istere
Ġforpligt ede
Ġforud sat
Ã¸der ne
Ġkonstater es
sek vens
forsy ning
omp eten
Ġtving es
rapport en
t Ã¦gt
sk ende
Ġ4 2
ĠmÃ¸d tes
ĠVerdensban ken
k ens
ad en
ĠP ap
Ġful gte
sb ureau
Ġenergi bes
Ġparlament et
Ġford ob
ĠHa ag
Men er
Ġovervej es
ĠRumÃ¦n iens
skap acitet
Ġkonkurrenceforv rid
H oved
u menterne
in es
Ġfor lader
ĠpÃ¥ skÃ¸n
ĠÃ¥r ti
Ġli cens
Ġsamfund ets
Ġklar ere
Ġfal ske
Ġhind rer
Ġfolke afstemningen
udvikling smÃ¥lene
Ġkvan tit
v ninger
be var
ĠI MF
ĠrÃ¥d givning
Ġverdens markedet
Ġro d
Ġbar rierer
Ġmodstand er
Ġass ist
Ġvaret age
Ġassocierings aftalen
hjer tet
u c
Ġregi mer
Ġbl Ã¥
Ġstab ile
ĠgrÃ¸n t
ĠInter nettet
ĠMo sk
9 5
f Ã¦llesskab
y t
Ġerhverv sliv
Ġbal tiske
Ġjernban es
ĠfÃ¦rd igheder
ow ski
Ġanvendelses omrÃ¥det
Ġnabol andene
ĠIndon esien
in strumenter
Ġv elv
Ġmen e
pp en
Ġmennes ket
Ġforbind elsen
Ġvirksom heden
Ġinvol vere
Ã¦gt eskab
Ġemb ed
ĠWash ington
Ġk ernen
Ġud bet
em ission
ĠbemÃ¦r kes
ĠmÃ¸d t
ĠGu ant
Ġbist Ã¥
Ġvacc in
ĠGlob aliseringen
r isk
Ġpro gres
ret lige
ĠÃ¸nsk eligt
Ġstad igt
ĠsÃ¦ t
Ġlu kning
Ġforelag de
For sk
feren cens
ĠtrovÃ¦rd ige
Ġbeb rej
Ġs la
ek sport
Ġorganis mer
Ġalmind eligt
spoliti sk
Ġg er
ĠT he
okrati sk
Ġbeting et
Ġproduktion s
ĠovervÃ¥g nings
Ġdomstol ene
Ġintegrer es
Ġkomit ologi
omm un
ĠM or
Ġ14 9
Ġkompetence omrÃ¥de
Ġspek ul
Ġdistribu tion
Ġparad oks
ĠHus se
f ast
l Ã¸
ĠBar n
ĠEuro stat
Ġhvid va
b orgernes
o od
am men
Ġe cu
Ġan fÃ¸res
Ġverdens om
Ġkoordin eringen
Ġkontroller et
c ker
Ġs endte
om kostninger
Ġbe und
ĠvÃ¦k ker
Ġrevider es
Ġforlan ger
Ġulem per
h Ã¦r
Ġhand let
Ġmind es
Ġfores kri
Ġeksp lo
Ġvirkning en
Ġerstat tes
aktiv t
ĠslÃ¥ s
ĠuopsÃ¦tt elige
lymp iske
Ġbet ydet
Ġudvikling spolitik
Ġkris estyring
Ġopfatt elser
ĠsammenhÃ¦ng en
ĠKosov os
Ġtun ge
ĠTil pasning
sstyr ke
Ġunivers elle
Ġprivatlivet s
Ġp agt
Ġtydelig ere
Ġpl at
Ġar tikler
ĠP ala
Ġem bal
Ġparlament ar
esk ridt
Ġvold somme
Ġudb ytte
Ã¡ n
ĠredegÃ¸r elser
ĠÃ¥benly st
Ġuguns tigt
Ġmistan ke
n elser
Ã¦g terne
ĠlÃ¸ be
ĠT jekk
Ã© r
Ġ5 5
ĠO b
Ġtit len
1 3
ĠP at
ĠmiljÃ¸ omrÃ¥det
Ġkonvent ets
ĠbesÃ¸ ge
Ġuover ensstemm
Ġkvik sÃ¸lv
Ġu stabilitet
Ġmed i
Ġinter oper
Ġdi agn
Ġbeslutning sproces
Ġfors vinde
Ġbyg ning
ĠFU SP
G ruppens
sk es
Ġind hen
Ġben yttes
Ġluxembourg ske
Ġindhen te
1 7
e uropÃ¦isk
om eter
Ġtil god
at ning
Ġind fri
ser klÃ¦ring
rÃ¦n g
ĠH av
Ġdefin eres
Ġfortal t
Ġskand ale
Beslu tningen
Ġa si
ds j
Ġhandlingsplan er
ĠkÃ¸n nene
Ġsvag heder
bring es
Ġmom s
ĠoptrÃ¦ de
Ġwe ekend
ĠBro k
Ġforsk rifter
ĠmÃ¥l rettede
sud veksling
Ġevalu ere
Ġbog st
Ġk art
Ġfrem sÃ¦ttes
Ġfort rÃ¦
em issioner
Ġreform erne
Ġresul terer
ĠbesÃ¦ ttelse
ĠnÃ¦g tet
i rer
es e
Ġend eligt
kon g
ĠN at
ut h
ĠV il
sÃ¦tning en
skon vention
Ġbetydnings fulde
H eld
s igtig
Ġer nÃ¦r
Ġt yder
sl Ã¸st
ĠvÃ¦r ende
sb eskyttelse
Ġfol ket
ĠJ ean
Ġbel ar
Ġdy be
Ġregerings fÃ¸relse
ĠMon ti
Ġaut onom
Ġforhind ringer
ĠdÃ¸r en
Ġen tu
Ġproblem stilling
Ġarbejd sforhold
Ġafslu ttende
ĠerklÃ¦r ingen
Ġ6 5
Ġanmod es
Ġdybt gÃ¥ende
ĠforstÃ¦r ke
Ġfagforen inger
ĠAtlan ter
j unkt
Ġs ande
ater et
Ġla det
Ġafstem nings
ĠhÃ¥nd teres
smarked et
Ġmistillid sv
ger et
ven te
over vej
medlem skab
Ġovergang speriode
ĠAr bej
verden en
d ende
Ġb ulgar
al on
Ġhv iler
red sstillende
aj dsj
ĠII I
Ġforsigtig e
G en
Ġ Hvordan
Ġf Ã¦l
Ġgennemsigtig t
Ġbureaukrati sk
Ġfil m
ĠTaiw an
cos ur
Ġn ul
sm iljÃ¸
ran chen
Ġ4 3
Ġdest ru
ĠforetrÃ¦ kke
Middelhav s
Ġsmu kke
tiltrÃ¦d elses
serb ajdsj
ĠS u
Ġplan te
Ġparter s
Ġkv ote
Ġsandsyn ligt
ĠnÃ¸g len
ĠskÃ¦r p
ĠmÃ¦l k
Ġhjert elig
ker ende
ci o
Ġland sb
Ġbudget forslag
Ġskab te
ĠVi etnam
sra mme
Ġsprog lige
Ġann on
Ġeli min
Ġfolkeafstem ninger
Ġvar m
Ġhense ender
ĠunÃ¸dvend ige
Ġredu cerer
Ġfal dt
Ġufor en
Ġmateri aler
uns tig
ĠhÃ¥ndhÃ¦ ve
ĠhÃ¦v de
Ġsek und
Ġrevider ede
Ġkendeteg net
ĠStockhol m
F O
j ent
sk ommission
Ġan sat
vi ler
Ġforvent et
Ġforkast ede
z on
Ġud sp
Ġmen ingen
ĠsÃ¦ tning
Ġtransport former
ĠSt ater
ĠdÃ¸d s
ĠovervÃ¥g ningen
Ġkin es
Ġbeskri ver
1 8
Ġd ann
Ġny heder
ĠÃ¥r ene
di tion
pro ces
under skud
ĠW e
Ġminister en
Ġno terer
ĠtillÃ¦g sspÃ¸rgsmÃ¥l
Ġbe mynd
af rikanske
oet tering
ler et
Ġand res
Ġdemokrati er
Ġseks uelle
ĠValuta udvalget
m ateri
u ber
Ġaf holder
Ġin der
Ġvansk elighed
har ov
Ġude fra
Ġrig dom
ĠpÃ¥h viler
Ġt Ã¦l
Ġst am
for bruget
Ġeksister et
Ġak adem
Ġyd m
Ġafspej les
Ġbesked ne
Ġslov ak
ĠSocialdemokrater s
r sdag
re prÃ¦sent
on ou
Ġder i
Ġr yd
Ġpro pag
ĠFor handlingen
ĠdÃ¥r ligere
part en
Ġgennemsnit lige
Ġvenlig st
Ġg id
ag tige
Ġu klar
elig vis
Ġberet ningen
Ġgav ner
ĠVest bal
almind elige
Lig eledes
ĠMonteneg ro
Ġbek lÃ¦
Ġudvikling sland
Ġbef Ã¸jelse
sb est
Ġfr ister
Ġbel Ã¸n
Ġlav este
Ã¡ nam
Ġoplev ede
Ġskygge ordfÃ¸rer
l d
Ġb ur
nes ten
Ġfrem lÃ¦gges
ĠN ationer
Ġoperat Ã¸rer
re former
eg lerne
Ġud ski
Ġunder stÃ¸
Ġbed rifter
ass en
ko fin
Ġprivati sering
eterin Ã¦r
b yder
o ser
Ġv endt
Ġund ladt
ĠvÃ¦rdi fuldt
Ġfleksib elt
ĠSocial fond
k lam
ĠG ra
Ġned gang
Ġbil industrien
Ġbag ud
ĠivÃ¦rksÃ¦ ttelse
Ġekstre me
Ġopstil ler
Ġkontroller er
ĠrÃ¥dsformand skab
Ġumiddel bare
c t
Ġh um
ĠD on
ud dann
Ġlig ner
Ġspil de
Ġacceptab le
Ġroma er
ĠVerden skrig
g anis
ĠB olkeste
Ġkl ov
land ede
Ġ199 1
aran ti
Ġch e
Ġkrig sforbr
Ġudfordring erne
han nes
Ġsocialdem okratiske
sre ger
Ġadministra tiv
and er
Ġeg nede
Ġskad elig
ĠsÃ¦dvan lige
% ,
1 4
Ġp ak
lu gt
sfor mer
Ġdi versi
Ġstra mme
Ġti rsdag
tim or
Ġjernban en
rust ning
c eller
ĠI LO
Ġdokument ation
Ġverdensom spÃ¦ndende
Ġom stilling
Ġkomp leks
f ry
it or
ov givning
ĠforsÃ¸ get
Her til
stjen este
ĠCentralban ks
Ġskrift lige
Ġtilbag eskridt
Ġmass ak
b Ã¸rn
Ġ Å
Ġsk ot
ĠI sland
yp er
ĠBar oness
Ġvok sne
Ġhil ses
Ġmodst ridende
skriter ier
G F
h ist
Ġud brud
Ġkl oning
Ġarbejd ede
bar go
Ġfunger ende
Ġmillenn ium
Ġhjul pet
Ġforbru get
ĠHong kong
Ġp iger
Ġt elefon
Ġst r
sp orter
Ã¸d te
ĠF Ã¸der
yn n
Ġmorg es
Ġdefin erer
ĠmilitÃ¦r t
Ġlangvar ige
Ġdrasti sk
z e
ar z
Ġre produ
Ġejendom srettigheder
H and
f ac
z a
Ġk und
Ġtransport en
ĠUdenrig sanliggender
Ġskibs vÃ¦r
Ġop fÃ¸re
rÃ¥ ling
sb aser
Ġafslutning svis
ĠskÃ¸n t
Ġretss ag
Ġuddy be
ĠFra tt
F Ã¦llesskab
yd elserne
Ġfred sbe
Ġutilf reds
Ġvelkend t
retnings orden
Ġhvidva skning
w are
st Ã¸rste
ind sigt
Ġstat utten
Ġfunger et
sek on
Ġdimen sioner
Ġfjern else
Ġmodern isere
ĠtiltrÃ¦delses forhandlingerne
v l
Ġin effektiv
Ġan giver
ced ens
Ġlandbrug ssektoren
ac iteten
Ġford revne
Hvor nÃ¥r
Ġinten sivt
Ġstabil t
Ġcompu ter
ĠfortrÃ¦ ff
p as
Ġv undet
lu b
hold ige
Ġgod stransport
ĠC res
min er
Ġenergi omrÃ¥det
ot um
opm Ã¸de
spar ti
Ġsli ppe
Ġbesid delse
ĠEL DR
Ġst Ã¥ende
Ġal mene
Ġbrug erne
ĠSak harov
H ans
h y
h anske
m ester
Ġsk Ã¦re
ĠprÃ¦ cedens
Ġbyg get
Ġforklar er
Ġkonkurrencedygtig t
Ġoph Ã¸re
l ap
Ġban an
mÃ¦nd ene
Ġsammenlig ne
Ġfjern t
ĠMer cosur
Ġmennesk ene
or ge
var et
Ġlov over
Ġfr ont
Ġkommission sformanden
Ġbegrund elsen
Ġhas tighed
r erne
t rÃ¦ngende
Ġfor be
Ġh oc
Ġp an
Ġaf tes
at en
ĠlÃ¦ng st
ĠRegional udvikling
v idst
Ġform ind
art ede
ĠhÃ¸j tid
Ġlandbrug erne
Ġfremskridt ene
Ġfly ve
Ġrettighed erne
re ber
Ġst ud
Der imod
Ġafh Ã¦nge
Ġaut or
Ġskov br
Ġpla cering
Ġutilf redsstillende
obod a
ĠVestbal kan
b le
s undhed
Ġud satte
ene z
Ġkar riere
Ġafspej le
Ġmotor k
G ener
Ġret or
Ġbrug ere
Ġhandels mÃ¦ssige
Ġindled te
ĠindrÃ¸ mmelser
ĠGuant Ã¡nam
F N
L e
l Ã¸n
ig else
Ġkon tekst
ĠP h
midler ne
201 0
N I
b io
z y
der et
ering er
Ġlandbrug sprodu
Ġinves terer
Ġfly tter
Ġskatte mÃ¦ssige
Ġafg hanske
tjen este
Ġskuff ende
Ġombud smand
Ġresolu tioner
h ag
Ġudtal er
Ġdri ve
Ġ198 9
Ġentyd igt
sklaus ul
Ġaf prÃ¸
Ġkun s
ĠH au
Ġforpligt elserne
Ġid rÃ¦t
Ġspis e
ĠMosk va
j el
Ġu Ã¸n
ĠgennemfÃ¸r te
Ġerfar ingerne
marked erne
Ġdirektiver ne
interes ser
ĠCot onou
u p
in strument
is mens
al ia
ly tning
Ġnatur en
lov en
Ġenkelt personer
Ġdomin erende
Ġslov enske
Ġforlan ge
uly kker
e vne
ĠB landede
ob yl
Ġsm id
Ġsuppler er
ĠÃ¥nd en
Ġdiplom ati
proj ekt
Ġhus hold
ĠfÃ¸d t
sudgifter ne
Ġj f
ĠS ar
lag et
Ġreligion sfrihed
oss elt
Ġbist anden
Ġi v
Ġl over
ĠM ug
ĠindfÃ¸r te
Ġgent aget
Ġhjem sted
ĠforelÃ¦g ges
Ġregel mÃ¦ssige
ĠstrÃ¦ be
Ġorien teret
ĠJo hannes
Ġminut s
ĠK orea
sfor sk
Men neskeret
Ġkombin ation
Ġklim ap
Ġnukle ar
Ġatomkraft vÃ¦rker
ĠbehÃ¸r ig
Ġjernbanet ransport
ru kket
for anstaltningerne
sm Ã¸det
ygtig e
Ġinteresser er
Ġske p
Ġratifi ceringen
byr d
Ġpassager erne
Ġreager et
Ġafklar et
h as
Ġs al
ĠD es
Ã¸d t
ĠÃ¥r tus
Ġgrund ige
Ġfast lÃ¦ggelse
ĠansÃ¸g ninger
Res ult
Ġimmig ration
Ġdiversi fi
a o
Ġu betinget
Ġsk rev
Ġform Ã¦nd
Ġkon cer
ĠH e
Ġudl Ã¸bet
ĠFer rer
A g
I I
a ks
Ġom d
ĠpÃ¥ trÃ¦ngende
Ġvar me
Ġforskel len
Ġc ig
Ġdelt agere
Ġber ed
Ġforud sig
Ġtilfred sstil
Ġ14 2
Ġluftt ransport
ĠOp trÃ¦den
Ġalar merende
eg ang
Ġud peget
brug erne
ĠUd adtil
Ġdre je
Ġstandard isering
b anske
h am
it t
ĠK o
sm Ã¥de
Ġhand lede
Ġkol on
uler et
Ġfej lag
Ġses sion
Ġkandidat landene
Ġ Ã¦ld
Ġk odeks
Ġaf sÃ¦ttes
Ġj Ã¦vn
Ġind leder
Ġforb il
Ġunder vurder
ss elskaber
ĠkommissÃ¦r erne
Ġhel hjertet
ĠAf rikanske
Ġudpeg e
Ġep idem
Ġudvalgs behandling
ĠTjekk iet
Ġb lik
Ġud sende
giv es
Ġakt indsigt
ĠNord korea
Ġbeklag else
ĠforvÃ¦r res
tekn ologi
ĠglÃ¦d eligt
Ġklimaforand ringer
jern obyl
enez uel
Ġt akt
Ġar k
hold ende
ĠM ac
Ġem bargo
Ġkris es
ris iko
Ġhje mmet
ĠretfÃ¦rdig gÃ¸re
ĠvÃ¦rkt Ã¸jer
Ġcer tifi
s net
ent ing
ĠÃ¥r lig
Ġkom itÃ©
Ġkomp let
Ġeks am
Ġforhand les
Ġbar bar
ura tom
Ġfor uden
ftig e
Ġhenhold svis
ĠindgÃ¥ elsen
Ġudl Ã¸ber
Ġbeslut somt
4 5
b our
ed ler
ag nen
spro get
ĠH el
Af stem
Ġadskil ler
Ġind sigt
Ġste mmes
Ġsikkerhed sstandarder
ĠhÃ¸r es
Ġhandels politik
ĠKon stitutionelle
ĠvÃ¥ben h
betal ing
Ġmoratori um
st ab
am a
land s
ĠÃĺ kofin
Ġbevar elsen
Ġdyr ene
Re vision
Ġadministra tionen
s alder
Ġf ossi
Ġt omme
Ġselv sagt
Ġpolitik erne
ĠvÃ¦rd sÃ¦tter
rÃ¥d te
ile p
qu is
ĠoptrÃ¦ den
0 7
M iljÃ¸
li cit
ĠN ic
Ġkonkurren ter
Ġvold somt
ĠdÃ¸ mme
Ġekspor tere
B udget
lig ter
am et
Ġop gaven
Ġgod s
rol le
ust ral
Ġkultur elt
Ġlever ing
Pro tokollen
smÃ¦nd ene
Ġafskedig elser
ĠL iges
ĠN ap
Ġko al
Ġstig ningen
sy ge
Ġudst ede
fart Ã¸jer
Ġbolig er
ĠEuroparÃ¥det s
Ġatt ent
D erefter
sp rÃ¦
mm ene
ĠvÃ¦rdi en
Ġforn Ã¦r
Ġski fte
Ġafbalan cerede
Ġkraftig e
Ġhe mmelige
Ġforlig sproceduren
Ġvidereg Ã¥ende
Ġcivilis ation
dis ciplin
Ġproportion alitet
overvÃ¥g ning
S D
Ġi srael
Ġaf d
Ġop sp
Ġret spraksis
var e
ft est
Ġspil d
Ġinfrastruktur en
Ġforhind ret
Ġtilstede vÃ¦rende
ĠAnd en
Ġlo ft
Ġsymbol sk
Ġdoll ar
Ġbogst av
ver i
Ġland enes
Ġ19 5
Ġko ste
ub anske
Ġunion sb
ĠPala cio
en a
sk a
Ġre alisere
Ġpro gn
Ġfra vÃ¦r
Ġdemokrati ets
Ġbeste mmer
Ġc ubanske
Ġstyr es
ĠV esten
byg ning
led ninger
ĠhÃ¥nd teringen
Ġevalu eringen
Ġangiv eligt
ĠOmbud smanden
Ġukrain ske
ĠmÃ¥lest ok
ĠpÃ¥ stand
Ġmin oriteter
ĠP ut
Ġgodkend elsen
Ġskatte ydere
dire ktiver
Ġoprindelses land
ĠforstÃ¦r ket
Ġensid ige
ĠForbruger politik
Ġbrem se
Ġkortsigt ede
Ġso ft
et ider
Ġmed fÃ¸r
ek on
rÃ¦ b
mm el
au t
la h
Ġterror angreb
Ġudst ation
Ġpotenti elt
Ġudlever ing
Ãº n
Ġinteroper abilitet
s org
be hov
gi ej
sst ed
ĠU C
Ġindg ik
Ġfokuser es
r elser
ra pp
am fund
ek tion
Ġet isk
gi um
Ġbe holde
ford ring
Ġvej ene
sniveau et
Ġambass ad
le z
Ġvel af
Ġdynam iske
Ġhjert eligt
B ort
y a
Ġf Ã¦d
Ġge vin
ĠpalÃ¦stinens isk
Ġmar iti
Ġinten tioner
qu e
niveau et
Ġpati enterne
Ġoply st
Ġundermin erer
s ager
Ġo nde
Ġbeg Ã¥r
rupp es
Ġpris stabilitet
Ġudenrig spolitikken
Ġint rodu
elsespro ces
Ġmateri elle
Ã¸delÃ¦g gelses
p at
z onen
Ġh ad
am ing
Ġved lige
Ġgen brug
Ġkonstru ktion
Ġrespekter et
Ġbeskri ve
Ġreligi Ã¸s
Ġing enting
Ġrammed irektiv
Ġf rag
Ġf asc
Ġs ovjet
ig h
Ġk yn
st rÃ¸
st yre
ort en
ss on
ĠT jernobyl
pÃ¸rgsmÃ¥l et
Ġudbred te
Ġkoncent rerer
stillad else
Held igvis
Ġu kend
ĠR i
ret tes
ser er
Ġskab else
Ġagentur ets
mynd igheden
Ġscen ar
f isker
m s
Ġd Ã¸re
Ġan lÃ¦gge
Ġform Ã¥et
ĠfÃ¸r tiltrÃ¦delses
ĠprÃ¦c isering
Ġudfordring en
Ġafskaff elsen
ĠSchengen omrÃ¥det
Ġmaksim um
Ġtredjelandsstat sborgere
Ġform ulere
Ġman ip
ĠG o
ĠJ un
Ġskri ver
Ġprogramm ets
ĠbiobrÃ¦ndsto ffer
Ġp ira
Ġst res
Ã¸j elsen
ĠM it
Ġsyn lig
fald ende
Ġgaran teret
Ġby en
Ġev ner
Ġensid igt
K ra
g dom
Ġk under
Ġst en
Ġkl ausul
sf onde
Ġsamfund smÃ¦ssige
plan en
Ġstater s
Ġsvag este
ypri otiske
Ġasi atiske
S agen
b Ã¥nd
v ak
Ġu par
Ġu kontrol
Ġt ry
ĠÃ¸ er
Ġgrund ene
Ġdest abil
ĠLe on
Ġanti bio
Ġfremstil le
ĠGuantÃ¡nam o
Ġu re
Ġl ik
Ġvil jen
Ġop deling
Ġudelu kkelse
Ġisol eret
ĠglÃ¦d ede
Ġudsted t
Ġpragm atisk
or al
Ġtilb ages
Ġski ft
Ġaktivitet erne
Ġb ydende
Ġnatur ressourcer
syn et
Ġinstitutioner nes
Ġvurder et
ĠgrÃ¦nse vÃ¦rdier
Ġfastsl Ã¥et
Ġadvar e
Ġundsk ylde
Ġudnytt elsen
P ar
st Ã¥r
Ġover ens
Ġven skab
Ġniveau et
Ġadskil lelse
Ġforklar et
ess or
Ġuoverensstemm elser
Ġra ce
Ġbef ri
Ġkonsek vente
ĠRe ach
Ġskov ene
Ġtus inde
Ġreguler et
Ġbeteg nes
Ġintellig ente
Ġcig aret
al i
tning e
Ġudvikling er
Ġkig ge
ĠNat ura
Ġu f
Ġom dan
Ġte oret
Ġ4 4
Ã¦v ne
smedlem mer
ate m
Ã¸mm ende
ĠEC HO
Ġafsl Ã¸r
Ġdomm er
Ġmilj Ã¸l
ĠbeklÃ¦ d
1 6
j ust
Ġh ent
Ġud mÃ¸n
sÃ¦ t
Ġbureaukrati et
ekÃ¦mp elsen
Ġdemonstra tion
undersÃ¸g else
Ġnavne op
e v
oci al
Ġch ik
Ġnord iske
ĠÃĺst timor
Ġmasse Ã¸delÃ¦ggelses
Ġpartnerskabs aftaler
ĠsjÃ¦ld ne
ĠBolkeste in
arz emb
f oder
ĠpÃ¥ ber
ĠR ussiske
ĠsÃ¸ transport
Ġoffentlig gÃ¸res
Ġfortal er
Ġfagforen ing
ĠpÃ¥st ande
ĠMich el
d okument
m Ã¥
u mp
Ġfor ar
ss et
Ġher ske
sfor m
Ġprodu ceres
ĠMart in
Ġforsv undet
serbajdsj an
Ġ yng
Ġf yldest
Ġj er
for ebyggelse
Ġre ference
kk elige
Ġvidere udvik
Ġluft en
Ġnational itet
Ġkatastrof en
Ġev t
berettig et
Ġprogramm ering
Ġsanktion erne
Ġsepar at
A O
ag elses
ĠpÃ¥ tÃ¦n
ik i
ak h
us alem
Ġned br
Ġ4 6
Ġforesp Ã¸rg
Ġoverlev else
Ġkreditvurdering sbureau
Ġnavneop rÃ¥b
M il
Ġop lag
sl ing
sp ekt
ĠT ran
Ġbehov ene
Ġstat ens
Ġborger krig
ĠfÃ¸devar ek
Ġtredj edele
beret ningen
Ġtrag isk
ĠnÃ¸jag tige
t ur
Ġv ol
Ġunder rettet
Ġsid de
ĠL ang
rag te
Ġfast lÃ¦ggelsen
Ġformandskab er
Ġtru slen
ĠindrÃ¸ mmer
ressour cerne
ĠjordskÃ¦l v
Ġr Ã¸r
Ġfrem fÃ¸re
Ġproj ekterne
sam arbejde
Ġne oli
Ġbeskri ves
Ġalli ance
skamp agner
i ro
Ã¦ k
ra sm
kon ference
sfor b
ĠB et
ĠmiljÃ¸ mÃ¦ssig
Ġforpligt elsen
Ġeng agere
Ġudb rede
Ġindled ningen
Ġskri de
Ġidenti fikation
Ġimplem en
Gener elt
Ġ Ã¦gteskab
re z
Ġk Ã¸l
Ġtil dele
un n
Ġdem okrater
Ġselv bestemmelse
ch er
vent et
Ġfisker es
ĠtÃ¦ tte
Ġinterinstitution el
Ġskatteyder ne
Ġruss isk
M od
k valiteten
id til
Ġpro stitution
Ġmod sÃ¦tter
Ġproblem atisk
ĠT ekn
ĠH andel
sdag en
oler ance
situ ationer
ĠkÃ¸n s
Ġobjek tivt
f il
Ġp ligter
al in
Ġt ri
Ġind h
ĠO ver
Ġharmon iserede
Ġvok set
Ġ198 0
Ġmas siv
Ġaf vikling
Ġu bet
st Ã¸tten
ĠA h
este mt
Ġhand len
Ġfred eligt
Ġaftal te
Ġber Ã¸re
Ġafsk y
Ġberet ninger
Ġflygtning ene
ĠlÃ¦ge middel
Ġsubsidi er
Ġkombin ere
Ġurim eligt
Ġforne mmelse
ĠrÃ¦kkevid de
uber kul
R u
ti tu
Ġfin e
ĠstÃ¸ der
Ġned lu
Ġkultur en
nde z
Ġforfatning smÃ¦ssige
ĠsÃ¸j ler
Ġkontroversi elle
om ener
Ġst rider
Ġal banske
sl o
Ġfinansi erer
200 8
vid itet
Ġsuver Ã¦ne
Ġprotes tere
Ġfj endt
ĠGeneral direktor
Ġdrikke vand
e jer
Ġu end
Ġden nes
Ġsk Ã¦nd
Ġmind ede
rund et
Ġ3 9
Ġfa ser
effek tive
Ġstabil isere
Ġkre ative
Ġmonet Ã¦r
p rincippet
Ġj ul
Ġarbej dere
fat tet
im al
Ġperson ers
Ġled et
Ġtillad te
Ġafklar ing
ĠberÃ¸ mte
PrÃ¦ sident
Ġuden for
Ġreg els
Ġkontin u
ĠgrÃ¦ sk
ĠhÃ¦nd erne
Ġmobil t
Ġassocierings aftale
Ġenergiforsy ning
ĠtilbagetrÃ¦ kning
ĠFratt ini
Ġe x
ov givningen
Ġtilb ydes
Ġvidere fÃ¸re
Ġfastsl Ã¥r
Ġdrag es
Ġube hag
Ġbudgetp oster
Ġindrej se
f olkning
u k
nes t
ĠU EN
Ġselv mod
Ã¸st lige
Ġbort skaff
Ġkarakter is
Ġoverd revne
Ġfremgangsm Ã¥der
ĠBulgar iens
Ġreser ver
Ġbetydnings fuld
Ġtil del
Ġop tager
Ġhvor til
Ġmellem statslige
Ġlovgiv ninger
ob lig
Ġnet t
Ġbru tale
ĠsÃ¸ gt
Ġsand elig
ĠselvstÃ¦nd ighed
beting elserne
Ġmidt en
send else
Ġtilt ro
Ġurim elig
ĠforespÃ¸rg sler
u ktion
Ã¸ konomi
Ġop bevar
Ġan fÃ¸rte
mm ede
Ġnet tet
Ġbil let
Ġtidspunkt et
200 7
Ġimport en
Ġrevider et
Ġrestrik tive
ĠCan c
Ġtavs hed
1 9
h je
s industrien
for t
Ġmellem stats
avn lig
sb ekÃ¦mpelse
Ġbil led
ĠprÃ¦sident en
Ġdiskrimin erende
Ġskrift lig
Ġvild ledende
Ġindsam le
Ġm y
si l
ation ers
ĠK omitÃ©
Ġforb i
Ġret ssystem
Ġbeg reber
ĠC ambod
sf art
marked er
Ġhenstilling erne
ĠudnÃ¦vn elsen
Ġfremstil les
Ġb ry
st ande
ĠB as
ob il
ĠÃ¥b nes
Ġsvar ede
ĠmÃ¦r ker
ĠmÃ¦r kes
ator iske
Ġgeneral direktor
Ġprocent del
L u
e y
p arlament
se vne
Ġover blik
ĠÃ¸ en
af i
Ġplan lÃ¦gge
Ġlandbrug somrÃ¥det
Ġko smet
Ġdyr t
eskytt elsen
a en
omm er
ĠF olk
ĠfÃ¸rste behandling
Ġund rer
Ġsundhed smÃ¦ssige
Ġsyn tes
ĠBarn ier
ĠmasseÃ¸delÃ¦ggelses vÃ¥ben
m Ã¦ng
s j
Ġind taget
Ġun ges
ĠJ os
In tet
Ġpas siv
ĠhÃ¥rd est
ĠN orge
ĠkÃ¸re kort
Ġdon orer
bevilling erne
Ġprofession elle
Ġuforhold smÃ¦ssigt
Ġmuslim ske
Ġslovak iske
z z
Ġb undet
Ġu k
svar er
ĠL omÃ©
Ġkomp on
Ġpension ister
Ġgensid ighed
Ġaut oritet
Ġumu lig
Ġstatsb orgerskab
Ġfu sion
kriter ierne
f isk
Ġ qu
ling er
Ġmod tagelse
Ġvis a
Ġ25 0
ĠRegion sudvalget
Ġadvok at
God kendelse
Ġb akker
sp akke
Ġre pres
Ġudv ider
ĠC amp
Ġreg ister
Ġnorm al
ĠnÃ¦st form
Ġtilskynd else
Ġvelkend te
2 2
Ġat tra
Ġaf lÃ¦gge
Ġkr ige
Ġfri handel
Ġforval tes
Ġforordning ens
Ġfl Ã¥de
tenti ale
Ġoverdre ven
Ġn ot
som kostninger
Ġfr isten
Ġsyn lige
Ġford elt
Ġudl Ã¦nd
K ina
re yer
Ġind arbejdet
Ġind give
Ġgennem gÃ¥et
Ġkont orer
spro blemet
Ġprodu ceret
Ġgrupp ers
Ġled erne
Ġtransport net
Ã¶ r
Ġfang et
ĠstrÃ¦ ber
Ġspor barhed
reger ingen
an ere
sk ultur
ĠhÃ¥ n
ĠhjÃ¦lp en
ĠbekÃ¦mp er
Ġfisker fl
Ġkompromis Ã¦ndringsforslag
S and
Ġa kk
Ġop su
Ġny ligt
Men nes
Ġgenop li
Ġtyp isk
Ġide ologiske
Ġreser ve
Ġep is
Ġbelar ussiske
S e
Ġop fÃ¸rsel
Ġgru som
ĠP osselt
Ġgent agelse
Ġkoordin ator
Ġindd rager
Ġkonstater ede
Ġudform es
Ġstemmeforklar ing
ĠhjÃ¸r nesten
Ġvelv il
Ä į
Ġs ind
Ġkon junkt
hand len
konom isk
Ġpr iss
Ġinformation stekn
Ġben z
Ud videlsen
ĠmÃ¸des alen
Ġlokal samfund
Ġneut r
Ġk od
fter e
sen der
Ġregering ens
Ġbil lige
Ġudelu kkes
Ġoffentlig gÃ¸relse
fri e
ĠFri heder
sbeg rÃ¦n
D og
ĠP oettering
ĠC as
ĠV ed
Ġsocial politik
Ġbl inde
Ġci tere
Ġfakt a
ĠGu inea
Ġforsamling en
Ġhundred vis
Ġ OgsÃ¥
Ġf av
Ġb Ã¸der
Ã¦r en
res ultatet
Ġstyr er
ĠkrÃ¦ vende
Ġsv igt
Ġhandels aftaler
dem okratiske
Ġfolke valgte
sg ruppe
Ġvalut ak
Ġbulgar ske
l iste
on y
ĠS har
ĠO omen
Ġkonst ante
Ġdefin itioner
Ġplenar mÃ¸de
ÃŃ a
ĠnedskÃ¦r ing
elÃ¸b ende
Ġvarier er
Ġuom gÃ¦ng
Ġn a
ĠS k
ĠC ent
sen ti
Ġly st
Ġspeci elle
Ġoli ven
Ġmaksim ale
ĠforelÃ¸b ig
Ġha ste
Ġforek omme
Ġgratu lere
ĠEuropa Parlamentet
Ġdes per
ĠbemÃ¦r kede
Ġlev et
Ġdemonstra tioner
Ġblok ere
Ġarres teret
N ord
d ene
ĠprÃ¦ ference
sb eslu
Ġlu kker
urder ing
200 9
ĠbestrÃ¦ ber
Ġadvar sel
bel Ã¸b
ĠASE AN
Ġafska ffet
de ira
ab o
Ġpoliti kkerne
Ġbeg unstig
af gÃ¸rende
Ġfast holdes
Ġregering ers
Ġrets lige
Ġlev edygtig
ĠmÃ¦ng den
Ġhykler i
flu enz
Ġac quis
2 7
se ffek
ind else
hold enhed
Ġanerkend elsen
Ġintegration sproces
Ġdeleg ationen
ĠEuro just
ski be
Ġbeskri velse
Ġih Ã¦rd
Ġsav ner
Ġfredsbe varende
Ġattra ktiv
ab elt
ĠK ir
Ġnu mmer
Ġlov ende
Ġlov give
ĠO lympiske
iss es
ont a
Ġtransport sektoren
Ġben yttet
Ġ8 5
Ġsel ek
politi kkerne
Ġuheld igt
Ġdrivhus ga
U n
i ber
in ter
ag tig
st eder
st rid
vÃ¦r else
ĠA ir
Ġra di
Ġtilf Ã¸jes
Ġkommun ik
ĠafhÃ¦ng igt
Ġafskaff es
Ġregional politik
Ġhosp it
e w
Ġ Ãħr
sl et
udvalget s
Ġsat ser
ĠAl le
Ġak vak
Ġreguler er
Ġtilbag egang
rasm us
uberkul ose
b Ã¦r
u mmet
ĠA serbajdsjan
Ġselv mord
pro cedurer
Ġfores tilling
sb ek
Ġopford ringer
Ġforen er
H idtil
on dens
ĠvÃ¦r k
Ġstra m
ĠvÃ¦rdi fuld
Ġban ks
Ġtun g
Ġopd ater
myndighed erne
Ġsmer te
ĠpÃ¥begynd t
ro t
Ġop dag
kl ausul
Ġforbed rede
Ġsvar ende
Ġeksemp l
ĠKon gres
met oder
Ġdra b
Ġophav sret
Ġsid es
Ġstra ffer
aft ryk
Ġnavn et
Ġharmon iseringen
regi oner
kor por
Ġstabilisering s
Ġvog ter
Ġfinansmarked erne
ĠWall strÃ¶m
emission erne
R E
in ion
Ġop pe
ĠL eg
ĠT im
Ġvalg ene
ĠsÃ¸ g
Ġfjer d
Ġomfatt ede
ĠophÃ¦ ves
ĠMenneskerettighed s
Ġobservat Ã¸r
ĠunÃ¸dvend igt
Ġindstil le
ĠnÃ¦rhed sprincippet
Ġky ster
Ġakvak ultur
Ġre ces
red et
Ġtilf Ã¸jet
Ġfolk ed
ĠhÃ¥nd grib
Ġbar sels
ĠkÃ¸ret Ã¸j
Ġn Ã¦gt
for sÃ¸g
Ġre par
Ġre ferencer
ĠK aukasus
Ġforb rÃ¦nding
ĠvÃ¦r ker
Ġalt afgÃ¸rende
Ġplan ter
sf re
ĠhÃ¸r ingen
Ġfejl tagelse
Ġovervej ende
Ġforan led
sniveau er
Ġudbred elsen
Ġhe mmelig
reger ing
ĠusÃ¦dvan lig
ĠFerrer o
ĠCanc Ãºn
Ġfor Ã¦l
al dt
ra kter
ĠC a
ĠV este
produ centerne
Ġmilit ar
Ġjord bund
Ġresul teret
k elserne
Ġt rist
tid ens
art et
Ġbudget proceduren
ĠN ationers
vir ker
Ġsocial sikring
Ġbehand lede
Ġmeddel elser
rog res
Ġsolidaritet en
Ġhal ve
ĠUn gdom
Ġmaksim al
Ġmedlemsland enes
Ġinspek tion
h ind
ĠE uratom
Ġind b
Ġreg len
ĠvÃ¦l ges
ĠAg entur
Ġudryd delse
vind ing
u rud
v Ã¦l
Ġ Ã¸r
or isk
Ġp agten
Ġpro vin
sfor kÃ¦mp
ĠB a
af g
Ġdel es
Ġdel tid
Ġbl ind
Ġhenvis ninger
ĠudÃ¸ ves
ĠovertrÃ¦d elsespro
sa sp
Ġkreativ itet
t ation
Ġg l
ĠE rika
ling en
ĠT e
ch i
Al ene
Ġindustri ens
Ġrisici ene
Ġintellekt uel
Ġl atin
Ġover trÃ¦der
Ġbed Ã¸mme
Ġmarked ets
Ġkor tere
Ġtradition elt
Ġhe mmelighed
uss er
Ġimponer ende
p rincipp
Ġover lades
og en
Ġre publik
ger ede
Ġim age
som kostningerne
Ġstad ium
Ġsamt ale
Ġkolleger s
Ġspil lede
Ġudvid elsesprocessen
Ġch ancen
Ġsto le
Ġjernban erne
Ġfand tes
ĠVest sa
Ġmistillidsv otum
S varet
Ġf eri
Ġm Ã¸r
for ordning
ab ler
red iens
Ġ6 00
Ġge byr
Ġprof essor
ĠoverfÃ¸r sler
Bort set
M ar
Ġaf klare
Ġin korpor
am i
Ġforh Ã¸je
mens lu
rett elsen
ha il
Ġmist ede
Ġno tere
ĠhÃ¸jre flÃ¸j
idenskab elige
8 0
Ġan give
Ġgen foren
ist parti
ĠmiljÃ¸ politik
Ġkrig s
Ġminimum sstandarder
ĠfordÃ¸ mt
Ġoverrask else
Ġreklam er
Hver t
ĠÃ¸ver st
Ġunder kast
Ġkl o
Ġsag s
sÃ¦tning erne
dag sordenen
Ġrets vÃ¦sen
ĠovervÃ¥ ges
Ġdyr kning
Ġdiskrimin ering
ĠLu kas
Ġmundt lig
Ġignor erer
indsat sen
ĠtilhÃ¸r ende
k ommissÃ¦r
Ġv end
il de
ri velse
Ġbet Ã¸d
ĠB en
ber t
Ġopret holdelse
Ġforsvar s
Ġjur is
ĠAn n
ĠmÃ¥ned ers
Medlem merne
ĠvÃ¥benh vile
Ġsom met
Ġind vik
Ġalt ing
Ġsv Ã¦re
Ġspiller um
Ġudf ylde
Ġhul ler
Ġmenneskes m
ĠtÃ¦l ler
ĠFÃ¸der ation
z Ã¡
Ġan tager
ab or
Ġbes atte
Ġunder vejs
ĠM E
Ġskri der
rib es
ĠrÃ¦ ds
Ġgenopretning splan
Ġmandag s
Ġbero lige
Ġkarakteris tika
Ġsommet ider
Ġs ven
Ġop sving
Ġforb av
men ien
Ġmind et
ĠV alut
Ġ4 7
Ġkonklu dere
skil der
balan ceret
Ġerkend t
Ġann ul
b istand
Ġu igennem
Ġforbedring en
Ã¨ s
vÃ¦k st
Ġprotes ter
Ġhavn ene
R et
T er
Ġu gen
Ġt yr
Ġvand veje
Ġhenstilling en
ĠKÃ¸benhavn skriterierne
Ġdomm ere
Ru ij
W ald
Ġar ki
Ġinter im
arbejd slÃ¸s
Ġhorison tale
pen ge
Ġger ning
r ens
Ã¥ s
ik ker
Ġan imal
Ġre feren
ĠS ri
Ġfast sÃ¦ttelsen
Ġnatur lig
Ġil lo
Ġforfatningst raktat
Ġbedrager i
Ġrati fikation
ĠSw oboda
Ġpropag anda
ar den
Ġr and
Ġ4 9
ĠmÃ¸d re
sli mer
Ġren te
Ġmedicin ske
ĠsÃ¦l ger
j ka
ra s
Ġop tages
it Ã¦r
Ġarbejd es
Ġfuld gyld
Ġsystem atiske
Ġbil leder
sag entur
Ġben ch
Ġabsol utte
he imer
Ġoffici el
ĠmisforstÃ¥ else
Ġleverand Ã¸rer
Ġmyr det
Ġmarker er
Ġydm yg
ĠJohannes burg
3 5
S ikkerhed
ti vis
ag h
sin strumenter
Ġeksistens en
ĠernÃ¦r ing
be hand
Ġover sigt
kk elsen
hver v
Ġtilslu ttet
Ġob serv
ĠdÃ¸d en
ĠGrÃ¦kenland s
Ġtilpas ninger
iskrimin ation
Ġlevestand ard
ĠValut af
5 00
u a
Ġfor agt
eg net
Ġop spar
ĠsÃ¸ nd
Ġge op
ĠforudsÃ¦tning erne
por n
Ġminist rene
Ġsammenlign elige
ĠHusse in
ĠCambod ja
ĠS en
Ġbudget disciplin
sb yg
Ã¦v ner
Ġerhver vet
ĠgrÃ¦nse vÃ¦rdi
Ġsub stan
Ġgensid igt
Ġka os
Ġkommunikation stekn
ĠSom alia
Ġuheld ige
FI N
Ġatmosf Ã¦re
Ġinder ligt
Ġudviklingsland enes
z one
Ġm asser
Ġt vetyd
hed ens
se j
ger ligt
ange mann
Ġuddann elsen
skri fter
Ġpres sion
Ġrets vÃ¦senet
Ud viklingen
kald ende
Ġdri ver
Ġkontinent et
ĠpÃ¥st Ã¥r
S ol
z heimer
ud i
op ing
ch ad
ĠP rogres
Ġmenneskerettighed skonvention
Ġskat tel
afhÃ¦ng ighed
Ġsat se
bal ance
ĠbeskÃ¦ftigelses politik
Ġskad eligt
fun ktion
ĠVenstre flÃ¸j
Ġchauff Ã¸rer
Ġskovbr ande
n ationale
Ġv Ã¦ld
ra tionen
Ġind ledning
ur et
ĠD omstol
end it
Ġstor m
spunkt et
Ġperson alet
ĠMenneskerettighed skommission
ĠuopsÃ¦tt elig
Ġl yttede
Ġher fra
Ġhvor imod
Ġhensyn et
Ġfol kets
reg n
sprogra mmerne
Ġsvag hed
ĠusÃ¦dvan ligt
Beslu tning
Ġdereg ulering
B endit
E T
Ġm ejer
ra ft
skab s
ĠS arko
ĠmiljÃ¸ mÃ¦ssigt
Her med
Ġanbefal ing
Ġafsl Ã¸rer
Ġskatteyder nes
Ġkoal ition
Y der
Ġfor a
Ġunder byg
di alog
led t
Ġsammenlig nes
Ġbudskab er
Ġryg ning
Ġguns tige
et ent
Ġf yldt
Ġo ftere
Ġom lÃ¦gning
ation alisering
Ġfrem gik
ĠprÃ¦ sent
Ġmedlemmer s
Ġfred sproces
Ġbyg ges
lever and
Ġfag lig
Ġfundament al
Ã¼ b
pri oritet
Ġungdom s
Ġudsk yde
Ġutvetyd igt
Ġtil delingen
Ġl am
Ġhoved stad
ĠovervÃ¥ ger
ĠmÃ¸der ne
Ġkal dt
Ġudl Ã¸b
Ġsund t
ĠtiltrÃ¦ kke
Ġarbejdsgiver ne
6 0
re form
on ds
Ġg u
Ġt on
ĠfremhÃ¦ vede
ĠbekrÃ¦ft es
Ġpla ceret
Ġfossi le
Ġvalutak ur
Ġom delt
am isbrug
ĠdrÃ¸ft elsen
virksom hederne
pri ori
Ġp ladser
ĠD im
Ġsp rede
tag elses
vi de
ĠnÃ¦ re
ĠnÃ¦r ing
ĠvÃ¦rd ig
Ġovervej et
Ġbud skabet
ĠtÃ¸r ke
Ġsusp ender
in ess
Ġt uberkulose
Ġfre mmet
Ġgodt gÃ¸relse
Ġbefolkning ernes
Ġtru es
klÃ¦r inger
Ġomtal er
lus c
Ġkonsekvensanaly se
Ġsekretari at
Ġplat form
p raksis
ĠEU F
op gaver
Ġhver dag
prÃ¦ sident
Ġsektor ens
Ġch ancer
ĠgrÃ¦ s
Ġbeslutningstag ningen
Ġgenopbyg ge
ess alon
aus uler
Ġafven te
Ġafvis te
ĠPut in
Ġubet yd
ĠVenstreflÃ¸j s
Ġbes at
ĠA ustral
Ġkomp etent
Ġvalg ob
Ġopret holder
Ġforsvar lig
ĠforstÃ¥ s
Ġang rebet
Ġforbered elser
ÃŃ n
Ġkendeteg n
Ġhundred tus
Ġsamord net
Ġleds age
arzemb owski
Ġarki te
Ġsp ir
Ġhen vendt
Ġfiskeri aftaler
ĠMiddelhav s
Ġsimp el
spoliti kkerne
Be folkning
ĠmiljÃ¸ven lig
Ġadvok ater
spart ner
ĠuforstÃ¥ eligt
m i
sk ninger
Ġ1 20
ĠA d
Ġprodukter ne
ĠudÃ¸ velsen
Ġinten sive
sspÃ¸rgsmÃ¥l et
sproj ekt
ĠFÃ¦lles gruppe
Ġkvo terne
ĠRed ing
ompeten ce
Ġvanskelighed erne
Ġfor vÃ¦rre
Ġk og
Ġse x
ĠbevÃ¦g elser
Ġstandarder ne
Ġkendsger ningerne
Ġregnskab er
ĠsvÃ¦ kker
Ġforfal skede
beslu tning
Ġklov syge
p la
ti fik
Ġm ur
Ġindustri aliserede
Ġkriti kken
Ġdyr es
ĠAf rikas
ĠbevÃ¦g elses
Ġbort fal
Ġhus dyr
Ġenergis ektoren
Ġfinansk rise
pligt elser
Ġsoft ware
2 4
Ġk lub
rÃ¸ ft
ĠmÃ¦r keligt
ĠAr menien
Ġoptim istisk
Ġbeskyttelses niveau
Ġkomplek st
Ġbevil get
ĠTjen esten
Ġentu sia
N R
k ere
Ġf Ã¸de
sk lu
ru k
Ġover stig
Ġfrem komme
ĠC at
Ġko hÃ¦r
Ġlin jer
ĠbÃ¸rne porn
ĠTh essalon
ĠJac ques
Ġfinansfor ordningen
ĠSovjet unionen
Ġforeskri ver
Ġfor rang
Ġk Ã¦r
Ġforb ydes
ĠG D
Ġforsvar es
Ġlev etid
ĠlÃ¸n modtag
ost a
Ġmateri el
of re
ĠforÃ¥rs age
Ġretss ager
Ġupar tisk
b as
n ers
Ġn at
tid igt
Ġmod et
Ġtro p
ĠÃĺ er
Ġstruktur fonde
Ġmeddel te
Ġatom energi
ĠJos Ã©
N avnlig
ĠG ro
ĠopnÃ¥ else
Ġterror handlinger
Ġbland ede
Ġjernban er
ĠforÃ¥r sag
Ġbifal de
har dt
Ġdu kker
Ġtrafik ken
ĠstÃ¸rr elses
Ġisol ation
Ġurim elige
Ġhomoseks uelle
ĠFolk ere
Ġud sendt
ist ans
Ġgennem tvinge
rupp erne
ub sidi
ĠkrÃ¦n kes
ĠtrovÃ¦rd igt
Ġlast biler
ĠWat son
T idligere
Ġu kl
ĠE ur
Ġop inion
ĠD al
Ġaftal ens
Ġtru e
kom itÃ©
Ġfac iliteter
V isse
c is
Ġen igt
Ġom sÃ¦ttes
ik anen
Ġsp ar
cer ende
ĠfÃ¦llesskab sret
Ġuddann elser
Ġklima et
industri ens
Ġpartnerskab et
ĠIrland s
Ġuh ensigt
smet oden
Ġindbyg gerne
tan ke
Ġoverstig er
S Ã¦r
d elsen
Ġp lus
Ġt vister
Ġmod stÃ¥
op ro
skri ves
ĠnÃ¦r heden
Ġstater nes
ĠpÃ¥peg es
Ġmedvir ken
Gennem fÃ¸relsen
eg od
Ġt ryg
Ġbe bo
tt elig
ĠT AC
Ġfal sk
dio x
Ġdaglig dag
g is
ft fart
ĠS tille
Ġgennem brud
ĠG ruppes
Ġfuld kommen
strategi ens
Ġopbyg get
Ġtun gt
Ġmedvir ker
Ġoptim isme
Ġengager ede
ĠpÃ¥lid elig
Ġbiodiversitet en
ĠKan ariske
ĠCor bet
Ġring ere
3 9
Ġd isses
ag erne
Ġu best
Ġl edes
sk ad
ĠF i
lo t
Ġtilf Ã¸jer
Ġkol de
Ġenk lere
mon isering
Ġak ut
Ġint ens
ĠNord afrika
Ġradio aktivt
kap acitet
Ġsven sk
h ow
Ġ Ã¦g
in et
Ġm iddelhav
sk rise
Ġan tid
au er
ĠLi fe
Ġlandbruget s
ĠUdvikling sudvalget
Ġide ologi
Ġrek ru
Ġleds aget
Ġimperi alistiske
Ġinteressen ter
k os
el Ã¸n
Ġansvar somrÃ¥der
sli p
sprincipp er
Ġjuris dik
b ol
ti op
Ġm ilep
Ġb re
de fin
Ġu ran
and t
Ġforb lÃ¸
Ġsoci alistiske
Ġfordel es
ma il
Ġ4 1
Ġterror b
Ġfjer krÃ¦
Ġdyr ere
ĠAr k
ĠJo hn
ĠtilfÃ¦ld igt
ĠGeneral forsamling
Ġlem p
Ġitalien sk
Ġkrises ituation
ĠBas el
ĠThessalon iki
l isten
or f
Ġf ugle
Ġi kkes
Ġsp ansk
For handlingerne
Ġte m
Ġdel te
stra tion
Ġforpligt elses
Ġrisik ere
Ġperi oder
ĠPar ti
Ġoverbevis te
kap ital
Ġretor ik
S lu
p ladser
an ia
om in
ter ror
Ġom sorg
rÃ¦ kke
sp rincip
li ber
ĠP o
Ġtilf Ã¸jelse
ves teringer
sf uld
Ġkonf ront
ĠudÃ¸ velse
Ġinfl ationen
mekanis mer
g ne
Ġh on
Ġet ape
ĠC E
ĠfÃ¸l te
alg s
Ġudtry kket
ĠV itor
Ġmenneskerettighed skrÃ¦n
Ġkapit ler
Ġtilsyn s
KO FIN
Ġerkend else
Ġforfal skning
sinstrument et
Ġskol erne
Ġopsp lit
G rund
l Ã¥
p al
v urdere
ig in
Ġk ob
Ġan f
Ġmand atet
Ġforhind res
frem kaldende
Ġsommer en
pass ende
ĠkÃ¸replan en
Ġantibio tika
ĠAustral ien
y an
Ġsk olen
Ġkan aler
ĠG on
Ġrel ationerne
Ġindvirkning en
ĠforÃ¦ld ede
Ġgyld ighed
Ġdiver se
Ġes senti
Ġfiskeres sour
s over
be viser
Ġkomp lement
ĠV ores
Ġstruktur reformer
Ġerhverv sk
Ġopstil les
her skende
Ġensid ig
Ġih jel
miljÃ¸ et
d o
d rift
Ġu Ã¦nd
Ġbes lag
Ġek sklu
Ġkr on
Ġtilb Ã¸j
Ġsundhed somrÃ¥det
stat us
Ġdisku terede
valu ering
Ġredeg j
ĠMa deira
Ġkompens ere
Ġskj ult
ĠfÃ¸devaresikkerhed en
Ġlangs omm
Ġrammeaf gÃ¸relse
Ġkonkurrenceforvrid ning
Ġud slag
Ġj ap
Ġan fÃ¸rer
Ã¦n k
ang el
Ġproblem atiske
lik ationer
gra d
ĠP res
arbejd ning
Ġindustri politik
tegra tion
Ġoverord entligt
Ġufor behold
Ġmar ok
stjen esten
bevÃ¦g elser
pon ering
ed ag
am in
Ġud sigter
ĠM ann
ĠN u
ĠdrÃ¸ m
ĠAl zheimer
Ġneder lag
Ġangiv else
Ġmillennium udviklingsmÃ¥lene
Ġmotork Ã¸retÃ¸jer
g ent
o sti
Ġt op
sk else
sm ateri
ang lades
ĠB angemann
sÃ¸ en
Ġenergi forbrug
vÃ¦ kkende
Er far
spek tiv
Ġregel mÃ¦ssig
Ġidentifi ceret
anglades h
4 8
b ureau
r Ã¸j
Ġa m
Ġb ak
Ġom sÃ¦tning
Ġover t
Ġover sÃ¦ttelse
oliti sk
op Ã¦l
Ġdirektiv forslaget
ĠJ an
Ġforen inger
Ġtur ister
Ġlo y
Ġparall elt
information ssystemet
ĠtilsÃ¦tning sstoffer
O L
p lads
Ã §
Ã ±
Ġb akke
Ġk opi
Ġop tra
Ġsam finansiering
ĠM Ã¼
ap hne
Ġvel komne
Ġudvid elser
Ġrej ses
Ġinv a
Ġeksport en
ĠophÃ¦ velsen
Ġbeskyttelses foranstaltninger
Ġenergieffektiv iteten
ĠfÃ¦n omener
Ġfilos ofi
ĠtÃ¥lmod ighed
Ã¸ f
Ġb edes
Ġaf giver
Ġl ister
ĠR ad
ĠS Ã¸
Ġmil d
ĠÃ¦ndring sbudget
ĠV enezuel
Ġimp ul
Ġtredjel andene
ĠsvÃ¦ kket
ĠrÃ¸d der
Wald ner
l age
p erioder
Ġk aster
Ġu hold
Ġsam ler
Ġselv fÃ¸lge
ĠL ul
Ġblo keret
Ġforst od
Ġegen skaber
Ġoffentlig gjorde
sig terne
Ġoverf lad
Ġenergiforsy nings
ĠLiges tilling
T S
h l
h Ã¥b
Ġtil kommer
Ġfrem herskende
ej l
Ġbi ologisk
Ġhu se
Ġluftfart en
Ġforbr yder
Ġapp ar
Ġkig ger
ĠÃ¥rhundred er
ĠtrÃ¦n ger
Ġbeskyld ninger
Ġmariti me
r igt
t re
Ġb opÃ¦l
om sten
ĠE rasmus
ĠF ord
Ġmod sÃ¦tte
alis erer
Ġun il
Ġforet rukket
Ġharmon isk
Ġomkost nings
ĠbeskÃ¦ftigelses politikken
Ġadskil t
Ġev nen
ĠmisforstÃ¥ elser
bli ote
Vir ksom
Ġhenrett elser
Ġlovover trÃ¦d
D C
i es
for stÃ¥et
ĠM edlem
ĠhÃ¸j est
ĠfÃ¦llesskab sbudgettet
van s
Ġor igin
Ud vikling
ĠindgÃ¥ ede
Ġstatsb orger
ĠuretfÃ¦rd ig
Ġadop tion
Ġskot ske
4 9
Ġf an
in erne
st yring
ĠW HO
Ġorganis ationen
Ġch ok
Ġkv Ã¦st
Ġbran che
Ġudveksl ingen
Ġv eget
is erende
Ġaf vÃ¦r
Ġvil de
ak tionen
ĠÃ¸konom is
ĠI kke
ĠP ack
Ġtilf Ã¸re
Ġstat sminister
Ġlovgivning sforslag
Ġch okol
Ġban er
leksi tet
Ġsimp le
ĠtilstedevÃ¦r elsen
Ġbur m
Ġd ik
Ġsk o
Ġforslag ets
ĠI V
res er
Ġtre part
Ġforeg Ã¥et
Ġterrit orier
Ġfamili es
ĠInter net
ĠÃ¥benly se
u mentere
ĠpÃ¥ tv
Ġst rÃ¥ling
Ġsk in
Ġlang tid
Ġudb ed
ĠforÃ¸ get
An tallet
ps is
Ġfilos of
Ġbibe holde
Ġsammenslu tninger
Ġsyner gi
Ġutilfreds hed
ĠGeneraldirektor atet
ĠstÃ¸rrelses orden
o ut
Ġt ril
sk ader
ĠS te
Ġmu slimer
Ġsag erne
Ġvel overvej
ativ et
Ã¶ l
mod el
Ġalvorlig ste
Ġtotal itÃ¦re
styr ker
Ġformuler ingen
Land et
ĠMal m
Ġfinger aftryk
2 3
g ange
Ġp lejer
Ã¥r sdagen
sp eci
isk us
ser ingen
Ġbek ve
Ġselv styre
ĠfÃ¸l elses
Ġvalg muligheder
Ġmenneskerettighed somrÃ¥det
Ġfisker im
Ġkompromis forslag
Ġbeskytt ede
krÃ¦ ft
Alt sÃ¥
vÃ¦g ten
Ġinformer es
ĠbÃ¸rne arbejde
ĠpÃ¥beg ynde
ĠAlli ancen
Ġerind rer
Ġdefiniti vt
sasp ektet
k Ã¸b
si tion
Ġman Ã¸v
us h
Ġvel beg
Ġcivil befolkningen
Ġprocedure mÃ¦ssige
ĠselvstÃ¦nd igt
spoliti kkens
Ġluftfartss elskaberne
ĠmÃ¦g ling
Ġbiom et
Bar roso
Ġcertifi cering
Ġentusia sme
an vend
Ġh ot
Ġu passende
ĠpÃ¥ vist
Ġal deles
end else
op ol
ĠT chad
Ġsikkerhed smÃ¦ssige
ĠeuropÃ¦ ernes
Ġeg o
Ġudel ad
sn Ã¸d
Ġudgangspunkt et
Ġarbejdstager es
ĠspÃ¦nd ende
ĠbesÃ¦ tt
ĠudnÃ¦vn else
Ġplur alisme
Ġforring else
Ġburm esiske
Ġvi tal
Ġud tÃ¦n
Ġunder liggende
ĠR ober
Ġfinan sminister
Ġstra ffet
Ġvan t
Ġmenneskerettighed sforkÃ¦mp
Ġtyd elighed
ĠivÃ¦rksÃ¦ ttere
Ġro ligt
Ġerstat tet
ĠfÃ¦rd sels
Ġprodukt et
ĠTurisme udvalget
Ġtidsf rist
Ġfyldest gÃ¸rende
til let
Ġunder kastet
ĠS il
ĠmiljÃ¸ spÃ¸rgsmÃ¥l
Ġsv agt
Ġsn ak
Ġbel Ã¸ber
Ġkapit alistiske
Ġforvent ningerne
Ġdetal jerne
ĠCentral asien
Ġhandicapp edes
Ġvision er
Ġkendeteg ner
ĠLan ka
Ġregels Ã¦t
c as
f j
Ġud sÃ¦tter
at us
Ġop holder
Ġregi met
Ġansvar somrÃ¥de
ĠophÃ¦ vet
ĠfÃ¦ng sels
ĠCh ile
ĠbemÃ¦rkelses vÃ¦rdigt
Ġing rediens
has tighed
ĠkÃ¸l vandet
ĠforÃ¦l det
Ġunderkast es
b ranchen
m elt
Ġa viser
Ġt abe
Ġind beret
ud ford
Ġman i
Ġand elen
yd elsen
ĠV el
set e
Ġopret holdelsen
ĠÃĺ KOFIN
Ġvej ledende
ic a
Ġ7 00
ĠvÃ¥ben eksport
Ġide ologisk
smyndighed erne
reen ing
Ġk ry
Ġbeg runde
ĠrÃ¥ varer
ĠdÃ¦ kkes
Ġvaluta er
Ġmonop oler
Ġoversk rid
sgrÃ¦n sen
Ġdrag et
F ran
P PE
b age
z io
ĠF rihed
Ġkomp leksitet
Ġund gÃ¥et
ĠW og
Ġmoder smÃ¥l
ij k
Ġforenk let
Ġkonkurrencep olitikken
3 8
d ata
Ġaf pres
ek raft
Ġbesk rev
Ġsid elÃ¸bende
Ġvold som
institution ernes
Ġkn ytter
Ġfunktion smÃ¥de
ĠbekrÃ¦ft else
Ġreager ede
Ġarran ge
Ġtibet anske
4 6
Ġn az
ĠE d
kning er
ĠM and
Ġliber alisere
lÃ¸s hed
hu se
Ġstemmeforklar inger
Ġpira t
Ġkonjunkt ur
ĠVestsa hara
b ul
r Ã©
re ev
st yret
Ġop lÃ¸sning
fÃ¸r ende
ĠN et
ĠtrÃ¦ kkes
Ar tikel
Ġfamiliel iv
ĠLeg e
i kke
Ġsk yde
ĠE M
ĠE tiop
Der til
Ġeg entligt
sf ac
Ġenkelt es
Ġindustri el
Ġforeg ribe
plan er
Ġdyb ere
Ġbevidst heden
ĠlÃ¦r ere
ĠskÃ¦r pe
Ġprivile gier
Ġformid le
Ġlangvar ig
Ġb ade
Ġover sku
jen este
Ġsammen fat
Ġeg yp
ĠUd dannelse
Ġudvalg ene
Ġforvaltning s
ĠLi ikanen
ha ver
Ġmaksim alt
f Ã¦r
Ġud gjorde
sp res
Ġved er
Ġher ved
ĠA ra
Ġsammen stÃ¸d
Ġstraff elov
Under sÃ¸g
Ġomhand let
ĠUdvikling sfond
posi tion
Ġryg gen
ĠOr ganis
result ater
indt Ã¦gter
Ġbarsels orlov
s elskaber
Ġs Ã¸rget
Ġp oster
ol ut
sk ort
Ġsp ekt
Ġproblem atik
Ġbland er
Ġvand et
Ġfryg te
ĠfÃ¦rd ige
Ġparlamentsmedlemmer nes
Nog et
Ġul Ã¸ste
ĠsnÃ¦ver t
vog ne
hail and
f it
al skab
sk ol
Ġgang s
Ġ5 2
Ġrappor tering
Ġordlyd en
k riti
v old
ed irektivet
ent et
del inger
rund ede
Ġsty kker
Ġparlamenter s
Ġsamarbejds udvalg
Ġfrig Ã¸re
Ġkonver gen
Ġtilkende give
Ġlevnedsm iddel
Ġare al
Ġbruttonationalprodukt et
Ġpriss tig
d omm
d omstol
f rist
Ġom fordeling
Ġud vej
at z
ĠK en
yd t
ĠJ er
Ġkvalitet s
Ġramme programmet
Ġeksp licit
Ġald ring
Ġkerne vÃ¥ben
Ġpresse frihed
Ġfrihandels aftale
ĠGon zÃ¡
O ff
m ulighed
Ã¥ ede
Ġtil med
Ġud spil
Ġover tale
Ġfre kvens
ly nd
ly tninger
ie b
Ġmarkeds adgang
Ġenerg isk
Ġerstat ter
ĠsvÃ¦r ere
Ġregist rere
Ġprivatli v
Ġudbyg ge
Ġanklag et
ĠudfÃ¸r ligt
ĠtÃ¦rsk el
ĠDav id
Ġh or
ra tioner
Ġover sÃ¸
Ġan se
Ġret tere
ĠI N
Ġforet og
medlem sstat
Ġufor ud
vider usland
Ġfolkes lag
Ġstu dere
Ġubeg rÃ¦nset
Ġudbet alt
ĠnÃ¸d s
Ġmig ranter
ĠP e
Ġfremtid s
Ġkontrol foranstaltninger
Ġregion ens
Ġfremm ede
ĠRe hn
ĠIn stitut
ĠSch m
Ġlegiti mt
Ġtun n
Ġforsigtig t
Ġtakne mmelighed
ĠCo hn
Ġikk est
ĠMug abe
giej ne
2 6
Ġfort sÃ¦ttes
ch et
ĠhÃ¥nd terer
Ġvand t
spoliti ks
slÃ¸s ning
Ġudviklingssam arbejdet
Ġkat ol
ĠSorte hav
E nergi
g ruppens
ĠE nd
Ġmod ig
Ġsundhed ssektoren
Ġch ar
Pro du
ĠMiddelhav slandene
Ġassoci ering
Ġsamarbejds aftale
Ġforkast es
Ġbesked en
Ġomstrukturering er
Ġafvis es
Ġombud smanden
ĠskrÃ¸b elige
opoul os
Ġg mo
ind komst
Ġsp Ã¸rg
Ġgen Ã¥b
Ġret ssystemer
yg tninge
Ġinstitution elt
Ġklar er
Ġfattig ere
Ġbr ande
ic k
Ġforfat ter
Ġfl od
ĠberÃ¸r es
ĠlÃ¥ ne
Ġsikring sordninger
ĠuretfÃ¦rd ighed
Ġradik al
Ġkir ke
ĠbÃ¸ ger
sreger ing
Ġqu o
ĠMalm strÃ¶m
i tering
p ol
Ġf la
Ġg ar
Ġform oder
Ġar rog
und t
Ġto tale
ĠH ans
Ġvidere udvikling
Ġven lige
ĠlÃ¦ ste
beg rÃ¦n
Ġplen um
Ġudf ol
Ġtids alder
ĠudnÃ¦vn t
ĠCent rale
Ġjap anske
hÃ¥b entlig
Ġ âĢ
ne z
Ġst rej
der ede
Ġop hÃ¸rer
ĠU SD
sat s
Ġ8 00
Ġstemmer et
Ind fÃ¸relsen
ĠÃ¦gte fÃ¦l
Ġtilbagehold ende
ĠvenstreflÃ¸j en
Ġelend ighed
u mping
Ġm ag
ĠK h
Ġfra tage
ĠG olf
Ġbudget myndigheden
Ġlever et
Ġhenvis ningen
Ġrent es
Ġforl ang
Ġindvandring en
Ġforsik ringer
Ġasyl politik
Ġmigration sstrÃ¸
ĠMcC art
Sand heden
M eget
Ġ Hvorfor
Ġd o
Ġn ede
Ã¸d ning
ĠP et
jen ing
ĠhÃ¥nd en
app ar
ĠUkra ines
ĠhÃ¥ndhÃ¦ ves
ĠforvÃ¦r ring
Ġpla cere
styr ke
Ġjournal ist
Ġimpor terede
Ġudsted else
Ġkernekraft vÃ¦rker
Ġudt Ã¸mmende
Ġcho kerende
Ġembal lage
d ede
Ġu fuld
Ġr ens
Ġind iske
ĠK u
ud t
Ġmedlem s
kk eligt
lÃ¦g gende
Ġforet ag
ĠO m
Ġudst yret
Ġses sionen
fa ir
ĠbÃ¸l ge
Ġkontinu itet
Ġbry st
Ġvend inger
Ġikkes p
H elt
Ã¦ sten
om kostningerne
Ġg rebet
al de
ĠR Ã¸de
Ã¦g ten
av l
Ġreg ul
Ġomfatt es
Ġdiskussion erne
Ġstatisti k
Ġsport s
Ġlo ftet
Ġnation alisme
Ġtoler ere
grÃ¦n ser
Ġsplit telse
ĠPa ul
Ġfed t
afg rÃ¸der
h abil
Ġf ange
Ġmed tager
sp erioder
net vÃ¦rk
ilitet en
Ġvej ledning
ĠKon servative
ĠCypern s
Ġkonvention elle
Ġkommerci el
Ġglobalisering ens
Ġfagforen ingerne
Ġlobby ister
sbestemm elserne
Ġforg Ã¦nger
ĠnÃ¸ds aget
7 0
Ġt one
ati sme
Ġfast lagte
Ġbid rog
Ġpunkt et
system erne
Ġindivid uel
Ġomtal es
Ġregional politikken
ĠuretfÃ¦rd igt
Ġkunst ner
Ġkvantit ative
Ġfor vand
Ġover tager
ĠK ont
Ġunder vurdere
Ġtid lige
Ġfores tiller
Ġudtry kkes
Ġbred bÃ¥nd
sstil ler
ĠfÃ¸devare hjÃ¦lp
ĠKroati ens
berettig else
Ġfac to
Ruij ten
s organisation
Ġs ond
Ã¦ ves
it at
ĠF e
ĠS h
Ġny tter
Ġsektor s
ĠFÃ¦llesskab ers
Ġfar en
rimin alitet
Ġint olerance
Ġforsin ke
ĠomstÃ¦ndighed erne
Ġfolked rab
ĠGonzÃ¡ lez
G anske
m est
m ningen
Ġfor ladt
Ġin stal
Ġvil let
Ġny este
Ġle ge
Ġc ens
ris ici
skon ference
Ġminister prÃ¦sident
Ġfrig iv
ĠbegÃ¥ s
7 1
E R
e men
Ġover fÃ¸rt
Ġgennem gÃ¥r
di ff
ven lige
Ġforhandling sb
stitu ttet
ier ark
aran tier
Ġforen elig
Ġ201 4
Ġoprind elig
Ġby omrÃ¥der
flik ten
drag else
ĠDel ors
Ġembed speriode
ĠÅ ł
M Ã¥l
S er
f red
Ġvi dens
it en
Ġan sp
ĠR w
ĠL ig
Ġaller stÃ¸rste
ken es
kl ede
Ġdy reb
slov givning
Ġformod entlig
ĠVitor ino
9 0
D el
D omstolens
L Ã¸s
Ġs ch
eg ationen
Ġkan sler
sfor sy
Ġfast holdt
spro cedurerne
Ġenergi marked
Ġtran s
Ġbekym re
ĠÃ¸jeblik kelige
Ġ5 1
Pro grammet
ĠAnd re
Ġpresse friheden
Ġsamarbejds aftalen
Ġlufthavn ene
Ġfir maer
ĠpÃ¥ber Ã¥
Ter ror
5 5
ig ation
Ġh Ã¸st
ro w
Ġgen vinde
Ġly de
Ġvidere bringe
Ġbru dt
Ġerstat nings
Ġ13 0
ĠgrÃ¸n ts
Ġdyre foder
Ġgennemsku elig
Ġafsl Ã¸ret
Ġluftt rafik
sled ere
Ġskit seret
Ġforsyningspligt ydelser
onta ine
ĠAra fat
C R
b l
h Ã¦nge
s ordningen
Ġi t
Ġind arbejde
ĠgÃ¦l den
ĠJ a
Ġbel Ã¸bet
Ġarbejdsl iv
Ġprotokol s
Ġforuren ingen
Ġskam m
sbe vÃ¦g
Ġfortid ens
ĠAng ola
ĠbedÃ¸mm else
FÃ¸l gelig
f asen
er atur
Ġv eterinÃ¦r
Ġaf rik
Ġdi ox
Den gang
Ġbeg ra
kl en
ĠH viderusland
Ġpension salder
Ġmedvir ket
Ġheri blandt
Ġfant asi
Ġavan cerede
k var
et il
Ġh ylde
le vere
for fat
Ġmod virke
Ġforh ast
Ġafslu tter
ygtig t
Ġald rende
Ġindivid uelt
Ġmedicin sk
Ġbetydnings fuldt
Ġvidereg ive
Ġtemp o
ĠÃ¸ver ste
Ġuddan ne
Ġmilep Ã¦l
f ol
Ġv rede
Ġb od
Ġop l
Ġgen for
fÃ¸r sler
ak ti
ĠA ss
ĠP H
vil la
ĠopnÃ¥ elsen
ĠvÃ¦rdi pap
ard o
ĠstÃ¦rk este
gÃ¦ng ere
bestemm elses
Ġignor eret
Reg ering
bevÃ¦g elsen
Ġdirekt Ã¸r
ĠBon ino
ĠforfÃ¸l ger
C C
u alitet
ri ve
yrk erne
ĠmÃ¸d te
Ġopd aget
ash m
Ġbarn ets
Ġretter gang
Ġskandal Ã¸st
E A
l unde
Ã¦ le
ed a
Ġfrem kal
mme forklar
For brugerne
Ġdel ing
Ġafstem ningerne
ĠFrankrig s
Ġnarkotika handel
ĠBu rund
AR E
n y
Ġa gt
an ten
Ġg n
Ġu p
st og
Ġunder ord
ĠR io
ĠA merik
dt es
form Ã¥l
Ġpar amet
ĠFor sk
Ġ5 6
Ġled elses
afhÃ¦ng ige
ĠprÃ¦sident valget
Ġregeringer nes
Ġinstrument et
Ġinvestering s
Ġenstemm ig
Ġopfat tet
pass ager
skamp agne
Ġtilbagehold enhed
Ġubest rid
C h
M ang
c ard
i ret
Ġmed bestemmelse
hver vet
Ġhver v
Ġir sk
ĠBer lusc
Ġbeteg nelser
Ġmas sivt
ĠuundgÃ¥ elige
afgift en
Ġfortol kes
Ġhypp ig
ĠSarko zy
ĠgrÃ¸nts ager
D ag
F ri
Ġb Ã¸n
Ġt ask
ru mmet
Ġbe bu
Ġmennes keligt
ĠafgÃ¸r es
Ġtopm Ã¸der
Ġtab et
Ġbas ale
betal inger
Ġafg rÃ¦n
Ġradik alt
Ġforg Ã¦ves
Ġtidsfr ister
ĠDon au
ĠEtiop ien
P S
f Ã¦ld
p erne
Ġf ing
ar te
Ġg oder
Ġan fÃ¸re
Ġan sku
Ġre habil
ud styr
Ġgen anvendelse
Ġudvikling spolitikken
Ġ5 3
kÃ¸n t
ĠBar Ã³n
Ġfamilie medlemmer
ĠMed a
ĠtiltrÃ¦ der
Ġformuler inger
flik ter
Ġtranspor teres
Ġklimaforand ringerne
Ġkoloss ale
Ġmultilater al
siniti ativer
Ġeksam ens
G O
G lob
s un
Ġm id
ag og
rÃ¥ ds
Ġkl asse
Ġlu kkes
Ġbi bliote
Ġkor res
ĠklimaÃ¦nd ring
ĠhÃ¦nd else
Ġunderskri fter
Ġgenind fÃ¸re
ĠnÃ¦g tes
fac iliteter
k anske
es pil
Ġu balan
tig dom
og rad
Ġvar sling
Ġefter forskning
ĠB angladesh
ĠM us
Ġtru ede
ĠJ arzembowski
Ġstruktur eret
ĠAl t
Ġliber al
Ġmangel en
Ġvin ter
hÃ¥nd hÃ¦
Ġfart Ã¸j
ĠtÃ¸ ven
ĠCar diff
Ġsusp en
I NI
a ids
v eksl
es p
Ġder om
Ġmed fÃ¸rte
Ġt r
at ell
ci a
Ġproblem ets
Ġstil hed
Ġfr iti
Ġsn Ã¦v
Ġforen elige
Ġhandels hind
Ġkamp agner
Ġfamil ierne
Ġforebyg gelses
Ġforvent ning
ĠfÃ¸d sel
afgifter ne
Ġtilbud t
sstyr ker
Ġkorrig ere
Ġinterim s
ĠoversÃ¸ iske
V ille
n s
Ġn arko
og le
Ġsam les
Ġefter forsk
ĠDem okrati
Ġinteres sekon
Ġhoved mÃ¥l
Ġmob ile
rett else
Ġmor det
klu s
kom sten
ĠstÃ¸rr elsen
Ġbereg ning
tek sten
Ġafb ryde
ĠÃ¥rhundred es
ss er
sti der
Ġse min
yld te
Ġgrad vise
uler ede
dem okratisk
Ġbest andene
Ġang ribe
Ġinten siv
Ġspek ulerer
Ġnabol and
Ġskyl dtes
ĠSe villa
ĠMenneskerettighed sd
Ġfremstil ler
ĠfordÃ¸mm es
ĠundersÃ¸gelses udvalg
ett elser
Ġskjul te
Result aterne
reev y
b b
and ens
Ġmed finansiering
ler fÃ¸rst
Ġpro vok
Ġforb inder
ĠC osta
Ġter r
Ġopf indelser
Ġinteg rering
Ġtilsyn smyndigheder
Ġspiller egler
Ġindk omster
Ġfundament alt
Ġbeslutningstag ere
Uden rig
Ġadministra tivt
Ġprivile gium
ĠHar bour
ĠSolidaritet sfonden
ĠLang en
Ġbortfal der
P lat
s terne
ĠÃ¸ mt
Ġefter ly
Ġbestemm elsen
Ġglob aliseret
Ġ9 2
Ġforl Ã¸bet
Ġtillad es
ĠpÃ¥vir kes
Ġflygtning est
ĠIran s
Kun ne
Ġdato en
Ġdatab ase
Ġtilt rÃ¥dte
Ġjus tit
Ġguns tig
Ġanklage myndighed
Ġstam celler
Ġf rÃ¸
Ġm agter
Ġu berettiget
and o
Ġsam stemm
ĠK as
gi et
ĠN GO
amp en
Ġbil Ã¦g
Ġsandsyn lighed
Ġkil ometer
Ġprote in
Ġomhygg elig
Ġfortro lige
fÃ¦st et
sbek istan
ĠLul ling
z en
Ġo ftest
Ġg uld
Ġind vil
il li
ĠD aphne
For hÃ¥bentlig
ult urud
ĠvedrÃ¸r te
Ġregion ers
Ġinves teret
kont or
Ġgli p
Ġlatter ligt
ĠCorbet t
Ġjurisdik tion
c s
Ġd omstolen
Ġop delt
Ġved holdende
ul der
ĠmÃ¥ den
ĠC IA
Ġfler sproget
skrift en
Ġbetal ingerne
Ġluftfart s
Ġfrig Ã¸r
Ġforkast else
Ġtilkende givet
ĠtilrettelÃ¦g gelse
Ġkollektiv t
Lissab ont
Ġoplag ring
3 7
ed b
ed ygtighed
Ġp und
ĠE SF
Ġover lader
gi ens
ĠR and
kon kurrence
Ġinter ventioner
Ġord entlige
ĠT it
Ġrol len
skil de
Ġfles t
ĠmÃ¥ned en
ĠVerdens sundhed
Ġbran chen
Ġomkostning seffek
Ġdisp oni
IF T
ĠsÃ¸nd ag
ĠAlzheimer s
ĠCentrale uropa
9 2
ar ia
Ġk Ã¦
Ġk redse
Ġmu sik
Ġsammen hÃ¦nge
ban erne
Ġbru tal
Ġgam melt
ĠtilgÃ¦ng eligt
Medlem sstater
ĠBalkan landene
ĠFl or
Ġgid sler
ĠCres po
Ġvelaf balanceret
Ġbilled et
ĠValutaf ond
W IFT
Ġfor tilfÃ¦lde
lig tige
Ġl itau
ĠI taliens
Ġforud se
Ġeksp eri
nov ation
Ġforsin kede
Ġkompli ment
Ġforan kret
Ġreguler ingen
ĠbesÃ¸ gt
undersÃ¸g elser
ĠRw anda
g u
n Ã¦vner
Ġ Hvor
Ġt Ã¥b
ist anden
ĠA ri
ĠA lex
ĠL ige
Ġoff en
Ġkonkur s
Ġ5 4
Ġbland et
ĠmÃ¦r ket
Ġdatab eskyttelses
ĠBe ograd
ĠuretfÃ¦rd ige
ĠOmbudsmand ens
ssat ser
Fin ansi
Ġbeund ring
ĠUC LAF
Ġbiomet riske
i ves
Ġl os
Ġud fÃ¦rd
Ã¥r s
Ġind lem
ab eskyttelse
Ã¸j ede
arked et
Ġkol oni
Ġskri velse
Ġbas ere
ĠspÃ¸rger en
oper at
Ġtraged ier
Ġgro v
Ġfantas tiske
Ġforhandlingsb ordet
Ġd Ã¦mp
Ġb elej
om et
Ġtil sammen
Ġl itra
ri de
ak te
del else
ĠG SP
ĠBar rot
Ġagentur erne
Ġbom be
Ġdrasti ske
Ġvet o
ĠSu u
Ġo zon
el a
it ar
Ġform Ã¥r
Ġrej sende
Ġfej re
Ġ9 6
Ġanaly sen
Ġkn ow
Ã¸mm es
Ġren ere
Hvil ket
Ġfundament alisme
Ġhjer tet
Ġkandidat lande
ĠtilstrÃ¦ ber
ĠForsvar spolitik
Ġreces sion
ĠVeste uropa
Ã¶l n
Ġ esk
el li
Ġn on
ik ken
ur t
ser es
ĠfÃ¦lles nÃ¦vner
ĠT or
Ġund re
Ġsamfund sÃ¸
Ġudtal elserne
Ġhoved parten
Ġskyld ig
Ġoffentlig gÃ¸relsen
rÃ¦nd sel
Ġudtrykk elig
bel ast
ĠfastslÃ¥ s
hr endt
Ġneoli berale
Ġd oping
Ġi ron
Ġud estÃ¥ende
Ġny skabende
di men
vi ew
Ġbeh ag
Ġc enter
Ġcent re
ĠindlÃ¦g gene
Ġinklu dere
ĠtiltrÃ¦delses forhandlinger
Ġtit us
Ġprotes terer
ĠprÃ¦st ation
Ġambassad Ã¸r
ĠnÃ¦gt ede
Plat h
V el
a ce
Ġb lan
ĠpÃ¥ tvinge
Ġgen over
ĠG AT
Ġansvar s
Ġbefolkning ers
Ġklar lÃ¦gge
ordning erne
under visning
Ġled elsen
Ġliv sstil
ĠsamhÃ¸righed en
Ġut Ã¦n
Ġforklar ede
ĠfÃ¦rdig gÃ¸re
skrav ene
Ġsplit tet
ensigt en
Ġprogn oser
Ġlatin amerikanske
Ġveder lag
ĠRand zio
b us
h ensyn
Ġp ub
st est
nes ty
ĠhÃ¸j hastighed
cep t
ot orer
Ġabs or
ĠpalÃ¦stinens ere
ost land
Ġprof il
Ġforklar inger
Ġdan net
Land brug
sful de
Ġassist ance
sforsk elle
ĠArk tis
O N
sk omitÃ©
Ġud sagn
ske p
ĠK Ã¶ln
hand lere
ĠmÃ¥l es
Ġvan vit
Ġgra du
minist rene
Ġgodkend tes
Ġmoder ate
ĠmÃ¦rkning en
Ġtilbag ek
Be hrendt
Ġformiddag s
Ġluftfartss elskab
ĠsÃ¦dvan lig
ĠkrÃ¦ft fremkaldende
Ġoversk redet
Ġulem pe
Ġimplem enter
Ġfortol ke
Ġbered skab
ĠudlÃ¦nd inge
B G
T Ã¦nk
Ġ ÃĨ
Ġg ribes
ĠpÃ¥ vis
Ġved t
sm Ã¦r
ĠF ontaine
ĠM ine
Ġplan lÃ¦gningen
sb yr
Ãĺ n
ris te
Ġverdens handelen
Ġkoordin eres
Ġang st
Ġtillad elser
Ġmenneske hedens
analy se
borger es
Ġoverensk omst
ĠAtlanter havet
ĠuÃ¸n skede
B ur
t ro
Ġf Ã¸je
ar go
Ġom t
fÃ¸r ingen
pp es
Ġinter kultur
giv ne
lad sen
Ġprodu ktive
Ġetabler ede
Ġstart et
Ġsek under
Ġimpor teret
Ġferi e
Ġsch weiz
c ÃŃa
Ġal ger
li c
ĠB ow
ĠV al
Ġned b
Ġkonkurrence vilkÃ¥r
Ġforbruger beskyttelsen
Ġarbejder ne
Ġrel ativ
Ġsuppler es
Ġkul diox
ai ro
Ġon line
Ġstabilitetsp agt
Ġrappor tere
Ġ197 0
Ġbevil ge
grÃ¦n se
Ġtilpas ningen
Ġundergra ver
Ġovert rÃ¥dt
ĠVenezuel a
Ġchokol ade
t rafikken
Ã¦ ge
Ġv eks
Ġtil lÃ¦gges
sk at
Ġhen leder
Ġlet ter
Ġmangler ne
Ġtold unionen
Ġbyr den
bo ende
ĠfÃ¸d sels
Ġkat aly
Ġguns tigt
Ġstraffes ager
Ġuansvar ligt
Ġbiom asse
Ġpu blik
Dem okrati
ĠforfÃ¸l ges
Nord isk
d rage
Ã¦ ster
an iens
Ġu vÃ¦
ĠS ing
Ġvis ump
ier ra
ĠW ales
ĠforstÃ¥ elig
Ġpunkter ne
Ved tagelsen
Ġtan kerne
ĠÃ¸del ag
Ġomh u
ĠLam y
Ġtilskynd es
ats lige
Ġudsend ing
Ġvolds handlinger
S kÃ¸nt
Ġp in
til stand
Ġn ar
Ġt vist
ĠpÃ¥ virkning
for et
Ġre vis
Ġfrem kommet
Ġdem agog
ĠM ig
Ġlande vej
ĠP NR
Ġeffek tivis
ma sk
Ġtvivl somme
Ġorganisation ers
Ġafg av
Ġmedicin al
Ġindust ril
K risen
Ġin stitut
Ġst Ã¦d
Ġop tagelsen
ind hold
val tning
ĠB yr
ĠvÃ¦r ne
Ġdi lem
Ġte orien
Ġbudget underskud
Ġplan erne
Ġkris etider
mod tager
Ġreligion er
ĠtilhÃ¸r sforhold
Ġejer skab
vest lige
K SF
s ninger
s endes
ti tet
ag elsen
Ġover lap
Ġan tage
Ġpro fi
ĠR oc
Ġhvor fra
vend te
ĠM ont
Ġres olut
mb argo
ĠÃ¸v else
alen der
Ġindvand rerne
Ġford omme
Ġfly tning
Ġhal vandet
ĠhÃ¥r dere
uni tion
Ġsport en
Ġtit el
Ġlyd hÃ¸r
Ġfabrik ker
Ġreal iteter
Ġkortsigt et
Ġkast et
Ġkonkurrencer eglerne
ĠBurund i
V Ã¦r
m u
s direktiv
an ken
Ġvigtig st
lÃ¦ st
Ġ5 8
Ġrent abilitet
ĠAn t
Ġforuren eren
Ġuniver sel
Ġtj ent
Ġdrift en
Ġz one
Ġdecentr alisering
Ġemissions handels
h t
Ġa u
an liggender
Ġv Ã¥g
Ġt olkning
var me
sst Ã¸
skab erne
Ġforordning erne
ĠvÃ¦rd igt
Ġmangel fuld
ĠrÃ¥dsformand skabet
ĠprÃ¸ vet
Ġtakne mmelige
ĠunÃ¸dvend ig
Ġekstrem isme
Ġmellemlang t
ĠGlob alisering
ĠNap ol
Ġteoret isk
m ad
an ad
st opmÃ¸det
Ġbe ford
hold ning
form Ã¥let
Ġhold bar
Ġtilbage holdt
Ġfr on
Ġmis sioner
Ġindvirkning er
Ġtor sk
ĠSa hara
sper ter
ĠfÃ¦llesskabslov givning
Ġbero lig
Ġelimin ere
S ocial
d ato
Ġi s
Ġst ring
Ġj agt
Ġind forstÃ¥et
ab uc
sion erne
Ġfort jent
our lang
Ġtran splan
Ġkons ult
ĠJ ordan
Ġinves teres
Ġsv agere
Ġsol ide
Ġhje mmes
Ġfly vninger
Ġfejl tagelser
Ġvidenskab sfolk
Ġinvolver es
In ter
ĠbemÃ¦rkelses vÃ¦rdige
Ste mmeforklar
Ġure alistisk
ĠnÃ¦stform anden
ĠbÃ¸rneporn ografi
Ġmarok kanske
ourlang es
G u
I d
b Ã¸
b ord
Ġst oler
mÃ¦r ker
trÃ¦ de
nings industrien
Ġ5 7
Ġob ser
Ġsammenlig ner
of ob
Ġspred t
Ġindik ator
Ġyng re
Ġrekru tter
mm ets
sm Ã¥
Ġfrem gÃ¥
und s
du nder
af ia
kl ass
vand ring
Ġvej r
ĠbestrÃ¦b t
Ġoper ere
sproces ser
St Ã¸r
ĠLe hne
Ġmedvir kende
ĠEuropol s
ĠhÃ¦r en
Ġinsp ekt
Ġkald te
Ġsymp tom
Ġundergra ve
ĠlÃ¸slad t
Ġinspek tioner
Ġcir k
Ġkvar tet
ĠklÃ¸ft en
Ġlik viditet
2 9
4 1
D i
Ġb us
Ġk ab
Ġvi dunder
Ġsik rere
Ġpolitik omrÃ¥der
Ġlovgivning sprocessen
Ġinformation sudveksling
Ġof renes
Ġvanskelig ste
Ġarbejdsplad serne
ĠTyskland s
sh jÃ¦lp
ĠSyd korea
smidler ne
ĠbrÃ¦nd sel
Ġus and
Ġautonom i
ĠhÃ¥n t
ĠmenneskerettighedskrÃ¦n kelser
3 6
T opmÃ¸det
p id
Ġb ask
for dele
be vidst
sf ase
ĠtiltrÃ¦d elsest
valu eringen
sh Ã¥nd
ĠlandmÃ¦nd enes
ĠmilitÃ¦r et
Ġprioritet erne
ĠspÃ¦nd t
Ġmobil isering
Ġundersk rev
smod eller
Ġtema er
ĠAz orerne
Ġbelig genhed
ig en
es ektoren
al ler
for svar
ss elskab
ĠS ierra
ĠG il
ug h
Ġforen klede
Ġid rÃ¦
Ġmet od
Ġindt Ã¦gterne
Ġmisbrug es
Ġmobilitet en
ĠikrafttrÃ¦ delse
Ġfrihandels omrÃ¥de
Ġudbud det
Ġoverskri der
aktivitet erne
Ġbetalings bevillinger
Ġbilater alt
Ġparlamentar ikere
Ã¼b ig
b ene
Ġb ri
Ġp Ã¦d
Ġtil vÃ¦relse
ag tigt
handling sprogram
Ġdi es
Ġfast fry
Ġverdens Ã¸konomien
Ġelekt risk
Ġrig este
Ġoptim al
ĠforvÃ¦r rer
ĠskÃ¸n nes
Ġfork ort
Ġopfat te
Ġkro p
ĠBÃ¶ ge
ĠskÃ¦v heder
a es
Ġfor Ã¸g
Ġop fÃ¸rer
tt o
und ne
Ġtilbage holdelse
em or
Ġfr isk
Ġstruktur en
Ġslet te
Ġskader ne
ĠhÃ¥ndhÃ¦ velsen
Ġskib sbyg
Ġdemonst ranter
Ġhykler isk
Ġteknik ker
Ġforarbejd ning
ĠÃ¸kos ystemer
Ġafvig er
ĠDi am
ĠPH ARE
I srael
b ro
Ġtil skrives
Ġu r
Ġde ponering
sÃ¸ ge
Ġtal smand
Ġlu kningen
Ġfly ttet
ĠkÃ¦mp ede
Ġgeneral direkt
Ġomhygg elige
Hver ken
Ġudbetal es
Ġinvi teret
ĠjÃ¦vn ligt
ĠDal ai
Ġknow how
3 4
N A
k olle
l is
p ut
Ġfor fÃ¸lg
Ġk op
Ġaf sagt
els behandling
Ġin f
ĠEurop e
ĠT o
Ġstyr kede
sig ende
Ġkontin enter
Ġuly kken
Ġramm en
Ġimpor tere
ĠsammensÃ¦ tningen
Ġumennes kelige
Ġvaccin ation
Ġkataly sat
7 5
or mer
Ġu klare
Ġre aliseres
Ġkon ferencer
Ġpr om
Ġlov givere
au se
sf in
Ġklar et
Ġid Ã¸mt
ĠAn kar
Ġhin andens
Ġkn Ã¦
Ġberettig er
Ġanbefal es
Ġvisum frit
ĠCo x
Ġpes sim
Ġpilot projekter
Ġmidtvej se
akh stan
Ġbenz in
Ġillo yal
G runden
in tet
re a
Ġved bli
tag ning
fi r
Ġtro jka
Ġfat te
reg ist
Ġtiltag ende
Ġopstil lede
Ġdyre forsÃ¸g
Ġsymb oler
Ġration el
Ġmal aria
Ġfiskebest andene
Ġklass iske
Ġikkest atslige
ĠÃ¸mt Ã¥l
k ommission
Ġf ode
el ter
ra ks
Ġind on
Ġind arbejd
ĠC astro
form Ã¦nd
ĠN ational
ob in
Ġvold tÃ¦gt
Ġmagt es
Ġforl Ã¸ber
ĠNord sÃ¸en
ĠdÃ¥rlig st
Ġsej ler
ĠmÃ¸n ter
Ġangiv es
Ġformid ling
Ġudsigt en
Ġfjernt liggende
I C
l Ã¦nd
m ets
r else
Ġf lam
sp redning
Ġan set
Ġkon gres
Ġvar ige
ĠV alen
ug ler
Ġstruktur el
ou se
att le
Ġdeltag erne
ĠArbej ds
Ġdann elsen
ĠRober t
Ġkorres pon
2 8
a ur
k op
Ġk urder
Ġud sti
Ġsam handel
ĠU sbekistan
ĠS WIFT
ĠprÃ¦ ven
Ġenergi former
Ġbland ing
Ġdefin erede
okra tes
byr den
01 6
Ġaften en
Ġpremierminister en
Ġrac istiske
Ġtilt rÃ¦n
Ġfu sioner
ĠGar cÃŃa
R egion
Ġd ris
Ġs org
st Ã¦der
Ġn an
Ġl abor
Ġover ladt
Ġinter ven
ĠeuropÃ¦ er
res titu
Ġopret ter
ĠÃ¥rs beretningen
Ġslag ter
Ġstats lig
Ġberettig else
ĠvilkÃ¥r lige
samfund et
Ġanbefal et
Ġbeteg net
Ġautom obil
ĠGal ici
Ġenergibes par
ĠAnn an
Ġreferen cep
Ġsuspen dere
h j
m eld
an el
Ġen sret
Ġt sun
ĠKommission s
ser ede
Ġmod igt
rÃ¸ velse
sb urg
Ġned rustning
grund en
Ġhandels partner
Ġske psis
osov o
byr de
Ġkul stof
ĠY emen
Ġtids rum
Ġoph ug
Ġprotektion istiske
Ġsamord ne
3 3
d orf
Ġs alget
for um
ĠvÃ¦ kke
Ġhel lig
semp el
Ġsv ov
Ġtransport midler
ffekt en
CO S
foruren ingen
Ġalar m
Ġtom rum
ĠMcC reevy
kv oter
Ġweb sted
Ġenergibes parelser
ĠuÃ¦nd ret
Ġfamilies ammen
ĠWog au
ĠForsk nings
elig heder
ĠB lo
ĠA ung
land brug
ĠT ra
Ġbed rift
Ã© en
Ġter min
sret tighederne
Ġ6 6
Ġdy ret
ifi cerede
Ġopd age
Ġadvar sler
ĠusÃ¦dvan lige
Ġinspi ration
sprincipp erne
ain stre
Ġforsynings sikkerhed
sem iti
Ġtjenesteydelses direktivet
F at
i bi
Ġ ydelse
Ġb ragte
Ġind be
be fordring
sp akken
end agens
ced irektivet
Ġforen ede
Ġvirksomhed sf
Ġkommun ikere
ĠBudgetudvalget s
nÃ¦st formand
ck x
ĠmÃ¦g ler
Ġkonkurrencep olitik
Ġafb Ã¸de
hi te
ĠtilstrÃ¦ be
Ġsla veri
Ġforbil lede
Ġveget abil
fÃ¦r den
b net
d ac
Å ¡
Ġp ane
st raktaten
it z
sfor handlingerne
Ġinden landske
Ġmind sker
ĠrÃ¥ ds
ĠbeskÃ¦ftig ede
Ġvid nes
Ġbeklag eligvis
Ġtjenesteg ren
ĠopfÃ¸lg ningen
ĠspÃ¸rget id
ĠMer kel
ashm ir
M on
V old
Ġ '
ig o
al an
Ġder som
si de
Ġover komm
sm Ã¸der
ak on
Ġste g
Ġkomp ati
Ġborger rettigheder
Ġdyr ke
ĠmÃ¦nd s
Ġforhand lere
ssam arbejde
Ġunderteg nede
Ġregeringskon ferencens
ĠÃ¸kos ystem
ĠRegionaludvikling sudvalget
ĠJer usalem
ĠÃ¥r enes
Ġsid dende
ĠfÃ¸l som
bet eg
Ġred ning
Ġdre vet
Ġvidere uddannelse
Ġkamp e
ĠsÃ¥r ede
Op rettelsen
Ġvent ede
Ġbilater al
Ġbemynd igelse
ĠÃ¥rtus ind
d okumenter
i ce
k h
v iden
Ġs ene
ru nder
sl eder
Ġsp ring
Ġforb ig
este mte
Ã© s
Ġenergi politikken
Ġrets hÃ¥ndhÃ¦
Ġban ken
ider ing
arbejder ne
Ġtendens en
ĠCh rist
Ġbeskat ningen
ĠVest bred
medlemsstater nes
Ġnaboskab spolitikken
Ġimpor teres
Ġinspi reret
ĠForbund sre
Ġimplemen tering
k ore
l ens
s tid
Ġg ig
Ġg rÃ¥
Ġu kor
Ġud sender
Ġj Ã¸d
Ġunder rette
ak se
ĠrÃ¥ stoffer
Ġakt uel
Ġerhverv smÃ¦ssige
ann else
Ġseks uelt
ha vere
ĠPortugal s
Ġeli te
rategi en
Euro en
sful dt
ĠvÃ¦ld ig
A m
en berg
ek sten
ad d
anden es
Ġtransport politik
Ġkrimin el
Ġhind ringerne
ĠtrovÃ¦rd igheden
Ġdechar gen
ĠBN I
retningsorden en
Ġsamstemm ende
9 4
D ens
P unkt
r este
s ningen
Ġg aden
yd ningen
Ã¸j elserne
Ġhens tiller
Ġhav miljÃ¸et
Ġbl omst
Ġkort hed
Ġkonstater ing
Ġmar gen
ĠMed ier
ĠNe pal
ĠbÃ¸rne pasning
Ġmark ere
Ġmo tiv
Ġkonsolider et
god t
ĠvÃ¥b ens
ĠfortrÃ¦ff elige
sfre mmende
Ġdisponi ble
H ensigten
h of
Ġfor fulgt
Ġh Ã¸f
Ġaf sted
ne j
Ġu lÃ¸s
ĠpÃ¥ vise
ru ter
ĠF at
ĠfÃ¸r nÃ¦vnte
Ġgrund vand
ĠrÃ¥d smÃ¸de
Ġhun ger
sted t
Ġkonflikt forebyggelse
stjen esterne
Ġrestrik tiv
ĠforlÃ¦ng es
Ġjus teringer
Ġinvi tere
Ġbench mark
Ġvidnes byrd
N Ã¦sten
t raktat
Ġt ynd
ĠE KSF
ĠR a
Ġgru somme
elses foranstaltninger
ĠN abuc
ĠSch reyer
ĠdÃ¸d vande
Ġmet oden
sted s
Ġovergang sperioden
Forslag ene
elef oner
ĠforÃ¦ld rene
9 3
K en
s alg
t av
Ġo ut
an os
Ġvi fte
Ġud fÃ¸rte
ru s
Ġmedlem met
ĠA dam
ĠfÃ¸rste prioritet
ĠO ostland
fin de
Ġtab er
Ġtab te
Ġtun esiske
Ġbegrund elser
Ġtor ske
ĠSe attle
pri v
Ġophold stilladelse
ĠSa udi
ĠtilrettelÃ¦g ge
fisker iet
Ġnedlu kning
R app
Ã ´
Ġen es
Ġr enter
Ġsam spil
Ã© ndez
Ġnatur gas
ĠrÃ¦kke fÃ¸lge
Ġsm ag
Ġovervej elserne
Pro blem
ĠprÃ¦sen terer
Ġbeslut som
Ġdemonst rere
sstruktur er
ĠlÃ¸slad else
ĠMit ch
Ġegyp tiske
Ġgenover veje
Ġdies el
S L
Ġd yrk
Ġfor rest
ens ation
ad minist
hand ler
ĠS yde
Ġgi ftige
Ġsy ne
Ġtal let
Ġ20 50
ĠnÃ¦r me
Ġfej rer
ĠLi ber
Ġlav es
Ġrelevan s
olk ede
Ġmund en
ĠforelÃ¦g gelse
Ġoptim alt
Ġbeteg nelsen
ĠKy i
Ġservi ces
Ġindf Ã¸je
spart nere
Ġrammeaf gÃ¸relsen
Ġudvis te
Gen op
materi aler
Ġforbe holdt
Ġkoncer ner
Revision sretten
Ġfrag menter
Ġbortskaff else
Ġcens ur
Ġparamet re
R ent
m isbrug
s organisationen
w s
Ġa mm
ag elser
Ġind sigelser
Ġop fÃ¸relsen
ĠR am
lÃ¦g nings
Ġselv regulering
ĠT hailand
uler ende
Ġborger en
Ġpris vÃ¦rdigt
hav ende
Ġluft forurening
Ġsolid ariske
Ġhandels partnere
Ġdyr s
sdag ens
Ġmaj s
Ġbo y
Ġnarkotik amisbrug
Ġvaret ager
forhold ene
uss en
Ġtransatlan tisk
elov givning
Ãħr sagen
Ġbloker er
Ġfortro lighed
LÃ¸s ningen
ĠSing ap
Ġa sbest
Ġaf sÃ¦tning
Ġaf vÃ¦
Ġud deleg
Ġan lagt
ĠEurop ean
Ġefter komme
Ġtilf lugt
Ġc anad
Ġterror isterne
Ġgivet vis
Ġhoved punkter
Ġinv it
Ġele ver
Ġdri ves
bef indende
ĠbeskÃ¦ftigelses strategi
Ġdra ma
ĠprÃ¦sen teres
ĠAt hen
Ġunderteg ne
Ġpartnerskabs aftale
stater nes
Ġmodtag ere
Ġond t
sbaser et
Ġfjerd edel
Ġufuld stÃ¦nd
ulturud valget
4 4
a er
f amil
t ran
Ġs j
ra t
ĠE vans
igtig e
ĠH u
ac is
Ġforbruger beskyttelses
Ġfly ttes
ĠlÃ¸n forsk
Ġren ationalisering
Ġlog iske
Ġskj uler
Ġasy mmet
Ġlivsk valiteten
Ġbelig gende
Ġkog alskab
ĠFlor enz
k vo
el Ã¸s
Ġk nu
Ġend te
yder ne
fal uss
Ġundtag elsen
Ġleder en
Ġfoder stoffer
Ġkunst nere
Ġbestand del
Ġant yder
bol lah
Ġhandelshind ringer
B er
Ã¸ mmer
Ġb atter
Ġj eres
Ġind i
Ġfrem fÃ¸rte
ret tighederne
Ġkl in
Ġsu mmer
Ġnet to
Ġperson biler
Ġfar vand
Ġsucces er
ĠkrÃ¦n ket
Ġparlam enterne
Ġanti semiti
Ġudbetal ing
problem erne
Ġansl Ã¥s
ĠJun cker
Ġchik ane
H eller
Ġs tiv
Ġh ekt
re k
Ġn omin
Ġom givelser
Ġmed ens
ĠA rabiske
Ġsikkerhed sniveau
ĠdrÃ¸ mme
uden rig
Ġinstru menterne
Ġramme betingelser
rit ori
Ġforskellig artede
Ġpap iret
Ġsc reening
Ġbiotekn ologi
ĠjordskÃ¦l vet
Afstem nings
ĠafvÃ¦r ge
ĠAnkar a
ti c
ed rift
Ġp orte
ur ity
Ġar rang
ĠS m
est us
Ġnogen lunde
ĠH al
Ġtran sn
ot ti
sigt ede
Ġhal ter
grundlag et
ssam arbejdet
Ġbesvar es
ĠMa uret
sprodu ktion
ĠvilkÃ¥r ene
Kon klu
Ġafsl Ã¸re
Ġreser ven
Ġskuff ede
ĠKar l
krav ene
Ġkoordination smetode
Ġruss erne
Ġcir kel
ĠpÃ¥stÃ¥ ede
ĠBÃ¶ sch
ĠvÃ¦rt sland
ĠNationer nes
Ġkrigsforbr ydelser
ĠfÃ¦d re
Ġmellemstats ligt
fluenz a
Ã £
Ã Ł
Ġu trÃ¦
Ġin kon
Ġhv ile
ste k
sÃ¥ nd
Ã¦n get
Ġforb inde
ĠS ant
art ner
Ġhen te
ĠV all
Ġmening slÃ¸st
led te
Ġfors yn
sag erne
Ġterror ist
Ġhoved Ã¥r
okra t
Ġstraff rihed
Ġminim ere
ĠretfÃ¦rdig gÃ¸r
Ġhavn et
Ġkost et
Reg eringen
sgrÃ¦n se
hof stad
B el
B il
a ver
b ek
f tning
p h
ar g
Ġfra vÃ¦rende
ud b
Ġret ssystemet
ĠstÃ¸tte foranstaltninger
Ġtilb unds
ĠN arkotik
Ġc at
fi kke
Ġhel lige
ĠvÃ¦k stra
stra teg
Ġbil aget
dag s
bru ge
Ġudenrig sanliggender
ĠBer Ã¨s
Ġrek ord
Ġbereg ninger
Kon sekvens
Ġon lin
Ġtredjeland es
Ġtemp eratur
result at
ĠÃ¸re mÃ¦rket
ĠHol land
Ġgevin st
Ġcigaret ter
Ġbekve mmelighed
Ġdilem ma
ĠVestbred den
Ġf er
ti mer
Ġv al
sk Ã¦den
ĠD ell
ĠK ashmir
li oner
ĠnÃ¸d situationer
Ġgenop tagelse
slin jerne
In tern
elsespro ceduren
ĠSocialdem okraterne
ĠivÃ¦rksat te
ĠOr teg
ĠCo el
Ġbelast ning
sigtig hed
Ġlandsb yer
Ġmenneskesm ugling
Ġopspar ing
Ġgeop olitiske
Ġtilbunds gÃ¥ende
b om
e fe
Ġm iddag
Ġt ons
sm id
Ġgen bo
Ġunder stÃ¸tte
ene mbargo
ĠS E
sfor anstaltningerne
ĠforstÃ¥ elige
Ġinitiativ ret
Ġ9 9
Ġoverd revet
ĠMed ina
ĠuundgÃ¥ elig
Ġkro atiske
âĢ Ŀ
Ġsammenk obling
Ġlandsb y
Ġanimal ske
Ġfiskeressour cerne
emor and
Ġfor e
Ġfor ur
an cerne
Ġk old
Ġt Ã¸j
Ġind kald
konom ien
Ġbeslutning s
Ġun fair
Ġkor rid
Ġborger skab
Ġhol landske
Ġramme aftale
fik ationen
Ġetabler er
Ġanbefal ede
ĠoverfÃ¸r slen
Ġumiddel bar
mpro grammet
Ġindstil lede
ĠoverflÃ¸d igt
spo sition
Ġdiagn osti
Ġredegj ort
Fran krig
A rab
n ar
Ġs ad
Ġtil intet
al ens
Ġom sat
Ġt Ã¸ver
Ġmind skes
Ġvel stÃ¥ende
Ġakt Ã¸rerne
Ġ8 6
Ġparti erne
Ġskib sfart
Ġmakro Ã¸konomisk
Ġreal Ã¸konomien
ĠomgÃ¥ s
Ġukl art
Ġikkesp redning
8 5
K omp
S tab
Ġmed ansvar
Ġr i
Ġan sÃ¦ttelse
sst eder
00 6
ĠF re
ĠP en
ĠsÃ¦ son
uler ingen
Ġmorg endagens
ĠBar ing
Ġforhand lede
ĠspÃ¦nd ing
Ġignor eres
Ġafskedig et
Ġpragm atiske
Ġpoin tere
Ver dens
ĠHau tal
Ġvidereudvik le
Ġhor mon
Ġsvov l
K o
v ige
Ġv els
Ã¸ sitet
Ġud rens
ger i
Ġlig get
ĠV idenskabelige
ĠmÃ¸de perioden
Ġsol gt
Ġredu cerede
Ġforval tninger
ans ler
ĠprÃ¦cis erer
Ġbetragt eligt
Ġreduktion en
Ġresul terede
Ġbeteg ner
Ġtvun gen
Ġforlig sprocedure
Ġindf Ã¸jet
Ġz u
Ġskarp t
Ġbegejst ring
inten sive
Ġreprodu ktiv
Ġkuns tige
Ġepidem i
ruk ne
Ġchar teret
ĠSyde uropa
F Ã¦lles
al iteter
kt rin
ĠT acis
ĠUd dannelses
Ġlandbrug ssektor
Ġforeg ik
Ġteknolog ien
Sam arbejdet
Ġcivil beskyttelses
ifi ceret
ĠÃ¸delÃ¦g gelser
ĠimÃ¸de kommer
elsespro cedure
sstrategi en
Ġfortolkning en
Ġprivile geret
Ġekspor terer
flik t
Ġparall el
Ġsmer t
Ġkonsekvensanaly ser
Ġskandal Ã¸se
I M
V ar
Ġb ly
Ġn itra
ĠS A
ĠbÃ¸r nes
ĠT om
Ġmarked skrÃ¦
ford ringen
Ġbeh Ã¸
Ġsvar ene
Ġmeddel er
Ġforret ninger
ĠRet ten
ĠCh ira
ĠNi elson
katastro fen
Ġskil sm
Ġrammed irektivet
komp eten
Ġvet oret
Ġillust rerer
Ġna iv
Ġhospit aler
yan mar
ĠbesÃ¦tt elses
ĠBaring dorf
N P
R A
T re
U nd
in tegration
Ġv age
ig ur
Ġh jerne
ter ckx
Ã¥r igt
Ġan tyd
Ġret ninger
ĠB rit
Ġtid spunkter
ĠT EN
rakt aterne
Ġanm eld
Ġmyndigheder nes
stat en
Ġ6 3
ĠgrÃ¦nser egion
Ġmenneskerettigheds spÃ¸rgsmÃ¥l
Ġunderskri velsen
Ġbesked ent
ĠforfÃ¦rd elig
Ġspis er
Ġsovjet iske
ĠforblÃ¸ ff
Ġafpres ning
Lissabont raktaten
4 3
I gen
s ed
ĠE ch
ak u
Ġefter lev
ĠB ank
ĠB lok
ele ver
ĠG ud
Ġkonkurren ces
Ġbi o
Ġsocial politikken
Ġbest ande
Ġafsk ed
pu y
Ġeksport restitu
ĠGu atem
ĠvÃ¥b enembargo
Ġbryst krÃ¦ft
Ġindon esiske
ĠSingap ore
4 7
T id
j ektet
z oner
ed yr
ing rad
Ġmed skyld
ol om
Ġpro klam
Ġland omrÃ¥der
Ġned sÃ¦ttes
Ġvidenskab en
Ġpassager ernes
ĠAr gent
Ġunderteg nelsen
Ġisol erede
udgifter ne
Ġkonfron teres
Ġbarbar iske
Ġgenforen ing
ĠforÃ¥rsag ede
Ġbre ve
ĠmenneskerettighedsforkÃ¦mp ere
P rincippet
c ypriotiske
Ġm ainstre
Ġefter lader
Ġdag es
For ordningen
De batten
ĠFÃ¦llesskab s
Ġfl Ã¥der
slin jer
Ġforl Ã¦nget
Ġdyb den
Ġforhind ring
Ġregist r
forsy ningen
ĠafhjÃ¦lp ning
Ġbevil ges
Ġkoloss alt
Ġudlig ning
ĠVel zen
Ġeksamens beviser
Ġubalan cer
ĠForbundsre publikken
Ġb ym
on ym
Ġsk ra
il isten
ind ing
ĠK ommissÃ¦r
ĠA ct
ele ment
Ġrets sikkerheden
Ġgent og
lin s
Ġjob skab
Ġforny ede
An vend
forb indelserne
Ġhundred er
deleg ation
Ġoverskri de
Slu ttelig
ĠByr ne
Ġf ro
Ġs lagt
Ġm i
el Ã¸se
Ġin effektive
Ġst j
ud kast
Ġfrem lagte
Ġfremtid sud
ĠhÃ¸r ingerne
Ġlej re
minist re
virkning erne
forslag sstiller
ĠSp aniens
Ġuddannelses omrÃ¥det
Ġenstemm ige
Ġadvar er
Ġkrist elige
Ġspred ningen
Ġislam isk
Ġfortolkning er
Sp Ã¸rget
Lissab on
Ġembry oner
uddann ede
principp er
Ġdiox in
Ġhunger snÃ¸d
faluss y
I rland
Ġb it
ks er
ist anske
ĠB ourlanges
Ġord re
ĠmiljÃ¸ problemer
ap it
sf asen
Ġned satte
alitet en
Sam hÃ¸righed
Ġcivil t
Ġindt jening
Ġadskil le
Ġmangel fulde
bring ende
iz bollah
Ġgenet iske
Ġreser ved
kap it
Arbej det
ĠBu iten
ĠSorte havet
ĠfÃ¦l de
ĠLukas jen
9 1
d re
Ġb usser
Ġg ud
Ġom form
un ia
ĠK alin
ĠF ab
ĠS okrates
Ġforhandling smand
Ġc ost
Ġru ter
Ġabs urde
ann o
Ġkend skabet
Ġpotenti alet
Ġforsy ne
ĠprÃ¦sen terede
ĠunÃ¸d igt
sfond ene
Ġlast bil
ĠfÃ¸der al
ĠBro ek
ĠprÃ¦sent ation
ĠFi ren
Ġg estus
ker ing
ul le
Ġformand ens
ĠF ern
ĠU g
ĠC har
stil stand
Ġfolk elige
Ġsyn tet
skri ve
br Ã¸d
ĠlykÃ¸n skninger
Ġ11 0
Ġfattigdom sbekÃ¦mpelse
sin stitutter
ĠretfÃ¦rdig gÃ¸res
Ġlegiti mer
Ġforenk les
Ġuniversitet erne
Ġbom uld
Ġomd Ã¸mme
l Ã¸bet
p rÃ¦ng
in n
om o
Ġu balance
Ġmed lov
Ġst op
ks ter
Ġny ere
ĠB an
ĠM ulder
ĠmiljÃ¸ politikken
gen es
Ġtran sporter
ĠSt re
Ġru mmet
akt en
Ġide aler
ĠGe b
slov givningen
ĠsvÃ¦ kkelse
Ġkoncep tet
mekanis me
fonden es
Ġreformpro ces
Ġhosp ital
uth ul
FO R
Ġisrael erne
oblig ationer
ĠFe ira
ĠKas akhstan
Ãĺn sker
N ye
Å Ħ
in as
Ġin tim
der es
Ġind sk
it h
sp ension
ĠK au
ale ban
Ġret tidigt
tt ens
ĠG reen
Ġgj aldt
Ġvej ret
Ġgent ages
Ġbar net
Ġkerne energi
forsk elsbehandling
Ġtraktater nes
Ġrefer erer
ĠSolidaritet sfond
Ġvelvil je
Ġattraktiv t
Ġeksempl arisk
ĠPet ers
Ġen edes
ud kastet
Ġfrem sendt
Ġbudget midler
Ġbel y
ĠÃ¦r gerligt
ĠAm nesty
beting ede
Ġkombin erede
Ġbeskat nings
Ã¨ re
Ġdiktatur er
ĠivÃ¦rksÃ¦tter Ã¥nd
Ġfir ma
Ġkyn isk
ĠMenneskerettighedsd omstol
ĠFiren ze
7 8
el dt
Ġp eget
Ġud h
kon cent
Ġbevar et
Ġharmon i
Ġflyg te
Ġforelig ge
ĠhÃ¦ der
ĠEuro dac
Ġrealitet erne
Ġisra elsk
fÃ¦l det
ĠmÃ¸n ster
Ġekspor teres
Ġfj ende
Ġstolt hed
ĠansÃ¦ttelses forhold
Ġryd de
Ġreferencer amme
Ġskattel y
akti vister
k ha
m Ã¥de
t rafik
til skud
st ran
Ġform e
ser klÃ¦ringer
hold te
ĠvÃ¦r st
im a
ĠhÃ¥nd teret
ĠbemÃ¦rkning erne
Ġfar erne
Ġafsk rÃ¦kkende
Ġmoder at
Ġvende punkt
Ġumu lige
Ġpla ceres
Ġisol ere
ansvar et
Ġcentralban ker
Ġflys elskaber
Ġpak istanske
Ġdiversifi cering
Ġkommunik ationen
Ġrehabil itering
Ġ ess
Ġh ov
Ġu ges
ĠE k
Ġto pp
Ġlang somme
Ġtilbage betaling
Ġsm uthul
Ġned lÃ¦gge
uler es
Ġforval ter
Ġdat ter
Ġinddrag elsen
Ġjord ens
Ġkapital ens
Ġnukle art
Ġlag re
Ġekstraordin Ã¦r
Ġkvar tal
imp ort
ĠLeon ardo
ĠShar on
ĠBa sker
ĠFolkere publikken
sfin ansi
k val
Ġh ierark
Ġt riste
Ġud sigterne
del en
ion er
ĠI raks
Ġli ve
Ġmang lede
sÃ¦tt elserne
Ġfem ten
Ġopbyg ges
ell ene
Ġindhold smÃ¦ssige
Ġkul min
ifik ation
Ġfrig ive
mar ks
Ġforv rid
partner skabet
ĠdrÃ¦b te
ypri oter
ĠoverflÃ¸d ig
Ġdifferenti eret
sem issioner
R etten
a ppe
Ġaf stÃ¥
eg n
Ġop klar
un get
Ġover for
ss elskaberne
Ġend en
Ġland bruger
Ġgi ft
Ġgi ven
ĠI slam
rÃ¦n se
sb esk
len es
ko ordin
Ġmenneskerettighed spolitik
Ġbru talt
cent en
Ġvand rende
Ind ustri
fond ene
ĠkÃ¸b ekraft
Ġvacc iner
Ġudvis es
Sidst nÃ¦vnte
Ġparadoks alt
sbaser ede
Medlemsstater nes
K ampen
Ã ª
Ġop givet
ĠK ulturudvalget
ĠR Ã¼big
ĠV ar
ĠFor retningsordenen
ĠsÃ¦ de
Ġenergi forbruget
Ġben Ã¦gte
Ġbevar ing
Ġstilling tagen
Ġratifi ceres
Ġpotenti el
Ġfiskeris ektor
ĠWall is
Ġjernbanen et
Ġfla ske
f Ã¦ste
m Ã¸der
u sion
Ġaf holdelsen
ĠE TA
Ġre aktorer
ang Ã¥ende
ĠstÃ¸tte ordninger
ĠP rag
Ġyder mere
somrÃ¥ derne
br ydelse
ĠÃ¦r en
Ġkoordin erede
Ġregioner nes
po tentiale
FÃ¸r ste
Ġtilst ande
Ġpost tjenester
ĠhÃ¥ndgrib elige
Ġklo ge
8 9
k riminalitet
t Ã¦
v igtig
in is
sk an
ĠK or
ĠM e
sÃ¦ det
Ġhand les
Ġuden landsk
Ġgra vide
ĠW hite
Ġsyn ligt
ris er
Ġeksemp let
ir ker
Ġ9 3
ĠKar as
Ġindenrig sminister
Ġdeltag elsen
Ġreformpro cessen
Ġikk ed
ĠkÃ¸r t
Ġautor itÃ¦re
ĠPh are
Ġark tiske
Ġgn id
E uropÃ¦iske
k Ã¦den
Ġ tig
for delingen
Ġan sÃ¦tte
av lere
svar et
ĠgÃ¥r sdagens
ĠforsÃ¸ mmelser
Ġlever es
Ġbaser er
Ġarbejdsl ivet
Ġum Ã¥d
Ġro ser
olu tionen
Ġbesvar er
Ġfrygt elig
ĠMc Ken
Ġekstraordin Ã¦rt
sammen hÃ¦ng
Ġcentralban k
ĠuundvÃ¦r lig
Ġmedarbejder ne
ili pp
ĠDes uden
ĠBerlusc oni
hofstad t
ĠGeb hardt
r ele
t elser
el on
Ġk ak
Ġned ad
endt lige
ĠtÃ¦n kelige
sra pp
ĠsÃ¸ ges
Ġ6 8
Ġtvivl somt
sn ed
Ġmagt fulde
Ġtra vl
Ġvid est
ĠfÃ¸devare priser
Ġgennemsnit tet
sre vision
Ġorien tere
Ġsammenslu tning
Ġref lek
Ġfordob let
ĠOb ama
Ġkuns tigt
ĠpÃ¥tÃ¦n ker
ĠÃ¸r kend
Ġbebu det
Ġalger iske
shÃ¥nd tering
Ġporte fÃ¸l
Ġs Ã¸n
Ġaf gang
Ġt Ã¥
ind en
Ġefter fulgt
Ġbudget mÃ¦ssig
ĠAl m
ĠprÃ¦cis eres
ĠprÃ¦cis eret
Ġfryg ten
ski b
Ġretsstat s
Ġrum fart
ĠTur k
ĠDo y
sper t
Ġudsend te
mission erne
Ġundsk ylder
opoul ou
ĠAtlanter hav
Ġtilfredsstil le
hje mme
Ã¦ erne
Ġg ul
Ġop fÃ¸relse
ur isme
Ġan al
ĠÃ¸ ve
tag ne
Ġarbejd smetoder
fund et
ĠV igo
ĠW ynn
Ġkor ru
yp e
Ġtradition el
Ġligestilling en
Ġgenet ab
Ġlag ring
ĠLam a
Ġuheld ig
Ġga derne
Ġsepar ate
Ġbiotekn ologiske
pid la
Ġh inder
Ġl Ã¸r
for stÃ¥
Ġind tog
Ġpoliti samarbejde
val gt
ves prÃ¦ng
Ġplan et
our t
Ġlandbrug sudgifterne
Ġstemme af
Ġresultat tav
Ġtransport omrÃ¥det
Ġvirksomhed s
Ġinitiativer ne
Ġoper ative
Ġpas sivt
Ġarbejdskraft ens
Ġerkend es
Ġgro ve
Ġekstrem ister
)) ;
Ġaggres sive
Ġakadem iske
ĠGalici en
ĠKalin ingrad
f ag
i el
sk l
Ġsam ordningen
Ġbes ynder
Ġ- .
ĠB ay
us a
ĠÃ¸nsk elig
ob les
Ġkris ens
ĠO slo
Ġimp li
Ġudb ydere
Ġlev edygtighed
Ġkarakter iseret
Ġpol sk
Ġvare mÃ¦rke
sstyr ken
Ġsyge p
ĠindskrÃ¦n ke
Ġkir ker
Ġdeltag ende
Ġdrivkraft en
ĠJac ks
Ġproblemstilling er
Ġudsp ringer
hist orie
Ġfav or
Ġmani f
B Ã¸r
F ort
d Ã¦
k andid
u de
Ġb lÃ¦
Ġu stra
ĠpÃ¥ mind
ler s
ĠD ay
sat sen
Ġkl yn
For fat
ĠmiljÃ¸ beskyttelsen
Ġtran smission
Ġeuro zonen
Ġsyn lighed
produ cerende
Ġag ere
Ġindfl ydelses
ĠÃ¸delÃ¦g ges
Ġdu mp
Ġbeteg nelse
ĠHer man
ĠbesÃ¸ ger
Ġtilbagevend ende
arbejdslÃ¸s hed
S MV
T aler
am bi
sm iddel
Ġpro vo
red uktion
ĠM Ã¥
Ġsid det
Ġproblem atikken
Ġarbejd sstyrke
Ġarbejd smiljÃ¸
Ġdes angÃ¥ende
Ġsundhed stjenester
Ġ10 3
Ġ6 2
Ġkap aciteten
ann i
Ġkapit alen
Ġrevision serklÃ¦ring
ĠkrÃ¦n ke
Ġfjern elsen
IT ES
Ġmodern iseringen
Ġfortal ere
Ġkritiser es
ĠdrÃ¦ ber
Union ens
hov et
spris erne
Ġoliven olie
ĠMenneskerettigheds rÃ¥det
Ġkonfront ation
Ġfing re
a je
b iens
k aukasus
s elskab
Ã¸r sel
sk is
Ġkon d
ĠS pÃ¸rgsmÃ¥l
Ġvirksomhed ens
Ġmarkeds fÃ¸res
char ge
Ġgennemsku elige
Ġnation alistiske
Ġindf Ã¸dte
Ġfremstilling en
Ġment ale
Ġbiob rÃ¦ndsel
ĠbemÃ¦rkelses vÃ¦rdig
Ġkontroversi elt
ĠAb kha
TE R
Ġgebyr er
Ġkomplement aritet
ĠlovovertrÃ¦d elser
ĠArgent ina
0 9
R umÃ¦n
f em
j us
u ay
Ġf yr
Ġm afia
Ã¸ mmet
re y
eg al
Ġde j
ind holdet
ĠK ors
av ier
Ġnu tidens
For bruger
ĠprÃ¦ ger
Ġvirkelig gÃ¸re
over fÃ¸rsel
Ġenkelt stÃ¥ende
Ġbyg ningen
Ġfolke mord
Ġoverd rage
ĠoversvÃ¸mm elserne
Ġprofession el
Ġpsyk iske
Ġkvalit ative
Ġumennes kelig
Ġomdan ne
ĠmiljÃ¸l ovgivning
ĠBet Ã¦nkningen
ĠDim as
bestemmelses ret
ĠGAT T
Ġkatalysat or
ĠutrÃ¦ tt
I det
Ã ī
Ġd ommen
Ġf lugt
in ation
el la
Ġp lu
Ġg reb
Ġr Ã¸de
Ġind ser
ĠÃ¸ erne
Ġmod sÃ¦tninger
rÃ¸ st
Ġfru stration
Ġbudget forslaget
ĠH ab
Ġsagt ens
Ġsv Ã¸be
ĠVi r
Ġhandels forbindelser
Ġ9 8
sud vikling
Ġang riber
Ġstatisti kkerne
ĠforstÃ¦r ker
Ġfond ene
ĠTransport udvalget
Ġdomin eret
Ġjus tering
ĠTh om
hÃ¸j este
retningsorden ens
ĠMauret anien
h Ã¸re
Ã ł
Ġs yr
Ġb itter
Ġvi t
Ġn atten
sk ridt
nes s
Ġinter mod
ĠT aleban
Ġfinan sministrene
ĠH izbollah
Ġskat ten
br alt
Ġkn yttes
Ġdeleg erede
union ens
ta ire
prÃ¦sent anter
ĠtilsidesÃ¦ tte
Ġoverensk omster
Ġligegyld igt
Ġrisikov il
saf gÃ¸relser
Ġkines erne
Ġrentes at
Ġlitau iske
ugh es
Ġvegetabil ske
G A
k und
l au
Ġs nes
Ġaf lÃ¸n
Ġt rak
ov en
ĠB il
ĠB orger
ĠM ou
ĠG rad
Ġbef andt
Ġopfatt elsen
Ġforen es
besk atning
Ġsprog lig
Ġlev ede
Ġafspej let
Ġdan sk
Ġfundament et
Ġhy giejne
Ġkontra h
Ġprioritering erne
Ġparlaments valg
Ġansvars fÃ¸lelse
is enberg
til syn
te in
ra h
Ġbes lÃ¦g
Ġbet egne
Ġret tidig
Ġefter try
ĠB ud
ĠÃ¸nsk es
Ġbudget myndighed
Ġmening sforskelle
sf r
ĠO l
Ġdok umenterne
Ġarbejdsmarked s
Ġflygtning es
Ġenergik ilde
Ġinteress ere
ĠtillÃ¦g s
ĠLam falussy
Ġajour fÃ¸re
ĠBon n
Ġmisly kkes
Ġryst ende
Ġgenopli ve
? "
R Ã¥d
T ransport
Ġsk ille
Ġr Ã¸g
ĠK ofi
tt a
ss yn
ss ats
Ġver ds
ap olitik
Ġlovgivning sprocedure
Ġtvivl som
ĠÃ¥ben lys
krig en
ĠSoci alistiske
Ġ13 7
ĠtilgÃ¦ng elighed
Ġsammens at
erson ale
Ġservi cedirektivet
Ġhed ge
tjen esterne
Ġdig ital
Ġproduktiv iteten
Ġhypp igt
flu gt
region erne
ĠÃ ĸ
ĠProgres sive
Yder ligere
Befolkning en
Ġingrediens er
ĠMand elson
Ã£ o
K ultur
S en
h el
y sten
Ġs Ã¥ret
Ġn ark
Ġind sÃ¦tte
Ġkon stitutionelle
Ġfrem byder
Ġland smÃ¦nd
Ġbeslu ttes
Ġ3 50
sf lag
ĠtÃ¦n kte
Ġ6 7
Ġsty ringen
Ġru te
Ġhandle kraft
Ġpension sordninger
Ġforuren et
ĠSyd Ã¸st
Ġtus ind
rej se
Ġopd rÃ¦
politi kkens
oper ationer
Ġmedier nes
ĠStockhol mprogrammet
Ġmultilater alt
Ġuddan net
Ġlicens er
Ġhum anis
Ġukend t
Ġlos se
ĠOostland er
Arab ien
K ar
T eksten
Ġd ren
Ġm alt
re formen
Ġu vurder
Ġn ydt
Ġin put
ĠA nder
land es
ĠL udford
ĠC i
res p
ĠfÃ¦llesskab sniveau
Ġforud set
Ġ7 8
Ġdyr enes
Ġeksp on
Ġtan k
Ġvok sen
Ġasyl system
oss et
Ġillu sion
Ġuddy b
Ġflo tte
Ġforstyr relser
kriter ier
Ġcho keret
Ġstud ier
Ġselvmod sigende
Ġpub lic
ĠGuatem ala
u tiske
Ġfor sÃ¦t
el ag
Ġp ande
ver et
sk ansler
Ġlov ene
Ġkonkur rerer
Et hvert
Ġkommun er
ĠudÃ¸ vet
ÃĨ rede
Ġstatisti sk
ĠtiltrÃ¦delses landene
Ġimpor terer
rÃ¶ der
ĠHau g
R is
g am
m oral
til lede
Ġu hÃ¦
Ġop stilling
Ġover stÃ¥et
Ġbet viv
end elses
Ġhvor under
Ġgrund vandet
ĠsÃ¦r behandling
Ġfru st
prÃ¦ ferencer
ĠÃĺ PA
ĠfÃ¦llesskab smetoden
Ġru st
Ġge org
Ġdyb este
Ġratifi cerer
ĠLe one
ĠfÃ¸devare produktion
Ġmakro finansi
Ġkonkurrencer egler
Ġavan ceret
reprÃ¦sent anter
Ġpan ik
Ġneutr alitet
leverand Ã¸rer
p end
Ġd um
Ġk red
on es
Ġl itter
Ġsk Ã¥ret
Ġop giver
Ġlang som
ap er
Ġrol ler
Ġbl Ã¸d
Ġstig ninger
po sten
he ad
ĠParlament s
Ġtilst rÃ¸
Ġuh ind
01 5
Ġinteress eg
Ġproducenter nes
Ġfrig ivet
ĠtÃ¸ ve
sper spektiv
beslu tningen
Ġoverdrag et
Ġetik et
ĠskibsvÃ¦r fter
Ġskep tisk
stab ile
ĠTAC IS
bene fit
Ã ²
Ġm eld
Ġaf holdelse
eg ra
eg nede
ĠE rit
ind elsen
eller ne
Ġinter parlament
ele menter
gang ne
Ġc ommun
fra vig
sn ormer
Ġinnov ativ
jek terne
ĠlÃ¸n ningerne
St Ã¸tte
ĠZ e
best anden
Ġkritiser ede
Ġillu sioner
ĠBus iness
Ġdirekt Ã¸ren
Ġmejer i
Ġenergiforsynings sikkerhed
Ġvelovervej et
ĠOrganis ationen
ĠUddannelses udvalget
3 2
f aktor
Ġs avn
Ġb Ã¸de
sk risen
Ġop gra
Ġkl ausuler
aft alens
Ġfr agt
Ġramme aftalen
Ġ8 8
Ġoffentlig gÃ¸r
Ġbetal te
Ġvid ende
Ġarg umentere
ou is
Ġregist reres
Ġoprindelses landet
Ġvaret ages
Ġroma ernes
ĠTil syn
Ġafvik le
Ġopbevar ing
Ġfamiliesammen fÃ¸ring
K lima
et n
Ġu stabile
Ġu fravig
Ġind beretning
il d
mm eligt
Ġbe bud
af gÃ¸relser
ĠmiljÃ¸ beskyttelses
amp ed
Ġspeci el
Ġstruktur fondenes
ĠreprÃ¦sent ative
Ġforl is
Ġfattigdom sgrÃ¦nsen
Ġpension ssystemer
Ġeksper terne
Ġide er
Ġbetalings bevillingerne
Ġprogres sive
Ġgradu ering
Ġf igur
de batten
Ġud skud
ge byr
ĠS and
und dragelse
idlertid ige
ĠmiljÃ¸ standarder
Ġsystem erne
lin ton
Ġforebyg gelsen
Ġbar ske
olu tioner
ĠÃ¸delÃ¦g gelsen
Ġafklar es
Ġhas tigheder
Ġz oner
Ġtac k
Ġinvest orerne
Ġudbyg ning
Ġuforhold smÃ¦ssig
Ġinva sion
ĠLig a
Ġusand syn
ĠBasker landet
r Ã¸d
Ã¸ steuropa
st jek
Ġn er
Ġom verdenen
Det s
ĠD Ã¼
Ġfrem stÃ¥
Ġfrem stÃ¥r
ĠF ig
ĠM uligheder
Ġforsk rift
Ġsy nd
Ġlandbrug sb
skri ver
Ġgruppe formÃ¦nd
Ġinformation en
br ydende
Ġkamp agnen
Ġfinansiering s
Ġharmon iseres
Ġyd ede
ĠSam arbejds
ĠeuroomrÃ¥det s
Ġbom b
Ġskub be
Ġuansvar lige
Ġbestyr elsen
Ġafk obling
Ġukontrol leret
Ġgar ant
D S
P lan
T raktaten
Ġ els
Ġm isk
Ġb rak
Ġt yn
Ġbes par
ĠK laus
Ġfrem drift
tere ot
fÃ¸l gende
Ġforpligt ende
Ġhandels praksis
sigt et
Ġflyg ter
In iti
che z
Ġmar ine
Ġsyd Ã¸stlige
Ġkontin uer
Ġgenopbyg nings
Ġanalyser er
Ġmodifi ceret
Ġmilj Ã¸r
result aterne
Ġkonfron teret
ĠGra efe
Ġvalgob servat
Ġspir it
ĠSÃ¸ fart
L ang
en heder
Ġs Ã¦re
ter ritori
Ġu bes
Ġgen frem
ĠF ar
ĠS o
Ġhand lem
trÃ¦ k
ass ager
Ġred nings
Ġned sk
Ã¸s ter
ĠbÃ¸rn enes
ĠudgÃ¸r es
Ġ7 7
Ġkal det
ĠZ a
Ġregist rerede
Ġskel nen
Ġflo t
ĠAtlan ten
Ġepis oder
Ġdrivhusga semissioner
Ġhon ning
ĠsnÃ¦v re
Ġindbe fat
Ã´ te
ĠMitch ell
b Ã¸l
u al
ĠD ur
ret ter
ĠM ark
ĠI MO
Ġra bat
Ġskul let
em Ã¦ssige
Ġforud ser
sra mmen
reg len
Ġford re
niveau er
Ġskam me
ĠikrafttrÃ¦ delsen
Ġlan ceret
Ġfiskebest ande
Ġvol ont
Ġuend elige
Ġrepres sive
Ġkod ifi
7 7
E st
F re
d els
m as
er klÃ¦ring
Ġd r
Ġv Ã¦n
Ġind bringe
Ġop sat
Ġfra taget
ok ken
Ã¸d es
Der ved
lighed erne
ĠL anno
Ġber or
Ġarbejdsmarked er
Ġbred er
Ġut Ã¥l
Ġkompetence omrÃ¥der
Ġforan k
ĠBal i
son s
Ġneder landsk
Ġundertry kkende
ĠRom puy
Ġsti ft
Ġdiver sitet
deleg ationen
Ġimmig ranter
stillad elser
ĠTjen este
Ġplante beskyttelses
ĠKen ya
Ġomt rent
lau de
3 1
B ag
m ulighederne
t vist
Ä ĥ
st rakt
Ġfort vivl
nu mmer
Ġver it
Ġbudget procedure
Ġpo sten
Ġstat sku
En ten
Ġbil ligt
Ġrets hjÃ¦lp
Ġarbejds grupper
Ġkraft vÃ¦rker
Ġir ri
Ġinten st
Ġfunktion sd
Ġopmunt rer
ĠforstÃ¦r kes
ĠUdenrig s
Ġmotor cy
ĠRoth ley
Ġprogres siv
Ġimplementer ingen
Ġmainstre aming
Ġ edb
in stitutter
an z
it Ã¦rt
Ġover s
ff erne
ĠF ilipp
av al
av igation
ass o
Ġlandbrug spolitiks
ĠrÃ¥d giver
Ġorganis ering
Ġhoved stÃ¦der
Ġ9 1
Ġbal an
Ġsub stans
Ġtydelig gÃ¸re
ka teg
Ġbeklag elige
ĠCol lins
Ġinsister et
ĠFisch er
Ġbjerg omrÃ¥der
ĠGi bralt
Ġligegyld ighed
Ġunil ater
Ġfrigiv else
Ġnedb ryde
. Â«
Ġaf vent
ne y
Ġsig ende
Ġpro aktiv
ok se
Ġpo lem
ektor er
Ġlu ks
ĠfÃ¦llesskab spolitikker
ĠforstÃ¥ elsen
smedlem merne
Ġliber aliseret
effektiv itet
Ġunderskud det
Ġteg ne
Ġretsfor fÃ¸lge
ĠgeneralsekretÃ¦r en
Ġembargo en
ĠFrihed srettigheder
Ġflersproget hed
Ġcanad iske
ĠOrteg a
0 20
u zz
Ġ org
ti klen
Ġg al
Ġbe virker
Ġfrem lÃ¦ggelse
Ġsik ringen
ĠN ationale
vil lige
Ġtro et
Ġsundhed ssystemer
ĠfÃ¸lge virkninger
Ġforud sige
Ġpris vÃ¦rdige
Ġru t
ĠBar ros
Ġskatte mÃ¦ssig
Ġkatastro fal
pris ninger
Ġpat ri
Ġanti terror
bring elsen
ĠSer biens
Ġungar sk
Ġskel nes
Ġtraged ien
Ġerhvervs aktive
ĠoverflÃ¸d ige
Ġmask in
skont rakter
udn yttelse
Ġskift ende
ĠGlobalisering sfonden
7 6
i u
Ġs alt
in vesteringer
Ġk u
til les
Ġt urde
ĠpÃ¥ tog
Ġud ledningen
Ġop fÃ¸res
tiv itet
ĠR u
ĠM idlertidige
Ġgi vne
Ã¦ng st
ĠstÃ¸tte berettigede
ĠhÃ¸j ne
ÂłÂł Ġ
Ġkontrol system
Ġfe mt
ontrol len
ĠstrÃ¦ kker
Ġlid et
Ġpap irer
Ġneut ral
Ġulighed erne
Ġembry on
Hand ling
Ġkompon enter
Ġtem atiske
ĠÅł pidla
ĠDay ton
K K
j ord
el agt
on du
Ġt h
Ġst Ã¸dt
Ġsk Ã¦
Ġland mand
ĠT raktaten
Ġlig elig
Ġfast lÃ¥
rund lag
fer ien
Ġkonflik terne
Ġerfar ingen
Ġforsik ret
sig er
ĠSyd Ã¸steuropa
Ġintegrer ende
Ġpatienter nes
Ġry ge
forbud det
Ġkoloss al
ĠASE M
Ġryst et
ĠskÃ¦nd sel
ĠHautal a
ĠChira c
ĠGrad in
ĠSydÃ¸st asien
d omstolen
Ġaf ly
ĠK rig
Ġsp ro
Ġret sorden
Ġland omrÃ¥derne
sfor handlinger
Ġmellem rum
ĠC orn
stru menterne
Ġfuld fÃ¸re
Ġkort var
Ġviden baserede
Ġfiskeri aftalen
ĠprÃ¦sident valg
Ġuddannelses programmer
Ġsocialdem okraterne
Ġunderskri ver
Ġuform elt
agentur et
Ġtilbaget agelses
ĠsÃ¦rskil te
ĠformÃ¦nd ene
ĠHel ms
Ġukend te
ĠBow is
ĠCoel ho
c id
d der
el i
es teret
le ar
ro ed
Ġom lÃ¸b
Ġmed reg
Ġinter view
For uden
ĠL amped
jen der
ven lig
Ġbeting elses
Ġben mel
Ġ7 6
Ġprotokol ler
Ġaffald shÃ¥ndtering
Ġgavn ligt
Ġopmunt ring
Ġga sforsy
Ġperif ere
Ġentyd ig
Ġlandbrugsprodu ktion
sklausul en
rÃ¦b elser
agh reb
ĠVerdenssundhed sorganisationen
ĠutÃ¦n keligt
Ġhekt ar
Anvend elsen
B udgettet
I vo
O fte
T ag
Ã¸ velse
Ġk am
Ġud levere
Ġind set
Ġkon serv
vis ningen
ĠL ar
ister nes
brug ere
Ã¸rer nes
Ġhandling sprogrammet
vÃ¦rd ighed
Ġforen eligt
Ġskatte omrÃ¥det
ĠhÃ¦ mmer
Ġgavn lige
Ġkul m
Ġmisbrug t
Ġautom atiske
Ġtilkn yttet
hu ber
Ġbegejst ret
lex ic
Ġtildel te
ofob i
ĠMcKen na
u sk
Ġs lem
ar ven
le jen
Ġaf vej
Ġg ran
Ġom end
id n
ve z
ling s
Ġunder ligt
men istan
ast riben
ĠT ri
Ġbudget terne
Ġc ypriotiske
ĠH ow
Ġenergi en
Ġgener ationerne
ban e
ĠJ am
ĠJ avier
Ġfl ydende
Ġarbejdsplad s
Ġoprett ede
vÃ¦rdi en
Ġkateg orisk
Ġdatab aser
Ġafgifter ne
Ġindvik let
Ġkrisesituation er
ĠulÃ¸s eligt
Problem erne
Ġanal f
H ist
m ati
t opmÃ¸de
v elser
Ġs lÃ¦g
in former
in burg
Ġu set
Ġt rit
Ġud visning
ik ring
Ġar ten
ĠC linton
alis mens
Ġc eller
ob let
med icin
reg el
Ġbest od
rak tive
Ġilleg alt
ĠadfÃ¦rdskodeks en
hr kop
ĠPol ens
ĠopkrÃ¦ ve
Ġatmosf Ã¦ren
Ġfejlag tigt
Ġvedlige holdelse
sforb indelser
m ende
o j
on ede
ĠI z
ĠÃ¸nsk vÃ¦rdigt
ister ende
af ran
Ġborg mester
ĠprÃ¦ g
Ġstruktur politikken
Ã¸devar e
Ġmis forhold
Ġfal lit
aff e
Ġfunger ede
Ġrel an
ĠbeskÃ¦ftigelses muligheder
St ruktur
Ġaktion Ã¦r
ĠefterfÃ¸l ger
Ġopd rag
Ġdobbelt moral
Ġoven stÃ¥ende
Ġmark ante
Ġanalyser et
Ġfolkeafstem ningerne
ĠpÃ¥skÃ¸n ner
Ġafsky elige
Ġnett ob
Ġuk rÃ¦n
sbeslu tning
Ġbegunstig ede
Ġtravl t
Ġudskud t
E D
S undhed
m net
Ġf lu
Ġfor gangne
Ġh i
Ġu udn
Ġud p
at h
il let
For ud
Ġte am
lad else
Ġbeh er
Ġmis bruger
Ġslu ttede
par te
Ġbudgettet s
Ġmindretal lenes
ĠdÃ¦ k
Ġbo sÃ¦ttelser
Ġbegrund ede
udvikling en
eskÃ¦ftig elses
ĠFÃ¸r ste
Ġbund s
Ġekstern t
ĠanstÃ¦nd ige
asp ekter
ĠÃ¦ld ste
Sol idaritet
ĠUg anda
J un
a ste
Ġ Ã¦ngst
Ġh ylder
Ġaf stande
ra mm
Ġud slip
for br
Ġan sÃ¸ge
Ã¥l ende
ad vok
Ġarbejd sprogrammet
lo s
Ġaller hÃ¸jeste
Ġperson lighed
Ġoplys nings
Ġkonklu derede
plan lÃ¦gning
Ġski bet
qu ier
ĠhÃ¥b ede
Ġinformer ede
Ġlid else
Ġbetaling sb
Ġtekstil er
Ġengager er
Ġul t
mission en
Ġatt raktive
Ġuforen elige
Ag entur
sset Ãª
ĠKir gis
Ġindi vider
B C
D agens
G rÃ¦kenland
W TO
t ene
Ġp Ã¦
de bat
for anstaltning
od ens
Ġgen vinding
ĠS terckx
ĠM aghreb
Ġfast lagde
au taire
Ġlandbrug sbudgettet
Ġopret holdt
Ġhel b
Ġlet telse
mÃ¥l sÃ¦tningerne
all as
ĠfordÃ¸ mte
ĠbesÃ¦ tning
ĠTh y
Ã¤ n
Ġudbetal inger
ĠEl les
spris er
ĠMiddelhavs unionen
Ġtryg hed
liber alisering
ĠValen cia
Ġess ensen
d age
k ab
s yg
v Ã¥
sk v
Ġmen es
sp rÃ¸j
old en
00 5
00 8
ĠU afhÃ¦ngige
Ġsik rede
Ġpoliti ets
gra m
ĠL in
ĠmiljÃ¸ katastro
Ġfremskridt et
ĠW est
ĠtÃ¦n kes
Ġ6 4
ĠbevÃ¦g et
ator isk
ĠKonger iget
beret ninger
Ġforan ledning
Ġmangfold igheden
ĠSver iges
ay sia
Ġ198 8
Ġrig ere
ĠMin sk
Ġpu ste
Ġklassifi cering
Ġreprodu ktive
Ġblik ket
Ġblind g
Ġvelbeg rundet
Ġtrans aktion
ĠBorger lige
4 2
F ler
F iskeri
M ellem
j Ã¶
Ġs lÃ¦
Ġu vis
Ġud fÃ¸relsen
ur id
Ġover bringe
Ġmod vilje
Ġlig eligt
Ġle k
ĠN ogle
Ġstand ses
Ġspil dt
Ġ5 9
ĠfÃ¦llesskab smidler
Ġsystem ets
Ġorganis erer
Ġluft rummet
Ġfrihed s
Ġak utte
Ġgavn lig
Ġuh yr
Ġkommunikation s
Ġselskab ers
ĠAt om
Ġpas sive
Ġsymbol ske
Ġlufthavn en
grÃ¦n serne
Ġfinansfor ordning
Ġoverdre vent
ĠÃ¦ ra
Ġrisikov urdering
Ġunionsb orger
ĠmÃ¸r ke
Ġkorru pte
Ġeftertry kkeligt
) ;
B estemm
Ġv akt
Ġh yp
om fattende
Ġaf deling
Ġvi tale
Ġsk yg
for retningsordenens
Ġan kommer
Ġan ty
ger er
sm ed
kt or
yd elige
Ġvar sel
Ġfort sÃ¦ttelsen
Ġned sÃ¦ttelsen
Ġafslu ttede
Al lerfÃ¸rst
Ġskat terne
Ġor kan
Ġvid st
bestemm elsen
Ġstrid igheder
Ġtrafik sikkerhed
ĠCentralban ken
Ġfrihandels aftaler
ĠGaz astriben
Ġdemonst reret
Ġarbejdstid sdirektivet
Ġafvik les
dition alitet
Ġsvigt et
ĠGro ssetÃª
Bur ton
ĠDoy le
Ġcommun autaire
ĠDÃ¼ hrkop
Ġanty det
B ekÃ¦mpelse
D irektiv
o un
t h
Ġf jender
Ġh Ã¦ng
ro es
Ġfrem fÃ¸rer
Ġand ragende
Ġland skab
Ġstor stil
oci erings
Ġarbejd sstyrken
Ġste mmerne
ĠsÃ¦r prÃ¦
ob el
Ġinstitution s
led ningerne
stil syn
Ġ6 1
Ġelekt riske
serv ation
Ġide elle
ĠhÃ¦v des
Ġimplem entere
ĠSikkerhedsrÃ¥det s
Ġgrusom heder
ĠovertrÃ¦delsespro cedurer
Ġspekt rum
ĠRoc ard
Id Ã©en
Ġbekvemmelighed sflag
ĠpÃ¥mind else
ĠAbkha sien
ĠErit rea
inburg h
en teret
in os
re klam
Ġg ave
Ġu demokratisk
Ġr art
ĠU r
Ġsammen hold
Ġhav ene
Ġdes ign
dag og
ond o
Ġforfat ninger
Ġliv sv
Ġhuman e
Ġnational staterne
sin teres
Ġfrit agelse
Ġkandid atur
Ġrest aur
ES CO
smekanis men
Europ Ã¦isk
Ġforbund skansler
Ġinvest or
ĠskrÃ¦ dder
Ġmodtag elses
ĠanstÃ¦nd ig
ĠTekn ologisk
ĠÃ¦gtefÃ¦l ler
Rapp orten
Komp romis
Ġnitra t
ĠJacks on
B Ã¸rn
b ag
v ask
Ġa rab
Ġt ag
sm Ã¦ng
ret ningen
Ġlig gende
Ġli ban
Ġorganis atoriske
Ġkonkurrence mÃ¦ssige
Ġspeci aliserede
Ġtransport form
ĠsÃ¸ gte
Ġsto ppes
sud an
Ġtilsyn et
ĠvilkÃ¥r ligt
Ġren over
ĠsÃ¥r bar
Ġmist ro
ĠSikkerheds rÃ¥ds
sstrategi er
ĠPar tis
bil Ã¦g
ĠMan uel
ĠfÃ¸der ale
Ġluftt rafikken
Ġuover ensstemmelse
Ġformod es
Ġsmit tet
sproblem erne
Ġuaf klar
Ġspecial ister
Afstem ning
Ġstres stest
Ġsubstan sen
klass es
Ġbenchmark ing
Ġmedlov giver
G e
al p
mm elsen
Ġfra tog
ak k
oci ale
Ġinteres serne
ob le
Ġnavn ene
ĠFÃ¦llesskab er
reg ning
Ġgenop rettelse
DE M
Ġhjem lande
Ġanbefal ingerne
Ġundertry kkelsen
ĠStorbritann iens
frem stilling
sre form
Ġoplysning skampagner
Ġforvir rende
ĠfÃ¦nomen et
ĠtilrettelÃ¦g gelsen
sforbr yder
Ġmidtvej srevision
Ġkosmet ik
ĠAmerik a
Ġinterkultur el
Ġschweiz iske
ĠAlm unia
ĠLamped usa
L i
n ational
u ne
Ġf ot
ed rifter
Ġu demokratiske
Ġder pÃ¥
Ġover skriften
ĠnÃ¸d situation
ĠP i
ĠC Ã´te
Ġtilbage holdes
ĠÃ¸v re
ĠomrÃ¥det s
har monisering
Ġelement Ã¦re
Ġoverra sker
finansi eringen
ĠNi ch
Ġeffekt en
Ġubeg rundet
ĠFl ynn
Ġsmit somme
Ġarran geret
Ġplur alistisk
Ġkines isk
Ġgl as
Ġgerning smÃ¦ndene
atell is
Ġarrang ere
Taler en
an ker
on et
st abil
ra mmer
Ġe ur
Ġkun stig
Ġefter tanke
red Ã¸mme
ĠB riti
ĠM u
Ġste mning
sb idrag
Ġeuro skep
Ġglob aliserede
Ġford revet
Ġeksp an
Ġbekymring en
ĠreprÃ¦sen terede
Ġtra de
Ġrel ative
ĠansÃ¸ger landenes
Ġopd ager
Ġblod ige
Ġtilveje bringes
Ġmodtag erne
ĠDel egationen
Ġsuper stat
Ġleverand Ã¸r
ĠanstÃ¦nd igt
ĠPres tige
Ġprisstig ninger
Ġvirksomhedsf lytninger
roed ter
p anel
or ld
til bud
Ġvi kar
Ġst ru
sk ole
Ġover se
li v
Ã¦g tet
ss ek
ak ket
Ġra ket
gÃ¸r elses
sen er
ust ris
ass auer
Ġorganis eres
tik ultur
Ġarbejds gruppen
ĠbegrÃ¦ns ningerne
ĠnÃ¸dvendig gÃ¸r
Ġluftfart ssikkerhed
Ġfleksibilitet sinstrumentet
EC B
ĠUN H
Sammen fattende
Ġfjernsyn et
ĠskrÃ¸b elig
Ġundervis ningen
ĠuundvÃ¦r lige
strid te
Ġantid umping
iskus sionen
Ġkonvergen skriterierne
Ġkatol ske
ĠBlok land
z ambi
Å Ł
is ektoren
Ġk idn
Ġaf m
Ġu sikkerheden
Ġu viden
Ġn ationerne
Ġom stridte
sk rog
sp risen
ĠB or
yr elses
mp er
Ġgrupp ens
Ġstat se
Ġstand punkter
urder ingen
Ġgenop tages
Ġfl Ã¥den
ator ier
Ġopbyg ger
Ġil d
Min ister
ĠGeor giens
ĠbesÃ¦ ttelsen
ash man
ĠsÃ¸rg eligt
Ġforhandlings runde
Ġfordob le
Ġkund erne
Ġlandbrugsprodu ktionen
Ġakk um
Ġopsu mmere
ĠKont or
Ġinterven ere
ĠTurk menistan
RumÃ¦n ien
Ġuhind ret
f ler
n Ã¸d
in ske
Ġfor teg
Ġaf sides
ver dens
sp agten
Ġre produktion
Ġgen anvend
Ġefter uddannelse
ĠH o
sf rit
ĠundersÃ¸g elserne
Ġtjeneste mand
Ġ9 4
Ġende gyld
Ġcentrale uropÃ¦iske
Ġkriminalitet en
Ġfrit aget
Ġminimum s
Ġkandid aterne
ĠBer g
An gÃ¥ende
Ġkil den
rich et
ĠRom ano
Ġtilskynd et
Ġfransk mÃ¦ndene
Ġration alisering
ĠFl ygtninge
Ġmask iner
Ġtilgod es
Ġstr Ã¥lende
Ġudstation ering
Ġterrorb ekÃ¦mpelse
Ġoversku elig
Ġtask for
Ivo ire
ĠskrÃ¦dder sy
ĠNich ol
Ġv endte
Ġen ek
Ġu igen
Ġud gÃ¥r
si as
id te
Ġform idler
Ġord sprog
ch auff
ĠG rund
ĠC row
ĠC ITES
stal let
are aler
Ġska det
ĠtrÃ¦ t
Ġvel egnet
Ġinstitution en
Ġenergi produktion
Ġvidere fÃ¸res
Ġkonsekvens en
Ġmindst elÃ¸n
ĠVer hofstadt
ĠlÃ¦ge hjÃ¦lp
Ġuddannelses mÃ¦ssige
Ġmul tikultur
ĠLe inen
ĠLu ftfart
Ġkur sen
Ġ198 6
Ġprincipi el
Ġug yld
ĠtÃ¸ vende
srapport en
ĠDu isenberg
Ġweekend en
ĠfornÃ¦r melse
Ġinformationstekn ologi
Ġdrivhusga se
rÃ¸ft elserne
ĠlÃ¸nmodtag ere
ĠStille hav
ĠbilÃ¦g gelse
Afstemnings tid
ĠÃ¸rkend annelse
R IP
Ġp orn
Ġder hjemme
for pligtelser
ad is
ov as
ĠC un
Ġsikkerhed sstrategi
Ġbudget politik
ĠprÃ¦ s
ass erne
Ġvalg frihed
Ġgra den
Ġudn Ã¦vne
fÃ¸lg ning
Ġru l
Ġban en
Ġudst edes
Ġfejl slag
Ġglem mes
ĠmÃ¦nd ene
Ġevalu eres
Ġuger s
Ġforbr ydere
Ġkompli menter
Ġheld ige
Ġudtrykk elige
vilkÃ¥r ene
Ġoptim ale
ÃĨndringsforslag ene
organisation ens
Ġrappor terne
vÃ¥g nings
ĠbesvÃ¦r lig
Ġpilot projekt
Ġundervis nings
siniti ativ
Ġweb steder
Ġche f
Ġmanip ulation
Kra ftigt
Ġforestilling er
ĠMÃ¼ n
ĠAlex ander
B eskyttelse
F red
H av
l av
v acc
st ationer
Ġal ibi
Ġforb lev
ĠT ony
ĠP eter
ĠfÃ¸l somhed
Ġsted for
ĠH Ã¸j
stra fik
ir ere
Ġluft kvaliteten
Ġoverv indes
Ġadminist rere
Ġbekymring erne
Ġindk alde
Ġopfyld te
ira kel
Ġspred es
ĠdrÃ¦ be
Ġfrugt bare
Ġargument et
Ġradio aktive
Ġerkend te
ĠSa var
Ġsti kken
Ġlobby virksomhed
forval tningen
Ġajour fÃ¸ring
Ġsmit te
ssk at
Ġskep tiske
rapp or
klausul en
Ġappar ater
Ġfiskerim uligheder
sk ur
ĠE ller
ek te
Ġover ensstemm
Ã¦l k
sm a
sm ugling
ĠR E
Ġkol lap
ĠN ag
Ġeffek ter
sb orger
em Ã¦ss
ĠSch roedter
rak atellis
sud veksl
aj ani
medlem merne
Ġcivil beskyttelse
Ġdetal je
Ġfleksibilitet en
ĠLu cas
Ġinklu derer
Ġoptim istiske
Ġfork Ã¦mp
ulighed en
Ġtvang sarbejde
Ġare aler
Ġkvalit ativt
Ã¡n chez
ĠhÃ¸jtid elige
Ġkreditvurderingsbureau er
unn ellen
ĠÃħr hus
tifik ater
ĠEd inburgh
Ġforhast et
lexic urity
Ġnettob idrag
k rise
w eg
Ġa v
ĠD am
Ġunder kaste
Ġvar igt
vÃ¦r kt
ĠA bu
ĠG or
Ġto ppen
kl ang
Ġned fÃ¦ldet
Ġfordel agtige
Ġ8 9
Ġmenneskerettigheder nes
Ġudenrig sministre
ĠSch rÃ¶der
Ġudst eder
Ġfortjen ester
vid ende
Ġsundheds vÃ¦sen
Ġangreb ene
ij s
02 6
Ġmodst anden
Ġ198 5
Ġforskellig artet
Ġprivile gerede
Ġretsfor fÃ¸lgelse
ĠMiljÃ¸udvalget s
Ġpsyk isk
ĠudvÃ¦l gelse
udvik lede
Ġcompu tere
Ġlatter lig
Ġudlig ne
Ġeksklu sive
Ġego isme
Ġpensionsalder en
ĠTit ley
Ġtjenestegren ene
Ġustra ffet
ĠIz quier
b orgerskab
k odeks
k opi
y b
Ġt olk
Ġsk ru
id akis
Ġhv ide
Ġre alisme
ad sj
Ġfrem kommer
ĠF al
Ġdag s
gra den
Ġlov mÃ¦ssige
os terne
Ġhold nings
Ġtal et
ĠV eterinÃ¦r
Med mindre
dann elsen
Ġdebat tere
Ġbestemm es
par ter
pu is
jet j
ell afi
Ġparti ers
ĠForb indelserne
Ġpresse med
Ġkoncent reres
Ãħ b
Ġforurolig et
ĠInter reg
ĠMart ens
Ġkemikal ie
ĠstrÃ¸m lin
ĠpÃ¥skÃ¸n nelse
ĠbeklÃ¦d ning
Ġdesper at
Ġindvik lede
Ġhundredtus indvis
Ġforkort et
Ġudrens ning
H eri
in av
Ġk Ã¦de
Ġsk ik
for fal
ĠK re
ĠK ab
slag et
Ġte ori
Ġpar amil
Ġplan lÃ¦gges
ĠH ver
Ġspil lere
Ġhandels politiske
Ġforbruger es
Ġfiskeri aftale
Ġteks terne
ĠindrÃ¸ mmet
rej ning
Ġfokuser ede
Ġcentr aliseret
Ġkommerci elt
ĠforfÃ¦rd eligt
iskrimin erende
Ġaggres siv
Ġforelag te
Ġuom tvist
ĠArbej d
Ġpan el
Ġintens e
atz idakis
ĠIN D
Ġflygtningest atus
Ġoffen siv
olom bi
Ġgenetab lere
B R
S yd
ti ts
ar io
Ġu ind
am m
Ã¦n de
Ġgen mod
sfor sikring
ĠB ah
ĠP an
ĠhÃ¸j esteret
Ġalt omfattende
Ġforhandling sprocessen
Ġnet vÃ¦rket
Ġvan e
over fÃ¸rsler
Ġkort fattet
Ġmis handling
Ġmis bruge
Ġlok omo
Ġskatte politik
Ġmand lige
Ġsamarbejds vilje
Ġforsikring sselskaber
Ġatomkraft vÃ¦rk
Ġoverbevis ninger
ĠfÃ¦ngsl ing
Ġstraf bare
Ġsmu kt
Ġflys elskaberne
Ste mmer
Ġfron ter
adsj ik
jetj enske
B lot
p ladsen
v c
en vÃ¦rende
Ġm irakel
Ġv ul
Ġv ine
Ġp Ã¦n
Ġde parte
Ġan holdt
ĠR ac
ĠS Ã¡nchez
Ġny skabelse
Ġmod en
ĠbetÃ¦nkning s
ĠM ier
For b
Ġek sil
Ġinde fry
ĠW olf
Ġuddann ede
Ġ9 7
Ġmedlemsstat en
Ġrevision er
ĠlÃ¸n modtager
sd yr
all ene
ĠkÃ¸ er
Ġopgaver ne
Ġuly kkelige
Ġforklar es
Ġsundheds vÃ¦senet
Ġmetoder ne
Ġreguler ende
Ġoverrask ede
Ġoprindelses beteg
Ġkandidat land
Ġregnskabs Ã¥r
Ġank omst
Ġgyld ig
Ġbran cher
Ġudlever et
Ġsli pper
Ġaggres sion
Ġsekretari atet
ĠThe ato
materi ale
Ġgid sel
Ġscenar io
Ġtril og
Ġkurder ne
ĠLukasjen ko
vigtig ste
Ġuigen kald
Q a
f ejl
m or
v ningen
Ġd ro
el aterede
Ġh este
Ġat yp
Ġaf faldet
Ġover tog
Ġan sÃ¥
ad or
ĠF AO
tal erne
ĠmiljÃ¸ hensyn
ob ilitet
ĠrÃ¥ materialer
Ġsamfund smodel
stil le
ma ce
Ġ4 50
Ġprodukter s
Ġkompeten cen
Ġhjem lige
Ġoply ste
ekÃ¦mp elses
rel ateret
Ġytring s
Ġinsp irere
ĠfÃ¦ngsl ede
ĠmiljÃ¸ven ligt
Ġoprigtig e
Ġfj or
Ġtranspor tere
Ġuansvar lig
Ġbjerg omrÃ¥derne
Ġassist enter
ieb algs
sstÃ¸ tter
Ġinvit ation
ĠEch elon
ĠZa ire
7 3
K l
v nedsm
y o
Ġ Hvilke
en g
an ernes
el ens
Ġb lu
Ġb Ã¥d
Ġtil fÃ¸rer
ag ask
Ġt ele
Ġover la
Ġunder lÃ¦gges
Ġefter ladt
op gave
rÃ¦n ser
Ġhen vendelse
ĠP lan
Ġad res
Ġli cit
vand t
reg ister
Ġben yttede
organ erne
Ġsl ave
ĠtiltrÃ¦d elsesprocessen
Ġmarkeds fÃ¸ringen
Ġuddannelses systemer
ha verne
Ġlivet s
Ġforsy ninger
Ġdriv huse
Ġevaluering er
Ġadvar et
ĠskÃ¦r pet
Ġryg ter
sminist renes
Ġoperation el
Ġdomin ans
ĠkÃ¸b t
Ġembedsm and
ĠtilnÃ¦r m
Ġment al
ĠskrÃ¦ kkelige
Ġubeg rundede
Arbejd slÃ¸s
ĠLan cker
ĠunderstÃ¸ tter
Menneskeret tighed
Ġjernbanetransport en
Ġpassiv itet
Ġannul ler
priv ate
Ġhedge fonde
ĠFilipp inerne
uzz o
V alget
l as
o si
v elses
Ġv over
Ġh Ã¦nge
st y
Ġom vÃ¦l
Ġud fald
ad m
ati enter
rÃ¸r er
Ġund taget
ĠH uman
Ġlovgivning smÃ¦ssigt
Ġforh Ã¸jet
Ġbag d
Ġredu ktioner
Ġeksister ede
Ġ8 2
Ġtilslu ttede
Ġkv Ã¦l
Ġleve brÃ¸d
Ġge o
Ġrefor mp
Ġomstruktur eringen
ĠsvÃ¦ kkes
Ġtol ke
Ġfremskynd et
Ġklass isk
Ġformind ske
ĠmigrationsstrÃ¸ mme
ĠBuiten weg
ĠHab sburg
Ġrisikovil lig
afran ca
b estemte
i us
ti e
Ġl Ã¸d
Ġal ban
Ġsp arer
Ġfra tager
ort od
kk edes
Ġselv for
ch t
giv elsen
ĠC om
Ġste mp
Ġc olombi
ĠH un
fang st
Ġtilp asser
Ġ14 0
Ġkonflikt lÃ¸sning
Ġide al
Ġkombin erer
Re formen
Ġassocierings aftaler
Ġfabrik anter
Ġoverf lade
Ġderi blandt
Ġfriti d
Ġtransplan tation
. )
P olitik
R om
a x
Ġk g
Ġud smid
Ġfrem fÃ¸res
ĠF rag
sat ser
del elsen
Ġtid sbegrÃ¦n
Ġarbejd ende
Ġplan lÃ¦gnings
Ġholdning erne
Ãĺ konomisk
Ġkor e
ĠsmÃ¥ t
Ã¦v nes
van er
Ġ12 9
Hvor ledes
Ġkraft varme
Ġinvolver ing
Ġluftfart ssektoren
sprodu ktionen
Ġigang sÃ¦tte
Ġdato er
Ġkonsolider ingen
ĠtilfÃ¦ld igvis
ssektor er
Ġmennesk eskab
ĠfÃ¦ngsler ne
Ġfed me
Ġdiagn ose
Ġkosmet iske
Ġiron isk
Ġflaske hal
vesprÃ¦ng ninger
Ġsygep lejer
ĠGibralt ar
w es
Ġfor vis
Ġfor anstal
al and
Ġde kret
Ġom st
li ver
ĠfÃ¥ re
ĠT er
ĠC ari
Ġfol kelig
ĠJ u
Ġbehandling er
ĠkrÃ¦n kelserne
ĠfÃ¦rd igt
Ġindhold smÃ¦ssigt
ĠansÃ¸ger land
Ġlog is
Ġundertry kke
Ġindsam les
Ġindsam let
Ġformod ede
sordning erne
Ġcy kl
Ġpsyk ologisk
sgrÃ¦n ser
Ġflo der
Ġlem lÃ¦st
Ver den
Ġslog an
Ġsekund Ã¦re
Ġkontrah erende
c ek
f eldt
l Ã¦r
l Ã¥n
Ġf elter
Ġaf delinger
al ende
ort ru
Ġgennem tv
handling splanen
Ġselv styr
Ġmind skelse
Ġfast hed
byg ningen
Ġlandbrug sstÃ¸tte
Ġfisker fartÃ¸jer
ĠsÃ¸ folk
Til bage
Ġkommun al
Ġinnov ationer
Ġforsik rer
vÃ¦rdi erne
ĠSyd osset
Ġformuler ede
Ġfrist elsen
ĠOr d
Ġbund en
ĠMal aysia
Ġresolu tionen
ĠAng el
Ġiagtt age
Mennes ker
dialog en
Ġlemp else
Ġarrange menter
Ġbade vand
bÃ¸ ger
Ġgig an
kvo terne
ellafi eld
B ed
f reds
p ning
Ġfor spil
Ġb Ã¸d
ul ar
ĠR eg
Ġret ur
ĠS tal
Ġtid ens
Ġudvikling shjÃ¦lp
ĠP irker
ĠC amer
Ġfremtid igt
Ġgrupp eringer
Ġem ig
ĠH ughes
Ġstruktur politik
Ġpres sekon
Ġford obling
Ġ8 1
ĠÃ¸konomi erne
Ġskatte unddragelse
iven heder
spek tiver
Ġslet tet
Ġminim al
ĠforudsÃ¦tning en
ĠpÃ¥lid elighed
Ġudpeg ede
Ġgro bund
Ġproducent en
Ġoperat Ã¸rerne
beslu tninger
Ġerind ring
Ġbestand dele
Ġfortrin svis
asp ektet
Ġoverflad isk
Ġkuldiox id
ĠStre am
B rug
s ygdomme
z og
Ġer ob
Ġn igeri
Ġt jetjenske
ste mme
ĠK ommun
ĠS c
Ġpoliti mÃ¦ssige
Ã¸j s
ĠG er
Ġsikkerhed skrav
ĠV I
Ġfuld byr
Al ba
Ġfly passager
Ġkommun ale
ĠtÃ¦nke p
Ġbeklag elig
Ġoptim ere
Ġdikt atorer
Ġkontra st
Be hovet
sbe hov
Ġtilkende givelse
Ġvent es
Ġgro ft
ĠpÃ¥krÃ¦ vede
Ġkryd se
Ġbesid der
Ġmisly kkede
spo tentiale
Ġdifferenti ering
Ġintensiver ing
FÃ¦llesskab ets
ĠhÃ¸jreflÃ¸j en
Ġarkite ktur
ĠspÃ¸rg es
Ġservices ektoren
udb ydere
ĠforblÃ¸ff ende
Ġbebud ede
7 4
Ġtil lod
sk and
Ġud gÃ¥
for is
Ġop holde
und en
ighed erne
Ġsituation ens
Ġprodu ktioner
Ġstand set
ĠreprÃ¦sent ativ
smarked erne
ĠÃ¥rs regn
Ġudvalg te
Ġrent able
Ġkrimin al
Ġslag tning
mens ke
Ġovergang sperioder
ĠGrÃ¸n land
ĠmodsÃ¦tning sforhold
Ġskuff e
prÃ¸ ve
Ġfortol ker
Ġsusp ension
Ġbebrej de
Ġtilgod ese
Ġannon ceret
Ġkompon ent
sbeslu tninger
ĠAir bus
Ġmilitar isering
Beslutning sforslaget
Ġdyres undhed
ĠlÃ¸nmodtag erne
ĠBrit tan
ĠbeslÃ¦g tede
ĠsÃ¦rprÃ¦ g
Ġuviden hed
ĠMÃ¼n chen
n o
n yt
Ġs edler
el miner
Ã¸r ers
Ġmed tagelsen
ĠE GF
il la
ind el
fÃ¸r ste
ss oni
Ġgennem tÃ¦n
ĠM ag
ĠM Ã©ndez
ĠI fÃ¸lge
ati foris
Ġhold ent
Ġver tik
Ġandet steds
sf j
Ġgener Ã¸se
ĠhÃ¥nd vÃ¦rk
ĠÃ¦r es
Ġforl od
ĠMar ÃŃn
Ġfe je
ĠnÃ¸g les
Ġdiplom ater
Ġassoci erede
Ġidentifi ceres
politi ks
alder en
Ġjus tere
ĠUN ESCO
Ġserb erne
ĠDa ul
Ġoverdrag else
Ġforar met
tur isme
Ġgeneraldirektor ater
smateri el
Ġhyppig ere
Ġtvist bilÃ¦g
Ġkvartet ten
Ġbask iske
S mÃ¥
p agt
Ġs h
el lige
Ġu stabil
Ġom defin
ver ige
Ġsk Ã¦rer
il ler
ens tilling
ker ede
Ġunder skrift
ĠR h
ĠM el
lan tiske
Ġsikkerhed spolitikken
Ġbestemm elses
Ġpres tige
Ġtransport infrastruktur
Ġpenge politik
ĠretfÃ¦rd igheden
Ġkoordin erer
cent ret
Ġir rele
Ġflygtning elej
Ġmekanis men
Ġkommission sforslaget
Ġkombin eres
Ġmark en
ÃĨndringsforslag et
smekanis merne
Ġinsister ede
partner skabs
Sp eci
ĠFra ssoni
Ġtemp oet
skad elige
fj end
ĠpÃ¥berÃ¥ be
Ġinteressekon flikter
Ġvedbli ve
Ġenek ompetence
L iber
b lok
e z
g aranti
ing es
Ġk osovo
ĠD ÃŃ
av anos
Ġmin edrift
ĠS jÃ¶
Ġefter Ã¥r
sÃ¦ de
Ġforsk erne
ĠL ag
ĠT RIP
ĠP aritet
Ġreg ningen
Ġgener iske
uden ter
hÃ¸r t
Ġ10 8
Ġpartner lande
Ġ8 7
Ġof ret
ĠbeskÃ¦ftigelses omrÃ¥det
Ġmindretal lene
Ġperi od
Ġemb ede
snit tet
co tt
ĠtilfÃ¦ld ige
Ġenergiforsy ningen
Ġhorison tal
ĠbedÃ¸mm es
Ġforf ej
Ag ter
rÃ¦b elserne
Ġimpul ser
ĠpÃ¦d of
Ġdyrk es
Ġfremtidsud sigter
ĠWhite head
Ġkulm ule
Ġhyp o
kopi ering
adm ium
e bb
Ã¦ kning
Ġp lÃ¦
Ġst agn
Ġop port
ri er
ĠvÃ¦ v
Ġsp Ã¦r
Ġfrem lÃ¦ggelsen
ĠS i
Ġvir tu
pro cedurerne
Ġkonkur rerende
ass et
Ġkval iteter
ĠforsÃ¸ mt
ont ain
Ġti leg
Ġforel Ã¥
Ġ7 1
orm oner
Ġhandle kra
ĠtvÃ¦r gÃ¥ende
ĠMa ij
St Ã¸tten
Ġoplev else
ĠÃĺstrig s
Frem over
Ġvog n
Ġiv rige
Ġmobilt elefoner
ĠkÃ¦r lighed
Ġerstatnings ansvar
ebb els
C TA
S ystemet
W eg
g le
Ġf est
re al
ik er
Ġsam handelen
ĠK ra
ĠS ellafield
Ġmod b
Ġkl Ã¸
Ġmil dt
ĠlÃ¸ ftet
Ġarbejd sret
sÃ¸g ere
Ġalvor ligere
Ġbi og
Ġbl Ã¸de
ĠÃ¥ben heden
ĠbegrÃ¦ns ningen
Ġhid rÃ¸rer
Ġiden tiske
Ġej ere
ĠvÃ¥ben handel
Ġminim ale
Ġforsin kelsen
Ã¡ ndez
Ġkritik punkter
ĠindrÃ¸ mmes
Ġinformer er
ich ester
Ġtilt rÃ¥dt
Ġfrihandels aftalen
Ġtilkende givelser
Ġanalyser es
Ġservice ydelser
Ġerhvervsud dannelses
Ġkat alog
Ġkvan titet
Ġmisly kkedes
Ġforsv undne
fÃ¦st ede
Ġsyner gier
Ġmel de
direktiver ne
Ġesk al
Ġult ral
! "
M arked
p ligtige
u kket
v idenskab
Ġfor fre
Ġaf viklingen
Ġvi k
Ġg rin
Ġind gang
it a
sm Ã¸n
Ġsp Ã¦d
pp erne
ss ager
Ġmod ydelse
Ġvalg delt
Ġti m
kra ine
Ġdialog er
Ġyde evne
ĠLe ader
Ġforsknings ramme
Ġkorrup tionen
Ġsamarbejds aftaler
Ġargumenter er
punkt et
Ġrevider ing
Ġspred er
Ãħ bning
Ġargument ation
Ġafbr ydelse
Ġudpeg es
ĠfÃ¸der alistiske
Ġbu ti
Ġfreds aftale
ĠtilsidesÃ¦ tter
person ale
ĠskÃ¦rp else
Ġmassak rer
Ġundervurder es
Ġtildel er
Ġkommunikationstekn ologier
Ġuhold bar
Dag sorden
ĠsamfundsÃ¸ konomiske
ĠKrig sforbryder
ĠParitet iske
B ek
F C
U kraine
l ast
Ġo ttende
Ġfor est
Ġaf standen
Ġtil rÃ¥d
Ġind trÃ¦den
Ġkon g
Ã¦g tes
sfor mÃ¥l
ĠB ekÃ¦mpelse
ĠstÃ¸r sted
Ġbudget stÃ¸tte
ĠrÃ¥d smÃ¸det
komm un
Ġforsvar ligt
Ġcivil iseret
Ġge mmer
Ġjern tÃ¦
che f
Ġbevidst gÃ¸relse
ĠvilkÃ¥r lig
regi met
Ġtrafik sikkerheden
ĠrÃ¥dsformand ens
02 5
Ġoprindelses landene
ĠMo zambi
asi atiske
Ġbloker ing
Ġmulti funktion
Ġutvetyd ige
ĠaktÃ¸r ers
Ġhast es
ĠprÃ¦st ationer
ĠIC C
Ġhushold ninger
Ġsammenfat te
Ġbatter ier
Ġprovo kerende
Stemmer ettelser
ĠstÃ¸rsted elens
i be
m ninger
s c
is ser
Ġp lynd
Ġp vc
Ġt and
ov ene
ĠS ou
vi a
Ġbeg ik
ven ligt
Ġstra mmere
Ġperson befordring
ĠundersÃ¸g te
sam me
Ġviden baseret
Ġrets regler
Ġverdens handels
Ġkend else
spek terne
Ġforhind rede
ĠSyd amerika
ĠSyd kaukasus
yndighed erne
Ġdan nes
ĠfÃ¸devare priserne
ĠforÃ¸ ger
Ġfastsl og
ĠspÃ¦nd ingerne
Ġfrugt bart
Ġretss agen
Ġretsfor fÃ¸l
ĠskrÃ¦ mmende
Ġpropor tioner
Ġpoin te
Ġforsynings sikkerheden
inten tioner
Ġuf leksib
Ġforanled iget
ĠStille havet
Ġuforbehold ent
ĠNapol it
Ġstring ent
Ġtransn ationale
Ġlandbrugsb edrifter
E E
G Ã¸r
m oder
o us
r and
or ks
Ġs har
in dem
sk ompetence
Ġud faldet
uro s
Ġop tagelses
sfor pligtelser
est eder
ĠM und
ĠlÃ¸ gn
Ġudvikling sprogrammer
ĠP Ã©
Ġsikkerhed spolitiske
ĠgÃ¦l ds
la det
Ġter ape
Ġsystem s
ĠovervÃ¥ get
Ġvidenskab smÃ¦nd
Ġreformer es
ĠophÃ¦ ver
ĠMellem amerika
ĠPro dis
Ġinklu deret
Ġgennemsku eligt
Ġspor et
Ġtekstil industrien
Ġhj alp
Ġbom ber
ĠFer ber
ĠudfÃ¸r lige
ĠUnder sÃ¸g
Ġbibe holdes
skrÃ¦ vende
ĠDu puis
Ġakti vister
Ġsmid ig
Ġforbil led
Ġunionsb orgerskab
Ġubehag elige
Ġbanks ektoren
Ġindarbejd es
D Ã©r
V an
V IT
b iske
f ase
Ġp ort
for ske
sl Ã¦b
ind samling
Ġgennem gangen
mer nes
Ġgrund lov
vi ce
Ġreg ning
oner er
Ġstat sstÃ¸tten
under et
Ġbil fabrik
Ġforsvar ede
Ġbidrag ene
Ġhandels aftale
Ġforbruger rettigheder
Ġintegration s
ĠAn na
Ġski fter
Ġenerg ist
hoved stad
oc au
St rategien
pl at
Ġdriv garn
rej sning
Ġkontakt en
agen det
Ġbeslut somme
Ġafsnit tet
ÃŃ nez
ĠGen op
Ġcivilsamfund ets
ĠstrÃ¸ mmen
Ġhas tigt
ĠvÃ¦kstp agt
Ġforek om
Ġmulti p
ĠForligsudvalget s
ĠQ u
Ġuklar hed
sfinansi ering
ĠBarros os
ĠThy ssen
ĠAtom energi
Ġdrivhusgase missionerne
ĠIzquier do
T yskland
d ad
te mp
Ġin stituttet
Ġud ledninger
Ġj Ã¸der
Ġan lÃ¦gger
ind ien
Ġved tÃ¦gt
Ã¦n omen
Ġbes ti
ri oritet
ĠP ort
ĠhÃ¸j tekn
Ġvis es
Ã© er
Ġkolle gas
Ġmang ed
rik ker
em arked
Ġfors vind
Ġforpligt es
ĠW orld
Ġfiskeri politikken
Ġ7 2
Ġproduktion smetoder
ĠsamhÃ¸righed spolitikkens
Ġuan tag
ureau krati
ĠtvÃ¦r nationale
Ġrim elighed
Ġslet tes
St at
Ġspecifik ationer
parti et
Ġportugis isk
ĠansÃ¸g ere
Ġfrig ives
Ġfrugt bar
Ġul tim
Ġekstrem istiske
Ġasylan sÃ¸ger
Ġarrest ationer
Ġnaturkatastro fe
Ġekspon ering
Ġgeorg iske
ĠLanno ye
ĠGrossetÃª te
7 2
l Ã¦ring
t elig
Ġd ygtige
is card
ĠpÃ¥ rÃ¸rende
Ġsk udt
ĠvÃ¦ bnet
Ġher o
rug t
Ġforsk er
Ġlov bestemmelser
Ġfinan spolitiske
ingen es
ĠmiljÃ¸ handlingsprogram
ĠH and
Ġunderstre g
Ġned vÃ¦rdig
ĠfÃ¦llesskab sprÃ¦
Ġhist ori
Ġfar mace
Ġprodukter nes
Ġrent en
Ġreform traktaten
Ġinnov ationen
ĠbeskÃ¦ftigelses fre
ĠEuro c
Ġforuren er
Ġrom ani
Ġlo yal
stan bul
Land bruget
Ġdrikke varer
Ġbu gt
ĠmistÃ¦n kte
ĠIC AO
Ġusikker t
aut oritet
frist ede
Ġanse else
Ġsemin ar
Ġukor rekt
Ġvolont Ã¸r
ĠpÃ¦ dagog
Ġparamil itÃ¦re
" ?
i men
i red
Ġs ul
ti sme
Ġh Ã¸ste
Ġaf lytning
st endens
ro p
Ġde fen
Ġan vis
Ġgen tekn
les t
est ed
ĠB ri
Ġtid sramme
ĠG ah
vil ligt
Ãĺ S
Ġdebat terer
Ġaftal es
ĠsÃ¸ gen
Her udover
ĠÃ¦r lighed
Ġforeg iver
ĠSch mid
Ġut Ã¥lmod
In formation
Ġpension erne
ĠZ ap
kontrol len
Sk ulle
rej ser
ĠGrÃ¸n nes
Ġcentr alisering
Ġtidsplan er
Ġmom ssatser
Ġtilveje bragt
Ġskib ene
Ġmotor veje
ĠÃĺster s
Ġprivati ser
ĠVerdenshandels organisationens
region ale
ĠuundvÃ¦r ligt
Ġmindretals sprog
ĠOver vÃ¥gnings
ĠsÃ¸g smÃ¥l
Ġdo ktrin
Ġansp ore
urt z
Ġtynd t
Ġusandsyn ligt
Ġstru kt
Ġstatse jede
V alg
l ister
s skabende
in spekt
Ġb rasili
Ġvi cep
Ġsk y
for bered
Ġal ment
sl iste
ind ik
sm it
Ġbet ro
Ġsp ore
ĠR os
tt est
Ġdem ens
Ġland miner
Ġbesk ad
ĠI stanbul
For skning
Ġhen ledt
ĠT el
ĠC enter
kl assen
Ġbef inde
Ġsikkerhed sstyrker
Ġc abo
ut a
ĠrÃ¥ det
sf aktor
Ġned lÃ¦ggelse
Ġperson al
ĠmÃ¸de perioder
lin son
Ġsyg es
gj orte
ĠkÃ¦mp est
Ġatom prÃ¸
Ġpension isterne
Ġty ve
Ġuddannelses institutioner
Ġdu kket
Ġsuppler et
Ġsund ere
ĠSam tidig
Ġgennemsnit ligt
rest rik
Ġskel ner
ĠuopsÃ¦tt elighed
Ġuddy bning
Ġvalut as
ĠOmbudsmand s
Ġmultilater alisme
Ġforring et
sklaus uler
ĠAz nar
ĠForsvar sanliggender
ĠWe ber
ĠuomgÃ¦ng eligt
Ġopsplit ning
Ġreserved ele
Ġforhandlingsmand at
srapp orter
Ġinteresseg rupper
Ġplantebeskyttelses midler
ĠKirgis istan
m ur
et ab
Ġm otorer
Ġu brug
ol o
Ġud prÃ¦
Ġover sat
Ã¥l ene
sm an
ser klÃ¦ringen
agt et
pro tokol
Ġbef Ã¸jelserne
ĠH en
ĠFor mÃ¥let
Ġfisker nes
skri velse
Ġsucces rige
ĠInd iens
ĠAl perne
Ġinvestering sfonde
Ġsikkerheds spÃ¸rgsmÃ¥l
ars za
Ġkost ede
Ġhypp ige
Ġdecentr aliseret
Ġskattes vig
Ġudveksl inger
Ġlatter lige
Ġafska ffer
ĠbeklÃ¦d nings
ĠTe her
ĠME D
ĠfÃ¸de kÃ¦den
b or
Ġs tereot
ed ers
Ġb on
Ġk ammer
Ġk alender
ent es
Ġind sÃ¦ttes
og o
ud byder
Ġefter lig
ran ge
Ġhand elsk
lo kke
ĠP ast
jen esten
Ġkont akte
ap est
Ġdirektiv s
ĠÃ¥b nede
Ġsundhed stjek
Ġtru ende
Ġbil industri
Ġforskning sprogrammer
Ġ6 9
Ġflertal s
ĠIn stitutionelle
Ġbest anden
Ġsat s
ĠdÃ¸d sd
ĠdÃ¦ mme
Ġfag folk
Ġtun gere
Ġforskels behand
ĠFin ansi
Ġudf asning
ĠÃĺkonomi udvalget
Op lys
Ġuform el
analy ser
Ġudvand et
Ġfremskynd es
Ġforpligtelses bevillinger
OL VIT
Ġeksperi ment
Stab ilitet
Ġskilsm isse
Ġbely se
F ol
I ran
K roati
T ur
a w
n isch
r Ã¸re
v ek
Ã ¯
an ou
ret ninger
Ġlige vÃ¦rdige
ko hr
Af rika
Ġflertal safgÃ¸relser
Ġfl Ã¸j
Ud dannelse
Ġkonklu derer
Ġudl Ã¸se
An mod
Ġkraftig ere
ĠVest indien
Ġdemonst rerer
ill on
ĠtilnÃ¦r me
ta lem
Ġcivilis erede
Ġforne mmelsen
Ġaff Ã¦re
Ġgammel dags
Menneskeret tigheder
Ġattent ater
Mod tagne
Ġjordbund en
menslu tning
Ġerhvervsk Ã¸retÃ¸jer
Ġjustit sminister
Di alog
Ġkorrespon derende
Ġinterparlament ariske
Ġblindg yde
ĠUNH CR
M I
S y
en et
en tering
st opmÃ¸de
Ġn ik
and ele
sk en
Ġr igt
rug uay
Ġfores k
im ellem
Ġenergi ressourcer
Ġterror organisationer
Ġven ligt
ĠreprÃ¦sent anten
Ġarbejds dokument
Ġudvalg t
Ġbistand s
ici elle
Ġvanskelig gÃ¸r
Ġforber edes
Ġhjem lÃ¸se
ĠafhÃ¦ng igheden
ĠEuro bar
Ġkatastrof alt
Ġkommission sforslag
Ġbegrund es
Ġdu kke
Ġskad en
Ġkontinent s
Ġdecharge proceduren
Ġ198 7
Ġtilbag estÃ¥ende
oll nisch
Ġskand aler
bil let
Ġudviklingsb istanden
ĠasylansÃ¸g ninger
Ġcy an
ĠindskrÃ¦n kning
Ad skil
Ġfejlag tige
ena ult
Ġfuldgyld igt
speci fikke
ĠgenÃ¥b ne
Ġindvil lig
Ġimpli cerede
M uligheden
g est
Ġs udan
Ġb Ã¥ret
ar ag
Ġin stitutter
Ã¦r edygtig
Ġud ledning
sp agt
ommis s
ad skil
ud ron
ud dannelses
org en
ĠM organ
Ġudvikling sstÃ¸tte
Ġlov ramme
ĠC ashman
sf Ã¦llesskab
Ġudvid elsesproces
ban k
ĠvÃ¦rdi erne
Ġtjeneste ydelserne
Ġhje mmel
Ġoli et
ĠerklÃ¦ring erne
Ġmodel len
Ġsubsidiaritet en
ĠstrÃ¦ ben
Ġtilveje bringelse
Ġbanker nes
Ġlufthavn s
Ġbro der
Ġbestyr else
Ġutvetyd ig
ĠvÃ¦g ten
kredit ter
Ġisrael ere
ĠKongres sen
ĠCrow ley
M S
T ror
Ġtil tal
Ġom skol
Ġst udenter
sl Ã¸b
Ġan tagelse
Ġbes til
sm ulighederne
ĠR oss
del te
ĠT ajani
over skud
Ġtilbage vÃ¦rende
syn ede
Ġoverv undet
Ġerhverv smÃ¦ssig
ĠforsÃ¸g ene
Ġsl ap
Ġnational stater
Ġforsknings rum
Europ e
ĠbesÃ¸ gende
Ã¤ nen
ĠMart ÃŃnez
Ġcy ber
Ġentyd ige
Ġhorison talt
Ġparall elle
ĠtilsidesÃ¦ ttelse
Ġminer al
Ġombudsmand ens
Ġtri ves
Ġtrop iske
Ġterr ortru
NA TO
Ġblomst rende
ĠÃĸ c
Ġhi mmel
Ã¤n sch
sprÃ¸j tning
B eskyttelsen
o ij
p ark
p arts
s behandling
or st
ste mp
Ġar ena
ĠS iden
Ġpoliti ks
Ġefter leve
op d
ĠT rakatellis
ĠP iebalgs
De charge
sb es
Ġlige vÃ¦gten
Ġkonkurren cel
Ġdog m
Ġkons um
stil fÃ¦lde
Ġinformation skampagner
Ġverdens mester
Ġ7 9
Ġafsk rÃ¦
ĠFran k
Ġforbered te
Ġbetragt elig
bud det
Ġdokumenter et
atisti kker
elsespro cedurer
ĠsÃ¥r barhed
Ġformuler es
Ġforsamling er
vig net
Ġmom sen
Ġprote iner
Ġarbejdskraft en
ĠSe pp
199 8
Ġudryd det
Ġbom bar
pligt elserne
Ġprakti serer
ĠÃ¥rtus inde
Ġopdater e
ĠME DA
ĠdÃ¦mp e
Ġoverlap ning
lÃ¦nd erne
Ġophug ning
Am sterdam
ĠNabuc co
Ġkak ao
Ġindbefat ter
Ġcolombi anske
S u
p eri
Ã¦ tte
Ġl ager
Ġud fold
ser ende
jer usalem
giv enhed
organis ations
Ġred det
Ġforh Ã¸jes
Ġled ige
Af brydelse
Ġhandels system
dem okrati
ĠAl avanos
Ġglem te
sstat en
ĠpalÃ¦stinens ernes
Ġuddannelses systemet
Ġarbejdstager rettigheder
Ġoprindelses mÃ¦rkning
ĠGeor ge
siden ter
Ġneut rale
Ġaff olkning
konvention ens
Ġflys elskab
Ġvalgkamp en
ĠuÃ¸n sket
ĠkohÃ¦r ens
Genop tagelse
Ġluks us
B ekÃ¦mpelsen
D els
F akt
P res
R U
T anken
o tisk
s industri
Ġv a
Ġv ug
Ġsk yder
Ġover set
Ġan kom
yr er
Ġforbind es
Ġforbind elses
Ġlandbrug smodel
Ġtjen esterne
Ġned slag
Ġeks ek
Ġopf ind
ga ard
Ġfiskeri indsatsen
Ġudenrig sministrene
Ġ12 5
Ġarg umenterne
Ġregn skabet
Ġbetragt elige
ĠindrÃ¸ mmelse
Ġforsy ningen
Ġfang ster
Ġbereg ningen
Ġkyst omrÃ¥der
Ġtoler eres
Ġerhvervslivet s
Ġstim ulering
Ġefterretning stjenester
ĠlÃ¸slad es
Ġautonom e
Ġepis ode
istparti et
ĠrÃ¦ds els
ĠDiam ant
Fre mme
Ġselvstyr ende
ĠSjÃ¶ stedt
ĠMozambi que
indem ans
B ulgar
F ores
P ortugal
Q u
g elserne
h ug
u Ã©
an ks
Ġb inde
on ation
for sikring
ĠR es
ss ygdomme
ĠB jer
us z
ĠL ind
Ġfinan spolitik
ĠC ab
kelig heden
Ġgodt gÃ¸relser
Ġhver dagen
hÃ¦ mmede
ĠW arsza
Ġhoved rolle
Ġor de
Ġve jer
met ode
Ġpost tjenesterne
Ġforenkling en
ĠimÃ¸degÃ¥ else
ĠPak istans
ĠGen ova
Ġoversk yg
Ġmikro virksomheder
Ġmotiver et
iskrimin ering
Ġintensiver et
Ġregeringschefer nes
Ġscenar ier
Ġobserv ation
Ġbelej ligt
StÃ¸r stedelen
Ġmidtvejse valueringen
P en
b t
f r
h eld
j Ã¸r
l ager
n avigation
z ek
Ġo lig
Ġh Ã¦l
ar a
Ġmed borgeres
ver ing
Ġar menske
ĠU ruguay
ak terne
est rej
ĠM yanmar
Ġtid sh
Ġdi am
ĠL ouis
rÃ¸ v
ĠfÃ¸l t
ĠV ol
byg geri
Ġbi produkter
Ġorganis eringen
Ġstruktur elt
Ġtjeneste ydelse
ĠSt yrelses
ĠÃ¸konomi ens
Ġoli es
qu in
ĠhÃ¦v det
send elser
rel ationer
Ã¸konom ier
ĠMinisterrÃ¥det s
bevÃ¦g else
lej re
Ġparlaments valget
uly kken
Ġintensiver es
FÃ¦llesskab et
ĠihÃ¦rd igt
ĠTim or
Ġhjemmes ide
Ġinspekt Ã¸rer
ĠjÃ¸d iske
Ġamm unition
Ġri val
ĠSydosset ien
o tu
s regionen
or iske
Ġf ug
Ġfor ringe
Ġaf sÃ¦tter
ne k
Ġu berettigede
lig nende
it tel
ab es
ĠK allas
av a
ĠS tu
Ġny skab
ĠmÃ¥l t
Ġforhandling sposition
Ġforskel lighed
Ġpar ag
ĠhjÃ¦lp es
Ġmang es
Ġtjen est
Ġklar lagt
Ġbev id
ĠindfÃ¸r sel
Ġsto ppet
Ġhu komm
Ġum agen
Ġro aming
Ind lÃ¦g
Ġtab u
Ġtab ere
Ġbekendt gjort
ĠlandmÃ¦nd s
ĠMar co
Ġkontroller ede
Ġmasse med
An svaret
ĠdÃ¸ ve
ĠHa arder
Ġhjemme arbejde
stan ser
Ġmilj Ã¸d
Ġmulti etn
ĠQ ue
Un ge
arbejdslÃ¸s heden
Ġfedt stoffer
Ġfremkal der
ĠÃ¸delag te
Ġantisemiti sme
Ġjobskab elsen
ĠBud apest
Ġstatsku p
asso ure
adsjik istan
O mbud
f onds
m orgen
Ġf ondens
Ġfor inden
Ġi kket
Ġaf s
ag net
ro gen
Ġder fra
Ġud sving
ĠK i
li ch
Ġar tiklen
Ġfrem synet
av en
sfor anstaltning
Ġselv samme
gra mmer
ĠL ange
Ġbeslutning ens
ren ner
kl ausuler
Ġdemokrati seringen
res olution
Ġvel ud
Ġudford rende
van sk
Ġge mme
kont oret
Ġsammenlig nende
Ã¸ret Ã¸j
centr ene
Ġfang es
ĠKy ot
Ġklim akon
Ġoperation elt
Ġstrafferet lig
Ġforek omsten
cy klus
Ġkryd ser
ĠsÃ¸rg elige
vog n
Ġopdag ede
Ġubetyd elige
ĠvÃ¦rdipap irer
Regering erne
R C
T ekn
f ran
i te
j ekt
k ant
Ġaf talem
Ġu vil
ik op
ĠK lima
ĠK ey
ĠF land
ĠS pÃ¸rgsmÃ¥let
Ġdem ografisk
Ġgrund lagt
Ġarbejd sstandarder
ap ital
Ġforhold t
Ġstand ser
Ġtjen esten
ĠAn ton
Ġkriter iet
Ġgav mil
Ġforsik rede
san liggende
Ġflyg tningen
Ġparlamentsmedlemmer s
ski ftet
Ġaktion erne
Ġung dommen
Ġklim abeskyttelse
Ġbank ens
Ġhavn en
Ġskit sere
Ġdecentr aliserede
ĠSal afranca
Ġtidsfr isten
Ġklimap olitik
ĠuomgÃ¦ng elig
Erfar ingen
dimen sion
Ġpublik um
Ġtsun am
sempel vis
Ġsmuthul ler
ondu ras
Ġgeo strateg
Weg gen
F l
H e
H Ã¦v
L andene
N Ã¸g
m ede
p agten
Ġtil lÃ¦gge
Ġder iv
Ġud kÃ¦mp
at ab
it ler
se ud
od ka
ind ustris
Ġsp aret
Ġkon ces
Ã¸j ne
ĠG om
ĠC am
sen be
ĠN assauer
Ġstyr ken
Ġlandbrug svarer
Ãĺ st
stra ff
Ġsundhed sbeskyttelse
Ġkultur arven
Ġtransport virksomheder
Ġbel Ã¦g
Ġbetragtning erne
Ġkn appe
ij senbe
Ġidentifi cerer
ong ol
ĠsÃ¦dvan ligvis
Ġblok ade
Ġserb ere
Ġdaglig dagen
Ġmotiver e
ĠtrÃ¦n ge
problem atikken
Ġbiotekn ologien
Ġudbet ale
Ġkomitologi proceduren
Ġbeund rer
Ġhushold nings
Ġiv rig
Ġmellemstats lig
Ġlangsomm ere
ĠMÃ¼ ller
kvar ter
ĠmarkedskrÃ¦ fterne
kompeten ce
Ġklyn ge
Ġmejeri produkter
ocau st
7 9
B P
h m
u x
Ġf am
Ġm exic
Ġb ier
ar ds
Ġp le
eg Ã¸r
ur er
Ġan tag
Ġbe virke
ĠR ich
pp ing
ĠfÃ¦lles europÃ¦isk
ĠlÃ¸ ftest
eks isterende
ĠG old
Ġstad ige
Ã© n
ier re
ĠmiljÃ¸ pÃ¥
Ġli ter
Ġvel informer
ĠbeskÃ¦ftig elsest
Ġfr isterne
Ġfolk ene
ĠvÃ¦rdi fÃ¦llesskab
Ġasp ekterne
Ġskat t
SÃ¥ fremt
20 20
Ġarbejds betingelser
akt Ã¸rer
Ġkommun ismen
sud viklingen
Ġerfar et
Ġmarkeds fÃ¸re
Ġnord vestlige
Ġudl Ã¸st
ĠkÃ¸n saspektet
ĠRevision sret
Ġkendeteg nende
Ġundermin eret
Ġmisfor stÃ¥et
Ġekspert gruppe
Ġpesti cid
Ġpsyk ologiske
ssat serne
ĠprÃ¦m ier
Ġtilgod eser
ĠTim es
ĠgrÃ¦nsevÃ¦rdi erne
ĠProgres s
Ġudbed re
Ġprovok ation
sbyr de
Est a
Ġovers tige
ĠBriti sh
Ġtolk ene
Qa eda
E IB
k ynd
p rez
v re
Ġs ne
ar es
Ġtil stÃ¥
Ġover ser
gi onen
ss tig
Ã¸d ende
red u
ĠI A
lan t
ĠT obin
jen te
Ġtilf Ã¸jelser
Ġc itat
Ġli by
Ġhur tighed
Ġenergi mÃ¦ssige
Ġsm ugler
Ġprogra mp
ĠrÃ¥d givere
Ġsty kket
Â« -
ĠvÃ¦rd ige
ĠSp ort
ĠBer tens
Ġfremgangsm Ã¥den
Ġstrid en
finansi eret
ugoslav iske
Ġselskab et
ĠskÃ¦b nes
Ġindf Ã¸jes
Ġsti kke
Ġhykler iske
ĠhjÃ¸rnesten en
Ġessenti elle
forfat ning
Ġveks el
ĠtiltrÃ¦n gt
ĠKau pp
ĠFrag a
ĠretsforfÃ¸l ges
a el
b idrag
c est
m ier
Ġs old
in stans
Ġk yl
Ġk reds
til tag
de bu
Ġde klar
Ġud lede
ĠE ssen
Ġop rem
mm un
ri es
av lerne
Ġmod vÃ¦gt
ĠB reyer
Ã¸l le
Ġtid smÃ¦ssige
Ġlov ens
Ġbed ring
Ġmening slÃ¸se
Ġmening smÃ¥
Ġenergi infrastruktur
Ġfors vandt
ĠformÃ¥l stjen
Ġluft kvalitet
Ġlever ingen
Ġ9 00
Ġvand ramm
Ġskatte konkurrence
Ġmindretal srettigheder
ĠMa es
ĠÃĺst jerusalem
ĠLe vnedsm
ĠredegÃ¸r elsen
lÃ¸s ninger
Ġfundament alistiske
ĠbÃ¦redygtighed en
Ġudsted elsen
Ġsult estrej
uk ush
Ġudelad t
smÃ¦r ke
Ġstagn ation
Ġcyan id
A ub
P olen
b rÃ¦ndsto
h il
el ve
Ġk ass
Ġsk rapp
ĠÃ¸ l
Ġved holdenhed
ĠK un
ord nings
Ġsp ons
Ġsp rÃ¦ng
ĠmÃ¥ ling
ĠS ir
ran terne
ĠC app
ĠH onduras
Ġun Ã¦gt
Ġtilbage bet
ĠfÃ¦llesskab sinitiativer
ac iteter
Ġverdens orden
Ġru in
Ġundtag elserne
Ġsnar lig
ĠEUR O
Ġtold fri
Ġreaktion Ã¦re
Ġpl age
ĠhumanitÃ¦r t
ĠrÃ¦ kken
ĠforelÃ¸b igt
Ġlast vogne
Ġjernbane pakke
ĠLitau ens
ĠZimbab wes
Ġment alitet
Ġtilsides at
okument et
Ġperf ekte
ĠbrÃ¦nd sels
ĠprÃ¦m ie
ĠMac ao
Ġukontrol lerede
Ġbibliote ker
Ġeffektivis ere
Ãī n
Ġtalet iden
N ed
U C
g arantier
k ov
er idt
Ġh yd
[...]
