{"<s>":0,"</s>":1,"<pad>":2,"!":3,"\"":4,"#":5,"$":6,"%":7,"&":8,"'":9,"(":10,")":11,"*":12,"+":13,",":14,"-":15,".":16,"/":17,"0":18,"1":19,"2":20,"3":21,"4":22,"5":23,"6":24,"7":25,"8":26,"9":27,":":28,";":29,"<":30,"=":31,">":32,"?":33,"@":34,"A":35,"B":36,"C":37,"D":38,"E":39,"F":40,"G":41,"H":42,"I":43,"J":44,"K":45,"L":46,"M":47,"N":48,"O":49,"P":50,"Q":51,"R":52,"S":53,"T":54,"U":55,"V":56,"W":57,"X":58,"Y":59,"Z":60,"[":61,"\\":62,"]":63,"^":64,"_":65,"`":66,"a":67,"b":68,"c":69,"d":70,"e":71,"f":72,"g":73,"h":74,"i":75,"j":76,"k":77,"l":78,"m":79,"n":80,"o":81,"p":82,"q":83,"r":84,"s":85,"t":86,"u":87,"v":88,"w":89,"x":90,"y":91,"z":92,"{":93,"|":94,"}":95,"~":96,"¡":97,"¢":98,"£":99,"¤":100,"¥":101,"¦":102,"§":103,"¨":104,"©":105,"ª":106,"«":107,"¬":108,"®":109,"¯":110,"°":111,"±":112,"²":113,"³":114,"´":115,"µ":116,"¶":117,"·":118,"¸":119,"¹":120,"º":121,"»":122,"¼":123,"½":124,"¾":125,"¿":126,"À":127,"Á":128,"Â":129,"Ã":130,"Ä":131,"Å":132,"Æ":133,"Ç":134,"È":135,"É":136,"Ê":137,"Ë":138,"Ì":139,"Í":140,"Î":141,"Ï":142,"Ð":143,"Ñ":144,"Ò":145,"Ó":146,"Ô":147,"Õ":148,"Ö":149,"×":150,"Ø":151,"Ù":152,"Ú":153,"Û":154,"Ü":155,"Ý":156,"Þ":157,"ß":158,"à":159,"á":160,"â":161,"ã":162,"ä":163,"å":164,"æ":165,"ç":166,"è":167,"é":168,"ê":169,"ë":170,"ì":171,"í":172,"î":173,"ï":174,"ð":175,"ñ":176,"ò":177,"ó":178,"ô":179,"õ":180,"ö":181,"÷":182,"ø":183,"ù":184,"ú":185,"û":186,"ü":187,"ý":188,"þ":189,"ÿ":190,"Ā":191,"ā":192,"Ă":193,"ă":194,"Ą":195,"ą":196,"Ć":197,"ć":198,"Ĉ":199,"ĉ":200,"Ċ":201,"ċ":202,"Č":203,"č":204,"Ď":205,"ď":206,"Đ":207,"đ":208,"Ē":209,"ē":210,"Ĕ":211,"ĕ":212,"Ė":213,"ė":214,"Ę":215,"ę":216,"Ě":217,"ě":218,"Ĝ":219,"ĝ":220,"Ğ":221,"ğ":222,"Ġ":223,"ġ":224,"Ģ":225,"ģ":226,"Ĥ":227,"ĥ":228,"Ħ":229,"ħ":230,"Ĩ":231,"ĩ":232,"Ī":233,"ī":234,"Ĭ":235,"ĭ":236,"Į":237,"į":238,"İ":239,"ı":240,"Ĳ":241,"ĳ":242,"Ĵ":243,"ĵ":244,"Ķ":245,"ķ":246,"ĸ":247,"Ĺ":248,"ĺ":249,"Ļ":250,"ļ":251,"Ľ":252,"ľ":253,"Ŀ":254,"ŀ":255,"Ł":256,"ł":257,"Ń":258,"er":259,"en":260,"et":261,"Ġa":262,"Ġd":263,"or":264,"Ġf":265,"Ġs":266,"Ġo":267,"in":268,"ti":269,"Ġm":270,"Ã¥":271,"Ã¦":272,"ed":273,"Ġfor":274,"an":275,"el":276,"Ġv":277,"ig":278,"Ã¸":279,"Ġh":280,"Ġi":281,"es":282,"Ġog":283,"Ġb":284,"Ġat":285,"ing":286,"is":287,"ar":288,"Ġp":289,"om":290,"re":291,"Ġk":292,"on":293,"le":294,"Ġaf":295,"til":296,"te":297,"ke":298,"de":299,"Ġer":300,"ne":301,"Ġtil":302,"Ġvi":303,"Ġg":304,"al":305,"Ġen":306,"ter":307,"Ġdet":308,"ag":309,"Ġu":310,"eg":311,"st":312,"nd":313,"ning":314,"Ġn":315,"ro":316,"els":317,"Ã¸r":318,"Ġden":319,"lig":320,"Ġder":321,"and":322,"Ġde":323,"Ġom":324,"Ġmed":325,"ra":326,"Ġt":327,"ol":328,"Ġin":329,"ĠpÃ¥":330,"Ġl":331,"Ġst":332,"Ġsom":333,"kke":334,"am":335,"ver":336,"sk":337,"Ã¦r":338,"hed":339,"Ġud":340,"Ġhar":341,"ru":342,"der":343,"Ġikke":344,"Ġsk":345,"at":346,"ler":347,"ent":348,"ĠE":349,"Ġvil":350,"tion":351,"ende":352,"si":353,"erne":354,"Ġr":355,"ek":356,"ik":357,"else":358,"Ġj":359,"omm":360,"id":361,"Ġet":362,"for":363,"Ã¥r":364,"tig":365,"uro":366,"ere":367,"lem":368,"Ġind":369,"ve":370,"Det":371,"il":372,"Ġe":373,"Ġop":374,"urop":375,"Ġmen":376,"Ġhv":377,"be":378,"Ġal":379,"Ġjeg":380,"ens":381,"it":382,"ge":383,"rÃ¦":384,"ede":385,"elig":386,"ur":387,"un":388,"sl":389,"iske":390,"ste":391,"se":392,"Jeg":393,"Ġover":394,"Ġskal":395,"sp":396,"og":397,"od":398,"Ġan":399,"Ġkan":400,"ation":401,"Ã¦l":402,"ommis":403,"Ġre":404,"ab":405,"sion":406,"ker":407,"iti":408,"Ġform":409,"mm":410,"ger":411,"ĠÃ¸":412,"ĠD":413,"sÃ¥":414,"ind":415,"Ġved":416,"Ġsam":417,"ske":418,"det":419,"Ã¦n":420,"ling":421,"Ġbes":422,"Ã¥l":423,"Ġsig":424,"ĠK":425,"bej":426,"ĠogsÃ¥":427,"ri":428,"ord":429,"ad":430,"ale":431,"lige":432,"Ġfre":433,"Ġ-":434,"sm":435,"tid":436,"Ġbet":437,"gi":438,"ĠvÃ¦":439,"kt":440,"ring":441,"ĠEurop":442,"ĠEU":443,"Ġpro":444,"li":445,"tning":446,"ommission":447,"lam":448,"ĠsÃ¥":449,"ang":450,"nder":451,"arlam":452,"Ġsp":453,"Ġkon":454,"kning":455,"end":456,"ul":457,"Ġfra":458,"arlament":459,"oliti":460,"Ġformand":461,"ud":462,"Ġbe":463,"Ġdenne":464,"nes":465,"vis":466,"ĠmÃ¥":467,"ov":468,"Ġar":469,"Vi":470,"Ġgen":471,"Ġforb":472,"old":473,"Ġfrem":474,"ater":475,"Ġdette":476,"slag":477,"Parlament":478,"Ġman":479,"ĠKommission":480,"Parlamentet":481,"ff":482,"tte":483,"fter":484,"Ã¦nd":485,"tiv":486,"ci":487,"Ġunder":488,"ĠvÃ¦re":489,"ĠR":490,"Ġret":491,"Ġand":492,"nem":493,"Ġmedlem":494,"fÃ¸r":495,"Ã¸re":496,"heder":497,"igtig":498,"pp":499,"var":500,"isk":501,"age":502,"ok":503,"tt":504,"Ã¦g":505,"Ã¦iske":506,"isse":507,"lev":508,"get":509,"ligt":510,"eller":511,"ort":512,"ĠEuropa":513,"elt":514,"les":515,"elser":516,"ene":517,"Ġkun":518,"Ġudv":519,"ss":520,"sst":521,"ores":522,"Ġnog":523,"ret":524,"Ġalle":525,"hand":526,"itet":527,"eget":528,"Ġarbej":529,"rÃ¥":530,"Ġ1":531,"elsen":532,"Ġgru":533,"Ġblev":534,"ft":535,"Ġher":536,"Ġvores":537,"Ġhvor":538,"skab":539,"Ã¸d":540,"00":541,"ige":542,"Ġ2":543,"Ġend":544,"ĠF":545,"yd":546,"av":547,"ĠKommissionen":548,"ĠDe":549,"Ġbli":550,"Ġmeget":551,"ks":552,"Ã¸rg":553,"lu":554,"ĠU":555,"Ġsik":556,"Hr":557,"Ġeller":558,"Ġmin":559,"ak":560,"ĠS":561,"smÃ¥l":562,"Ġeurop":563,"Ġny":564,"yn":565,"Ġvar":566,"Ġpoliti":567,"kon":568,"ĠfÃ¸r":569,"ist":570,"Ã¸rgsmÃ¥l":571,"Ã¸j":572,"Ġdem":573,"Ã¦nkning":574,"Ġmu":575,"ser":576,"Ġhr":577,"ĠÃ¥r":578,"vÃ¦r":579,"men":580,"Ġdisse":581,"Ġgennem":582,"Ġvigtig":583,"rug":584,"art":585,"Ġmod":586,"Der":587,"vend":588,"und":589,"di":590,"igt":591,"Ġos":592,"Ã¦lles":593,"Ġfin":594,"ĠParlamentet":595,"ce":596,"Ġefter":597,"Ġland":598,"ĠstÃ¸":599,"ĠbÃ¸r":600,"val":601,"Ġmedlemsst":602,"red":603,"yg":604,"org":605,"hold":606,"konom":607,"ĠspÃ¸rgsmÃ¥l":608,"Ġgerne":609,"sfor":610,"elle":611,"kk":612,"Ġnu":613,"ĠRÃ¥":614,"ellem":615,"Ġinter":616,"est":617,"sÃ¦r":618,"Ġkomm":619,"arbej":620,"ĠbetÃ¦nkning":621,"tal":622,"ĠB":623,"sat":624,"Ġmedlemsstater":625,"yr":626,"Ġkl":627,"ĠM":628,"Ġderes":629,"ber":630,"ager":631,"ande":632,"ĠÃ¦nd":633,"sÃ¦":634,"elv":635,"handling":636,"mer":637,"Ġgrund":638,"Ã¸l":639,"Ġgi":640,"Ġmellem":641,"del":642,"Ġforslag":643,"Ġmere":644,"ering":645,"ion":646,"Ġhens":647,"ark":648,"Ġvir":649,"Ġtid":650,"ĠvÃ¦r":651,"Ġdag":652,"je":653,"me":654,"mp":655,"ĠRÃ¥det":656,"ĠfÃ¦lles":657,"Ġudvik":658,"ast":659,"Ġdi":660,"ĠÃ¸konom":661,"ighed":662,"ket":663,"elige":664,"ĠnÃ¸d":665,"op":666,"agt":667,"Ġbesk":668,"Den":669,"ĠeuropÃ¦iske":670,"ave":671,"Ġbek":672,"Ġbeslu":673,"tag":674,"vi":675,"blem":676,"ĠA":677,"Ġmennes":678,"land":679,"lÃ¦g":680,"mme":681,"Ġselv":682,"den":683,"ĠI":684,"ĠgÃ¸re":685,"Ġres":686,"ninger":687,"ningen":688,"Ġmil":689,"For":690,"ekt":691,"Âł":692,"sÃ¸":693,"'s":694,"Ġforsk":695,"dan":696,"ele":697,"rer":698,"Ġforbind":699,"Ġsid":700,"ĠlÃ¸":701,"Ġstor":702,"Ġpr":703,"eks":704,"Ġbeg":705,"Ġandre":706,"ĠomrÃ¥":707,"rÃ¦n":708,"arked":709,"idler":710,"ktiv":711,"Ã¦ng":712,"Ġhvis":713,"stem":714,"ĠÃ¦ndring":715,"tter":716,"este":717,"Ġmig":718,"tninger":719,"ran":720,"ĠÃ¸n":721,"Ġord":722,"lan":723,"Ġra":724,"lighed":725,"yder":726,"Ġgod":727,"ĠfÃ¥":728,"Ġproblem":729,"as":730,"Ġhand":731,"fat":732,"oci":733,"Ġarbejd":734,"eligt":735,"Ġbliver":736,"Ġ(":737,"ksom":738,"lik":739,"gang":740,"Ġim":741,"idt":742,"Ġudvikling":743,"svar":744,"sforslag":745,"rol":746,"edes":747,"Ġfort":748,"gra":749,"ĠstÃ¸tte":750,"us":751,"Ġhen":752,"ĠL":753,"Ġinden":754,"ĠnÃ¦":755,"ien":756,"ult":757,"Ġderfor":758,"ati":759,"Ġkunne":760,"ten":761,"unkt":762,"Ġnye":763,"ĠT":764,"elses":765,"Ġuden":766,"jer":767,"ationale":768,"lo":769,"Ġmener":770,"Ġmange":771,"mÃ¦r":772,"rag":773,"Ġlande":774,"ch":775,"ĠEuropÃ¦iske":776,"Ġforbindelse":777,"Ġsit":778,"Ġhave":779,"ĠG":780,"Ġlov":781,"gÃ¸r":782,"let":783,"Ġmennesker":784,"Ġblevet":785,"kerhed":786,"ĠDen":787,"ĠnÃ¸dvend":788,"ly":789,"ĠÃ¸nsk":790,"du":791,"Ġville":792,"Ġkonk":793,"giv":794,"Ġbed":795,"ommissÃ¦r":796,"Ġmind":797,"ĠP":798,"Ġhensyn":799,"nion":800,"De":801,"rati":802,"ĠnÃ¥r":803,"tet":804,"Ġhvil":805,"um":806,"Ġfinan":807,"Ġblive":808,"rig":809,"ytt":810,"gende":811,"yl":812,"ĠDet":813,"Ġ200":814,"ĠC":815,"ers":816,"Ġsin":817,"cer":818,"nu":819,"jen":820,"Ġste":821,"ĠkommissÃ¦r":822,"stal":823,"ĠhÃ¥":824,"Ġsige":825,"rÃ¸":826,"ĠhÃ¸j":827,"Ġhvad":828,"Ġte":829,"tere":830,"Ġto":831,"Ġsoci":832,"Ġnogle":833,"lag":834,"sti":835,"ĠfÃ¸rste":836,"tu":837,"Ġsammen":838,"ingen":839,"Ġdire":840,"anstal":841,"ĠsÃ¦r":842,"ĠUnion":843,"ner":844,"Ġbeslutning":845,"blik":846,"tigheder":847,"ĠmÃ¥l":848,"ĠfÃ¸l":849,"Ġsy":850,"ister":851,"Ġtilf":852,"Ġfordi":853,"sen":854,"Ġkom":855,"ven":856,"arbejde":857,"Ġalt":858,"hol":859,"Ġhan":860,"pro":861,"Ġlig":862,"Ġad":863,"udget":864,"Ġvigtigt":865,"som":866,"Ġreg":867,"lere":868,"inger":869,"ĠstÃ¸r":870,"dt":871,"Ġmarked":872,"af":873,"ktion":874,"ĠÃ¸nsker":875,"Ã¸de":876,"form":877,"ry":878,"ĠÃ¦ndringsforslag":879,"ĠvÃ¦ret":880,"Ġfast":881,"fÃ¸rer":882,"uation":883,"Ġaller":884,"Ġbrug":885,"Ġsikre":886,"Ġkont":887,"Men":888,"ken":889,"Ġarbejde":890,"alt":891,"ĠHr":892,"olitik":893,"vet":894,"Ġdel":895,"Ġfinansi":896,"ftig":897,"okrati":898,"Ġoff":899,"Ġreger":900,"ĠgÃ¸r":901,"Ġnoget":902,"Ã¥et":903,"Ġforhandling":904,"ces":905,"Ġvis":906,"Ã¦re":907,"ren":908,"ford":909,"ynd":910,"ror":911,"bet":912,"Ġek":913,"atur":914,"anstaltninger":915,"Ġful":916,"oner":917,"ĠDem":918,"Ġsituation":919,"Ġintern":920,"Ã¥b":921,"os":922,"stitu":923,"Ġallerede":924,"ligere":925,"Ġforskel":926,"ĠsÃ¥dan":927,"alg":928,"alis":929,"valget":930,"jÃ¸":931,"Ġhelt":932,"Ġsag":933,"dere":934,"ej":935,"are":936,"Ġendnu":937,"ĠgennemfÃ¸r":938,"kl":939,"mmer":940,"vin":941,"Hv":942,"Ã¦ss":943,"spro":944,"Ġkol":945,"Ġbef":946,"ets":947,"ffek":948,"Ġstil":949,"rÃ¸r":950,"brug":951,"ĠÃ¸konomiske":952,"Ġkr":953,"Ġstad":954,"lad":955,"Ã©":956,"Ġle":957,"Ġhold":958,"ald":959,"Ġsted":960,"Ġmedlemsstaterne":961,"Ġpolitik":962,"gÃ¥r":963,"stitution":964,"Ġfru":965,"anske":966,"kel":967,"Ġda":968,"Ġregi":969,"rakt":970,"au":971,"kter":972,"Ġfores":973,"Ġbeh":974,"jÃ¦l":975,"eres":976,"Ġver":977,"Ġtal":978,"Ġoffent":979,"Ġsikkerhed":980,"Ġpolitiske":981,"Ġtilb":982,"Ġprodu":983,"Ġdemokrati":984,"try":985,"min":986,"ĠmÃ¥de":987,"Ġhele":988,"Ġbetyd":989,"ridt":990,"ier":991,"Ġpar":992,"Ġse":993,"Ġstra":994,"Ġnatur":995,"Ġkomp":996,"Ġmuligt":997,"ĠKommissionens":998,"Ġkolle":999,"Ġlang":1000,"trÃ¦":1001,"Ġansvar":1002,"inci":1003,"Ġanden":1004,"avn":1005,"ĠeuropÃ¦":1006,"Ġsi":1007,"Ġandet":1008,"stre":1009,"Ġpri":1010,"ĠvedrÃ¸r":1011,"fÃ¸re":1012,"ode":1013,"Ġgive":1014,"anis":1015,"Ġhvilket":1016,"jÃ¦lp":1017,"Ġstadig":1018,"tisk":1019,"Ġbudget":1020,"sÃ¸g":1021,"Ġforanstaltninger":1022,"Ġ\"":1023,"cep":1024,"gÃ¥":1025,"Ġvirksom":1026,"ĠN":1027,"Ġeg":1028,"stru":1029,"ligvis":1030,"Ġbeste":1031,"Ġc":1032,"Ġanvend":1033,"idlertid":1034,"Ġborg":1035,"Ġfremtid":1036,"Ġinteres":1037,"ĠgÃ¦l":1038,"Ġmulighed":1039,"Ġ19":1040,"ĠmiljÃ¸":1041,"Ġeffek":1042,"Ġkra":1043,"mt":1044,"Derfor":1045,"Ã¦mp":1046,"Ã¥ledes":1047,"Ġstore":1048,"ap":1049,"Ġly":1050,"ves":1051,"nings":1052,"Ġgang":1053,"ĠgÃ¥r":1054,"Ġska":1055,"Ġhav":1056,"Ġforskellige":1057,"Ġtek":1058,"Ġpo":1059,"ut":1060,"ÂłÂł":1061,"Ġli":1062,"Ġlovgiv":1063,"kelig":1064,"Ġnem":1065,"ĠisÃ¦r":1066,"Ġregering":1067,"Ġener":1068,"ced":1069,"Ġtage":1070,"tighed":1071,"ob":1072,"Hvis":1073,"Ã¥de":1074,"Ġklart":1075,"Ġsamarbejde":1076,"Ġnogen":1077,"res":1078,"sent":1079,"Ġsamme":1080,"ĠsÃ¥ledes":1081,"eret":1082,"ringer":1083,"Ġgodt":1084,"ĠprÃ¦":1085,"rupp":1086,"raktat":1087,"Ġsidste":1088,"ektor":1089,"ĠomrÃ¥de":1090,"Ġsu":1091,"Ġgrupp":1092,"gen":1093,"Ã¦rd":1094,"slu":1095,"aft":1096,"Ġfri":1097,"Ġyder":1098,"Ġdirektiv":1099,"Ġnemlig":1100,"ordan":1101,"Ġforbed":1102,"terne":1103,"Ġkonkur":1104,"Ġgj":1105,"Ġstyr":1106,"hÃ¦ng":1107,"Dette":1108,"Ġforesl":1109,"Ġplan":1110,"olkning":1111,"Ġbehov":1112,"ĠnÃ¦v":1113,"fund":1114,"ĠkrÃ¦":1115,"Ġforhold":1116,"Ġmenneskeret":1117,"ust":1118,"fÃ¸l":1119,"ĠeuropÃ¦isk":1120,"sb":1121,"Ġfol":1122,"Ġem":1123,"Ġkommer":1124,"ĠafgÃ¸r":1125,"eri":1126,"taget":1127,"ccep":1128,"hver":1129,"ktur":1130,"Ġmine":1131,"Ġpers":1132,"ĠtrÃ¦":1133,"ĠJeg":1134,"Ġbid":1135,"Ġund":1136,"lede":1137,"igheder":1138,"Ġblo":1139,"Ġudtry":1140,"heden":1141,"ĠhjÃ¦lp":1142,"Kommission":1143,"ĠtilfÃ¦l":1144,"Ġlige":1145,"ass":1146,"orden":1147,"ĠlÃ¸s":1148,"Ġopn":1149,"net":1150,"ĠV":1151,"Ġforst":1152,"Ġgiver":1153,"Ġimidlertid":1154,"Ġstat":1155,"vinder":1156,"Ġpunkt":1157,"Ġflere":1158,"fi":1159,"ationer":1160,"our":1161,"Ġtale":1162,"Ġvel":1163,"Ġinstitution":1164,"len":1165,"Ġresult":1166,"ĠH":1167,"fatt":1168,"sport":1169,"stÃ¦nd":1170,"Ġkonkurren":1171,"im":1172,"akke":1173,"Ġhver":1174,"Ã¦kke":1175,"Ġmang":1176,"set":1177,"ĠangÃ¥r":1178,"la":1179,"ĠordfÃ¸rer":1180,"incipp":1181,"med":1182,"Ġnationale":1183,"Ã¦ftig":1184,"Ġvirkelig":1185,"Ġnet":1186,"oder":1187,"Ġside":1188,"yttelse":1189,"Ġblot":1190,"ĠstÃ¸rre":1191,"Ġig":1192,"Ġ%":1193,"Ġsamt":1194,"Ġproblemer":1195,"tive":1196,"ativ":1197,"Ġstand":1198,"kend":1199,"Ġkontrol":1200,"fte":1201,"ĠUd":1202,"ĠstÃ¥r":1203,"eder":1204,"rund":1205,"ĠnÃ¸dvendigt":1206,"byg":1207,"Ġinde":1208,"tegi":1209,"ĠomrÃ¥der":1210,"Ġeffektiv":1211,"lÃ¦":1212,"Ġ3":1213,"ĠhÃ¥ber":1214,"Ġbedre":1215,"Ġopford":1216,"vÃ¦rende":1217,"Ġmening":1218,"Ġdog":1219,"Ġvan":1220,"ĠrÃ¥":1221,"ĠfÃ¥r":1222,"ĠFor":1223,"elserne":1224,"olog":1225,"Ġunderstre":1226,"Ġnaturligvis":1227,"Ġrettigheder":1228,"sland":1229,"vir":1230,"vil":1231,"Ġhavde":1232,"fer":1233,"Ġsen":1234,"ekter":1235,"Ġser":1236,"ĠDeres":1237,"rik":1238,"Ġvalg":1239,"Ġtro":1240,"Ġhur":1241,"Ġlandbrug":1242,"organis":1243,"Ã¸n":1244,"Ġtred":1245,"spunkt":1246,"ange":1247,"Ġholdning":1248,"Ġsociale":1249,"ĠbetÃ¦nkningen":1250,"Ġhurtig":1251,"ĠsÃ¦":1252,"prÃ¦":1253,"omrÃ¥":1254,"Ġred":1255,"Ġgra":1256,"sf":1257,"ĠÃ¥b":1258,"Ġregion":1259,"Ġ20":1260,"Ġimod":1261,"ĠbeskÃ¦ftig":1262,"Ġtror":1263,"aget":1264,"ilitet":1265,"tale":1266,"ori":1267,"ĠgrÃ¦n":1268,"ĠdrÃ¸":1269,"Ġbefolkning":1270,"Ã¸rer":1271,"Ġenergi":1272,"ĠgrundlÃ¦g":1273,"Ġun":1274,"over":1275,"Ġhvordan":1276,"Ġkvinder":1277,"Ġfremme":1278,"Ġrol":1279,"ustri":1280,"ĠvedrÃ¸rende":1281,"ĠrÃ¦kke":1282,"Ġformandskab":1283,"sten":1284,"yld":1285,"ĠbÃ¥de":1286,"lys":1287,"ĠopmÃ¦r":1288,"Og":1289,"Ġlovgivning":1290,"Ġtran":1291,"Kommissionen":1292,"Ġsvar":1293,"fÃ¦rd":1294,"cen":1295,"Ġtilbage":1296,"ĠgrundlÃ¦ggende":1297,"Ġvirksomheder":1298,"Ġsm":1299,"ĠÃ¸je":1300,"Ġsiden":1301,"undhed":1302,"Ġfortsat":1303,"teg":1304,"Ġindsat":1305,"ds":1306,"Ġgener":1307,"amer":1308,"Som":1309,"Ġingen":1310,"Ġrolle":1311,"Ġskul":1312,"Ġtjen":1313,"Ġkomme":1314,"Ġgjort":1315,"Ġtak":1316,"sÃ¦tte":1317,"em":1318,"spolitik":1319,"Ġinternationale":1320,"Ġaccep":1321,"ĠglÃ¦":1322,"Ġpolitisk":1323,"Ġskabe":1324,"Ġkons":1325,"Ġ199":1326,"ym":1327,"Ġsamfund":1328,"Med":1329,"menter":1330,"Ġlu":1331,"Ġskulle":1332,"Ãĺ":1333,"dann":1334,"Ġfremsk":1335,"strÃ¦":1336,"Ġeuro":1337,"Ġdelt":1338,"Ġmilli":1339,"Ġverden":1340,"Ġtakke":1341,"Ġposi":1342,"Ġpen":1343,"ĠstÃ¸tter":1344,"Ġkolleger":1345,"Ġvansk":1346,"Ġmindre":1347,"vor":1348,"Ġprogra":1349,"Ġnavn":1350,"SA":1351,"Ġgrad":1352,"isker":1353,"ĠbekÃ¦mp":1354,"Ġned":1355,"tiske":1356,"ges":1357,"sik":1358,"led":1359,"Ġalvor":1360,"Ġforp":1361,"Ġtekn":1362,"ĠfÃ¸rst":1363,"ytte":1364,"Ġigen":1365,"stil":1366,"Ġter":1367,"vent":1368,"sÃ¦tt":1369,"Ġeks":1370,"Ġiniti":1371,"Ġspil":1372,"PÃ¥":1373,"ĠÃ¸konomisk":1374,"Ġanm":1375,"bat":1376,"ant":1377,"Ġopret":1378,"Ġforh":1379,"ĠreprÃ¦":1380,"ĠgÃ¦lder":1381,"ĠopmÃ¦rksom":1382,"orger":1383,"ĠParlamentets":1384,"Ġfors":1385,"Ġklar":1386,"Ġmidler":1387,"raktaten":1388,"ive":1389,"Ġbekym":1390,"Ġmedlemmer":1391,"Ġfuld":1392,"Ã¸b":1393,"ĠnuvÃ¦rende":1394,"ĠrÃ¥d":1395,"aktisk":1396,"ĠÃ¸jeblik":1397,"Ġretning":1398,"lob":1399,"komm":1400,"Hvad":1401,"ko":1402,"Ġudvid":1403,"tidig":1404,"sid":1405,"Ġfred":1406,"Ã¦ssige":1407,"Ġdisk":1408,"En":1409,"Ġdre":1410,"Ġtre":1411,"ment":1412,"iet":1413,"Ġvigtige":1414,"Ġkris":1415,"Ġindsats":1416,"ultur":1417,"ordning":1418,"Ġresp":1419,"ttet":1420,"Ġfinder":1421,"Ġrigtig":1422,"Ġbi":1423,"tikel":1424,"ĠspÃ¸rgsmÃ¥let":1425,"ĠopnÃ¥":1426,"Ġfinansielle":1427,"Ġsagt":1428,"kken":1429,"yrk":1430,"Ã¦ld":1431,"Ġnetop":1432,"Ġherrer":1433,"Ġparlament":1434,"ĠUSA":1435,"Ġhel":1436,"ligheder":1437,"ĠvÃ¦k":1438,"esk":1439,"Ġdebat":1440,"Ġfat":1441,"Ġ5":1442,"Ġdamer":1443,"Ġmynd":1444,"oved":1445,"Ġaftal":1446,"hÃ¦":1447,"stra":1448,"Ġtidligere":1449,"ĠbegrÃ¦n":1450,"Ġfordel":1451,"iveau":1452,"Ġdes":1453,"Ġsundhed":1454,"ĠgÃ¥":1455,"Ġmenneskerettighed":1456,"ma":1457,"tage":1458,"ĠafgÃ¸rende":1459,"Ã¸s":1460,"Ġfinde":1461,"indes":1462,"kte":1463,"Ġaftale":1464,"Ġfaktisk":1465,"holder":1466,"Ġbestemm":1467,"Ġaktiv":1468,"Ġfremskridt":1469,"Ġsocial":1470,"ruger":1471,"ĠbemÃ¦r":1472,"terer":1473,"Ġperson":1474,"ruktur":1475,"kker":1476,"Ġris":1477,"Fru":1478,"under":1479,"Ġglob":1480,"mte":1481,"unkter":1482,"lov":1483,"udvalget":1484,"gt":1485,"politik":1486,"Ġhenblik":1487,"Ġvisse":1488,"ĠtilfÃ¦lde":1489,"Ġstemme":1490,"Ġoffentlige":1491,"Denne":1492,"vand":1493,"stemm":1494,"feren":1495,"vens":1496,"teret":1497,"Ġfr":1498,"Ġbetydning":1499,"yde":1500,"ĠÃĺ":1501,"Ġtager":1502,"Ġforpligt":1503,"Ġfa":1504,"Ġafslu":1505,"Ġla":1506,"Ġskab":1507,"Ġborgere":1508,"Ġkval":1509,"Ġafstem":1510,"anden":1511,"strÃ¦kk":1512,"ĠW":1513,"Ġtaler":1514,"Ġ4":1515,"eci":1516,"Ġfolk":1517,"Ġinform":1518,"ĠUdvalget":1519,"Ġnavnlig":1520,"ĠfÃ¦llesskab":1521,"ban":1522,"Ġdrejer":1523,"Ġartikel":1524,"sorden":1525,"Ġindre":1526,"Ġopf":1527,"amp":1528,"Ġforet":1529,"Ġting":1530,"ĠRÃ¥dets":1531,"uler":1532,"Ġtru":1533,"Ġprincipp":1534,"Ġbev":1535,"Ġfindes":1536,"Ġkor":1537,"Ã¸det":1538,"ĠfÃ¸lge":1539,"ĠnÃ¥":1540,"Ġbehand":1541,"ure":1542,"Ġgrundlag":1543,"Ġsystem":1544,"ĠtrÃ¦ff":1545,"ĠordfÃ¸reren":1546,"ĠJ":1547,"ĠsÃ¦rlig":1548,"Ġpra":1549,"Ġoplys":1550,"Ġyderligere":1551,"Ġber":1552,"ug":1553,"Ġfisker":1554,"vel":1555,"uden":1556,"ystem":1557,"ational":1558,"entr":1559,"Ġorganis":1560,"ĠO":1561,"Ġkonkurrence":1562,"rid":1563,"Ġbil":1564,"ĠmÃ¥ske":1565,"Ġsyn":1566,"dens":1567,"Ġspeci":1568,"omst":1569,"Ġregler":1570,"ĠstÃ¦r":1571,"sag":1572,"ris":1573,"syn":1574,"Ġbl":1575,"Ġbag":1576,"Ġvidere":1577,"eringen":1578,"Ġsagde":1579,"cedur":1580,"Ġkrav":1581,"ygtig":1582,"EU":1583,"Ġaltid":1584,"ĠnÃ¦vn":1585,"Ġvedtaget":1586,"Ġadgang":1587,"sÃ¦tning":1588,"Ġstruktur":1589,"ĠindfÃ¸r":1590,"isme":1591,"Ġsektor":1592,"raf":1593,"fin":1594,"Ġhans":1595,"tioner":1596,"ĠlÃ¦ng":1597,"stand":1598,"klÃ¦r":1599,"ruppen":1600,"mmet":1601,"mber":1602,"Ã¦llesskab":1603,"tes":1604,"Ġuddann":1605,"Ġfun":1606,"omme":1607,"uelle":1608,"ĠlÃ¸sning":1609,"semp":1610,"Ġaner":1611,"Ġstab":1612,"rede":1613,"Ġhandling":1614,"skri":1615,"rage":1616,"Ġbetyder":1617,"iss":1618,"iteter":1619,"Ġkri":1620,"arbejdet":1621,"Ġinves":1622,"ĠnÃ¸dvendige":1623,"Ġkultur":1624,"Ġled":1625,"trÃ¦d":1626,"viv":1627,"Ġdagsorden":1628,"Ġlangt":1629,"Ġsine":1630,"ĠnÃ¦r":1631,"ĠglÃ¦der":1632,"ĠforsÃ¸":1633,"Ġmest":1634,"Ġgruppe":1635,"holde":1636,"Ġenig":1637,"Ġsiger":1638,"ĠvÃ¦sent":1639,"ĠnÃ¸dt":1640,"Ġproj":1641,"aler":1642,"Ġudn":1643,"Ġbetrag":1644,"ire":1645,"ĠhÃ¥nd":1646,"Ġeksemp":1647,"Ġpres":1648,"ore":1649,"ĠformÃ¥l":1650,"tering":1651,"dag":1652,"Ġpart":1653,"Ġkonsek":1654,"arder":1655,"Ġsynes":1656,"Ġudtryk":1657,"Ġopfatt":1658,"ont":1659,"End":1660,"ĠundersÃ¸g":1661,"Al":1662,"Ġskridt":1663,"sam":1664,"vist":1665,"Ġjo":1666,"ceret":1667,"mb":1668,"ac":1669,"Ġomfat":1670,"sret":1671,"Ġti":1672,"ĠmÃ¥n":1673,"urder":1674,"Ġmillioner":1675,"ond":1676,"grund":1677,"yp":1678,"Ġfremm":1679,"erer":1680,"Ġinteresser":1681,"Ġsv":1682,"ĠlÃ¦ngere":1683,"ĠbÃ¦r":1684,"Ġterror":1685,"ir":1686,"ot":1687,"gifter":1688,"Ġtyd":1689,"alog":1690,"aritet":1691,"ĠvÃ¦rdi":1692,"ĠÃ¸v":1693,"Ġven":1694,"Ġsn":1695,"Ġoverve":1696,"ĠbÃ¸rn":1697,"Ġvej":1698,"ĠsmÃ¥":1699,"hÃ¸r":1700,"iddel":1701,"ga":1702,"Ġko":1703,"lagt":1704,"Ġtjeneste":1705,"Ġborgerne":1706,"Ġmit":1707,"ĠÃ©":1708,"Ġkonkret":1709,"Ġmyndigheder":1710,"elighed":1711,"ĠFÃ¦llesskab":1712,"Ġbeskyttelse":1713,"ydelser":1714,"behandling":1715,"Ġsikker":1716,"Ġfattig":1717,"Ġudtal":1718,"ĠÃ¸jeblikket":1719,"Ġsamtidig":1720,"Ġenk":1721,"Ġforsvar":1722,"Ġviser":1723,"Ġrisik":1724,"Ġci":1725,"ĠmÃ¸de":1726,"sour":1727,"Ġheller":1728,"aterne":1729,"Ġborger":1730,"fl":1731,"Ġstyrke":1732,"vÃ¦rre":1733,"Ġstrategi":1734,"cessen":1735,"Ġne":1736,"Ġforud":1737,"ĠdrÃ¸ft":1738,"dom":1739,"vik":1740,"Ġbr":1741,"Ġnok":1742,"vende":1743,"Ġstig":1744,"vivl":1745,"Ã¸devar":1746,"Ġakt":1747,"ĠhÃ¸r":1748,"ĠtilstrÃ¦kk":1749,"ĠkrÃ¦ver":1750,"aran":1751,"issab":1752,"entlig":1753,"ĠÃ¸vr":1754,"Ġpass":1755,"Ġtidspunkt":1756,"ĠvÃ¦kst":1757,"alen":1758,"splan":1759,"Ġkort":1760,"Ġsituationen":1761,"olitikken":1762,"lid":1763,"Ġbidrag":1764,"Ġsol":1765,"Ġresultat":1766,"Ġ10":1767,"Ġofte":1768,"Ġpris":1769,"aser":1770,"ĠgennemfÃ¸re":1771,"lende":1772,"rom":1773,"Ġunderstrege":1774,"Ġinstitutioner":1775,"kra":1776,"Ġasp":1777,"Parlamentets":1778,"hav":1779,"ĠnÃ¦ste":1780,"Ġhol":1781,"Ġoplysninger":1782,"elsk":1783,"Ġdets":1784,"Ã¥ende":1785,"Ġlidt":1786,"Ġforbedre":1787,"Ġinformation":1788,"Ġtaget":1789,"ern":1790,"Ġfler":1791,"Ġdialog":1792,"ĠFru":1793,"Ġseneste":1794,"ance":1795,"ic":1796,"Ġforslaget":1797,"ĠreprÃ¦sent":1798,"fald":1799,"Ã¸rge":1800,"Ã¦st":1801,"Ġskat":1802,"bru":1803,"Ġrej":1804,"Ġinstru":1805,"ĠVi":1806,"ĠlÃ¦g":1807,"arbejd":1808,"Ġtransport":1809,"ĠLissab":1810,"ina":1811,"Ġgivet":1812,"ensstemm":1813,"Ġredu":1814,"Ġrette":1815,"erede":1816,"200":1817,"Ġmis":1818,"ages":1819,"Ġopfattelse":1820,"progra":1821,"Ġfuldt":1822,"fal":1823,"Ã¦nkningen":1824,"Ġfremtiden":1825,"usland":1826,"Efter":1827,"Ġtredje":1828,"Ġenkelt":1829,"Ġch":1830,"ĠforstÃ¥":1831,"ine":1832,"Ġdens":1833,"Ã¦v":1834,"ĠbÃ¦red":1835,"Ġstedet":1836,"somrÃ¥":1837,"Ġviden":1838,"stag":1839,"Ġudford":1840,"endt":1841,"Ġvold":1842,"ĠerklÃ¦r":1843,"Ġligger":1844,"ĠtÃ¦n":1845,"liggen":1846,"liggender":1847,"Ġopfyl":1848,"Ġinitiativ":1849,"SÃ¥":1850,"ĠFN":1851,"Af":1852,"Ġforbrug":1853,"Ġforval":1854,"Ġkommende":1855,"former":1856,"tionen":1857,"Ġgennems":1858,"van":1859,"Ġantal":1860,"Ġindustri":1861,"ĠTyrk":1862,"Ġbru":1863,"Ġstort":1864,"Ġhoved":1865,"Ġforfat":1866,"stat":1867,"Ġstemte":1868,"Ġhenhold":1869,"Ġdirekte":1870,"alitet":1871,"Ġluft":1872,"NÃ¥r":1873,"Ġgaran":1874,"opm":1875,"Ġnyt":1876,"Ġvist":1877,"Ġganske":1878,"ordin":1879,"Ġkli":1880,"Ġpositiv":1881,"Ġliges":1882,"Ġherunder":1883,"Ġliv":1884,"undet":1885,"Ġset":1886,"Ġoverbe":1887,"Ġidet":1888,"sra":1889,"Ġpenge":1890,"Ġkonsekvens":1891,"ative":1892,"ksis":1893,"romis":1894,"omrÃ¥det":1895,"Ġsker":1896,"ĠSt":1897,"sioner":1898,"Ġopr":1899,"fÃ¸lg":1900,"Ġkriti":1901,"Ġrets":1902,"vision":1903,"Ġlet":1904,"EN":1905,"Ġeneste":1906,"Ġeksister":1907,"alget":1908,"sel":1909,"tern":1910,"ĠEuropas":1911,"ĠbemÃ¦rkning":1912,"ĠsÃ¸":1913,"ffer":1914,"Ġbel":1915,"reg":1916,"smarked":1917,"enter":1918,"ensstemmelse":1919,"ĠfÃ¸devar":1920,"ĠfuldstÃ¦nd":1921,"Ġerhver":1922,"Ġforskning":1923,"Ġbeting":1924,"Ġgenop":1925,"Ġhurtigt":1926,"Ġlok":1927,"tilling":1928,"Et":1929,"Ġenkel":1930,"Ġkonst":1931,"Ġ6":1932,"Ã¦nge":1933,"Ġfjer":1934,"Ġkompromis":1935,"sÃ¦tter":1936,"Ġbestemmelser":1937,"istand":1938,"Ġtvivl":1939,"Ġindvand":1940,"Ġoverv":1941,"Ġverdens":1942,"Ġsty":1943,"landene":1944,"Ġru":1945,"ĠforeslÃ¥":1946,"ĠhjÃ¦lpe":1947,"Ġforordning":1948,"Des":1949,"tager":1950,"Ġkvalitet":1951,"Ġhos":1952,"ĠRusland":1953,"Ġoverensstemmelse":1954,"Ġmuligheder":1955,"Ġvigtigste":1956,"Ġgode":1957,"uropa":1958,"Ġmeddel":1959,"Ġvedtag":1960,"lÃ¦gge":1961,"Til":1962,"kost":1963,"Ġmorg":1964,"Ġmindst":1965,"Ġrapp":1966,"Ġforel":1967,"Ã¸se":1968,"Ġdat":1969,"ativer":1970,"Ġben":1971,"Ġdagsordenen":1972,"Ġramme":1973,"urde":1974,"Ġegen":1975,"elskab":1976,"Ġkonf":1977,"Ġudel":1978,"Ġslu":1979,"Disse":1980,"Ġmenneskerettighederne":1981,"Ġfej":1982,"okol":1983,"Ġtredj":1984,"eledes":1985,"ĠudgÃ¸r":1986,"lek":1987,"ĠfÃ¸re":1988,"vne":1989,"Ġgent":1990,"kende":1991,"ĠgennemfÃ¸relsen":1992,"cere":1993,"vÃ¦rd":1994,"Ã¥nd":1995,"Ġinteresse":1996,"Ġkap":1997,"ĠUnionen":1998,"Ġlever":1999,"Ġsand":2000,"Her":2001,"Ġeksempel":2002,"ster":2003,"indre":2004,"Ġsto":2005,"omstol":2006,"Ġdok":2007,"bs":2008,"Ã¸je":2009,"Man":2010,"Ġlej":2011,"mon":2012,"Ġenhver":2013,"Ġor":2014,"Ġerhverv":2015,"Ġpunkter":2016,"Ġhensigt":2017,"Ġvidt":2018,"gave":2019,"alisering":2020,"Ġhist":2021,"Ġressour":2022,"deles":2023,"ĠRe":2024,"afhÃ¦ng":2025,"gar":2026,"Ġsolid":2027,"Ġenkelte":2028,"mand":2029,"ĠÃ¥rs":2030,"Ġforen":2031,"amil":2032,"Ġdy":2033,"Ġbeslutninger":2034,"Ġkrise":2035,"Ġenige":2036,"isering":2037,"ĠretfÃ¦rd":2038,"ĠstÃ¸rste":2039,"000":2040,"produ":2041,"br":2042,"eriode":2043,"Ġmedlemsstaternes":2044,"Ġimp":2045,"ĠsammenhÃ¦ng":2046,"Ġstabilitet":2047,"gelse":2048,"tim":2049,"Ġbland":2050,"tokol":2051,"ĠkommissÃ¦ren":2052,"Ġudviklingen":2053,"Ġfremmest":2054,"ie":2055,"Ġag":2056,"Ġfar":2057,"Ġflertal":2058,"ĠbÃ¦redygtig":2059,"ĠÃ¦r":2060,"Ġhaft":2061,"egne":2062,"Ġbyg":2063,"ĠsÃ¦tte":2064,"rem":2065,"Ġopfordrer":2066,"Ġhandels":2067,"Ġburde":2068,"Ġanmod":2069,"20":2070,"Ġ201":2071,"Ġegne":2072,"vÃ¦rks":2073,"kast":2074,"tegra":2075,"ĠlÃ¦":2076,"mmerne":2077,"Endelig":2078,"tningen":2079,"Ġemne":2080,"ĠTyrkiet":2081,"Ġligeledes":2082,"teres":2083,"Ġoprind":2084,"ĠfÃ¥et":2085,"Ġhvert":2086,"ktioner":2087,"Ġpriori":2088,"Ġprodukter":2089,"Ġtrods":2090,"merne":2091,"Ġban":2092,"fra":2093,"tik":2094,"Ġbaser":2095,"vikling":2096,"Ġid":2097,"Ġjur":2098,"reb":2099,"ningerne":2100,"Ġarbejds":2101,"Ġfok":2102,"Ġskyld":2103,"Ġske":2104,"Ġanvendelse":2105,"Ġforhandlinger":2106,"Ġmorgen":2107,"Ġford":2108,"Ġudelu":2109,"Ġhenvis":2110,"Ġkamp":2111,"Lad":2112,"edlem":2113,"Ġfl":2114,"Ġpraksis":2115,"Ġdirektivet":2116,"fÃ¸rt":2117,"ationen":2118,"dem":2119,"Ġsket":2120,"Ġdefin":2121,"Ġpartner":2122,"par":2123,"tab":2124,"gÃ¦ld":2125,"teringer":2126,"Ġbestemt":2127,"far":2128,"ĠvedrÃ¸rer":2129,"Ġforbruger":2130,"kring":2131,"ĠtÃ¦":2132,"Ġfiskeri":2133,"Ġudvalg":2134,"Ġ7":2135,"Ã¸der":2136,"Ġlandet":2137,"Ġ8":2138,"ĠIn":2139,"kket":2140,"Ġomfatt":2141,"ia":2142,"minist":2143,"Ġmenneskerettigheder":2144,"Ġudenrig":2145,"rog":2146,"Selv":2147,"orer":2148,"eten":2149,"ĠÃ¥ben":2150,"Ġpersoner":2151,"lade":2152,"Ġvurder":2153,"Ġkoordin":2154,"ester":2155,"ektoren":2156,"astro":2157,"Ġpriv":2158,"ĠivÃ¦rks":2159,"Ġfrihed":2160,"Ġene":2161,"ĠforsÃ¸g":2162,"Ġgodkend":2163,"ringe":2164,"ynde":2165,"Ġhandel":2166,"Ġbest":2167,"Ġbare":2168,"sident":2169,"Â«":2170,"Ġvegne":2171,"fik":2172,"Ġindeholder":2173,"Ġpolitikker":2174,"Ġbevar":2175,"ĠomstÃ¦nd":2176,"Ġproduktion":2177,"Ġinv":2178,"hÃ¸righed":2179,"Ġtv":2180,"Ġniveau":2181,"ĠmÃ¥neder":2182,"smÃ¦ss":2183,"Ġbetragtning":2184,"ful":2185,"Ġintegra":2186,"Ġhje":2187,"ĠindfÃ¸re":2188,"Ġforeg":2189,"Ġoffentlig":2190,"smÃ¦ssige":2191,"ĠprÃ¦c":2192,"Ġeffektivt":2193,"Ġtilfred":2194,"Ġhandler":2195,"TO":2196,"sy":2197,"smedlem":2198,"Ġeng":2199,"Ġomkring":2200,"Ġrespekt":2201,"Ġklima":2202,"ĠbestrÃ¦":2203,"struktur":2204,"gere":2205,"videre":2206,"Ġanerkend":2207,"Ġacceptere":2208,"Ġgennemsigtig":2209,"ĠuafhÃ¦ng":2210,"Ġrent":2211,"sigt":2212,"ĠtrÃ¦ffe":2213,"Ġfald":2214,"ĠÃ¦ndringer":2215,"ĠfortsÃ¦tte":2216,"Ġdermed":2217,"ttes":2218,"ĠSch":2219,"ĠfremhÃ¦":2220,"Ġmilit":2221,"Ġteknolog":2222,"Ġbistand":2223,"satte":2224,"ument":2225,"ĠÃ¸konomi":2226,"Ud":2227,"Ġfamil":2228,"Ġuddannelse":2229,"ĠgÃ¸res":2230,"atastro":2231,"cces":2232,"Ġetab":2233,"iv":2234,"Ġhvilke":2235,"Ġbeskytt":2236,"io":2237,"ici":2238,"Ġof":2239,"Ġresultater":2240,"Ġkonflik":2241,"Ġdemokratiske":2242,"sikkerhed":2243,"ĠaltsÃ¥":2244,"ender":2245,"DE":2246,"Ġbidrage":2247,"ĠundgÃ¥":2248,"mÃ¦ssige":2249,"Ġunge":2250,"ĠgrÃ¦nse":2251,"Ġtillid":2252,"Ġfinansiering":2253,"Ġstillet":2254,"fÃ¸lge":2255,"Ġvanskelig":2256,"ĠovervÃ¥":2257,"Ġgange":2258,"Ġfem":2259,"cent":2260,"Ġbehandling":2261,"Ġsucces":2262,"entral":2263,"Ġel":2264,"ĠdesvÃ¦rre":2265,"Ġjurid":2266,"Ġopgave":2267,"Ġanvendes":2268,"inder":2269,"gÃ¥ende":2270,"Ġabs":2271,"Ġdyr":2272,"ĠlÃ¸se":2273,"ĠKon":2274,"Ġtredjel":2275,"Ġ9":2276,"Ġ15":2277,"sn":2278,"Ġfly":2279,"Ġforret":2280,"merik":2281,"aly":2282,"\".":2283,"Ġsat":2284,"Ġeksp":2285,"Ġstille":2286,"Ġrigtigt":2287,"Ġbeskytte":2288,"ĠInd":2289,"Ġafsk":2290,"ĠlÃ¦nge":2291,"rÃ¸n":2292,"klar":2293,"cedure":2294,"ĠnÃ¦vnt":2295,"ĠsÃ¥danne":2296,"Ġeftersom":2297,"rincipp":2298,"Ġarbejder":2299,"Ġtilslu":2300,"ĠAl":2301,"Ġmagt":2302,"Ã¥det":2303,"Ġbedste":2304,"organ":2305,"Ġsolidaritet":2306,"ebyg":2307,"Ġomfattende":2308,"Gruppen":2309,"Ġenighed":2310,"akter":2311,"ĠsÃ¦rdeles":2312,"Ġamb":2313,"Ġgrupper":2314,"kes":2315,"tifi":2316,"Ġsl":2317,"kÃ¸n":2318,"kkende":2319,"ĠforeslÃ¥r":2320,"skud":2321,"ove":2322,"ĠsÃ¦rlige":2323,"Ġob":2324,"iens":2325,"ĠnÃ¦sten":2326,"Ġregioner":2327,"Ġbeslutningsforslag":2328,"ĠAf":2329,"Ġarbejdsmarked":2330,"betÃ¦nkningen":2331,"Ġald":2332,"Ġudb":2333,"Ġudst":2334,"Ġkonklu":2335,"Ġvirksomhed":2336,"ydelse":2337,"Ġarbejdstag":2338,"Ġtopm":2339,"asse":2340,"mind":2341,"Ġele":2342,"Ã¸g":2343,"Ġinteg":2344,"Ġbaseret":2345,"tog":2346,"pu":2347,"ĠÃ¸vrigt":2348,"nde":2349,"tier":2350,"fang":2351,"anter":2352,"Ġvirkning":2353,"ĠÃ¸ge":2354,"ationalt":2355,"ĠvÃ¦l":2356,"Ġ12":2357,"Ġaftaler":2358,"Ġintegration":2359,"besk":2360,"ĠbekrÃ¦":2361,"skon":2362,"Ġproblemet":2363,"Ġbegynd":2364,"Ġparter":2365,"ĠgrÃ¦nser":2366,"Ġham":2367,"ordningen":2368,"Ġkompeten":2369,"skil":2370,"ann":2371,"stemer":2372,"ĠAn":2373,"Ġtages":2374,"ffet":2375,"ate":2376,"Ġkonkrete":2377,"Ġadminist":2378,"Ġmanglende":2379,"Ġharmon":2380,"ĠhÃ¸jere":2381,"Ġamerik":2382,"ĠkÃ¦re":2383,"Ġarbejdet":2384,"Ġkend":2385,"Ġfejl":2386,"Ġlykk":2387,"ĠfÃ¸lger":2388,"Ġindd":2389,"kald":2390,"Ġudvikle":2391,"ĠdÃ¸d":2392,"orde":2393,"Ġdri":2394,"Ġproces":2395,"Ġberet":2396,"Ġprocedur":2397,"Ġholde":2398,"ĠsÃ¦rligt":2399,"tiver":2400,"Ġarbejdsl":2401,"Ġkonstater":2402,"Ġforhandlingerne":2403,"akt":2404,"Ã¥ben":2405,"Hvor":2406,"ĠRÃ¥d":2407,"rekt":2408,"leksi":2409,"ĠomstÃ¦ndigheder":2410,"Ġliber":2411,"Ġreform":2412,"Ġaspekter":2413,"Ġressourcer":2414,"Ġafsluttet":2415,"Ġmedlemsstat":2416,"Ġomkost":2417,"spÃ¸rgsmÃ¥l":2418,"Ġkrimin":2419,"alut":2420,"ĠfuldstÃ¦ndig":2421,"Ġblandt":2422,"Ġhal":2423,"Ġklare":2424,"Ġrisiko":2425,"rene":2426,"ĠprÃ¦sident":2427,"ĠidÃ©":2428,"ĠlykÃ¸n":2429,"ĠtiltrÃ¦d":2430,"Ġbred":2431,"Ġlejlighed":2432,"ĠgÃ¦ld":2433,"ĠbekÃ¦mpelse":2434,"ub":2435,"sprogra":2436,"ĠsamhÃ¸righed":2437,"ernes":2438,"Ġbruge":2439,"industri":2440,"Ġforn":2441,"splad":2442,"ĠhÃ¸jt":2443,"plan":2444,"ĠgennemfÃ¸relse":2445,"gÃ¸re":2446,"Ġopst":2447,"ĠÃ©n":2448,"slin":2449,"ĠÃ¸nske":2450,"rak":2451,"Ġfornu":2452,"endes":2453,"Ġparlamentsmedlem":2454,"Ġtiden":2455,"Ġlade":2456,"Ġbehovet":2457,"Ġvand":2458,"Ġcent":2459,"ĠtilfÃ¦ldet":2460,"fart":2461,"Ġtilp":2462,"Ġfal":2463,"holdt":2464,"ard":2465,"Ġaktiviteter":2466,"Sam":2467,"Ġhu":2468,"ĠbestrÃ¦b":2469,"jerne":2470,"mÃ¦nd":2471,"ferencen":2472,"Ġbaggrund":2473,"Ġhvorfor":2474,"strategi":2475,"ĠbevÃ¦g":2476,"ĠBar":2477,"Ġmoder":2478,"ligevel":2479,"krig":2480,"Ġkommun":2481,"ikkerhed":2482,"Ġhun":2483,"Ġforl":2484,"umenter":2485,"Ġmens":2486,"ĠmÃ¦r":2487,"Ġkollega":2488,"ĠdÃ¥r":2489,"nov":2490,"Ġvidenskab":2491,"ĠfÃ¸lgende":2492,"peg":2493,"ĠomrÃ¥det":2494,"Ġinitiativer":2495,"leksib":2496,"Ġarbejdsplad":2497,"Ġper":2498,"Ġeksisterende":2499,"valg":2500,"Ġudgang":2501,"vise":2502,"Ġudgifter":2503,"agelse":2504,"kelige":2505,"Ġomfang":2506,"Ġmet":2507,"Ġforvaltning":2508,"lin":2509,"Ġseks":2510,"Ġstater":2511,"ĠbegrÃ¦ns":2512,"sud":2513,"sker":2514,"ĠvÃ¦rd":2515,"Ġbekymring":2516,"ĠÃ¦ndre":2517,"Ġerfar":2518,"Ġskatte":2519,"ĠvÃ¦gt":2520,"Ġ2000":2521,"entur":2522,"Europa":2523,"Ġfakt":2524,"Ġtydeligt":2525,"ruppe":2526,"vere":2527,"Ġaldrig":2528,"Ã¸st":2529,"Ġprotokol":2530,"ans":2531,"enede":2532,"Ġbegge":2533,"Ġ11":2534,"Ġafstemning":2535,"Ġdiskus":2536,"fÃ¸lgelig":2537,"rere":2538,"Ġkv":2539,"Ġpartnerskab":2540,"nede":2541,"inde":2542,"ransport":2543,"Ġsprog":2544,"ĠnÃ¦rm":2545,"ĠKina":2546,"ĠnÃ¦vne":2547,"Ġprincipper":2548,"Ġkapit":2549,"varende":2550,"ekanis":2551,"incip":2552,"slandene":2553,"Ġindtil":2554,"Ġrapport":2555,"ssystem":2556,"Ġvia":2557,"bal":2558,"ĠbeskÃ¦ftigelse":2559,"ĠbekÃ¦mpe":2560,"uman":2561,"Ġabsol":2562,"sÃ¦ttes":2563,"Ġforpligtelser":2564,"Ġforebyg":2565,"ledning":2566,"Ġskaber":2567,"pÃ¥":2568,"Ġmand":2569,"gift":2570,"Ġomfatter":2571,"Ġkrig":2572,"Ġalvorlige":2573,"Ġfleksib":2574,"aff":2575,"Desuden":2576,"ĠrÃ¥dighed":2577,"Ġligesom":2578,"Ġinnov":2579,"Ġmarkeds":2580,"ĠFran":2581,"ĠForenede":2582,"ĠivÃ¦rksÃ¦":2583,"Ġglem":2584,"alÃ¦st":2585,"Ġhvilken":2586,"Nu":2587,"skrift":2588,"rit":2589,"Ġbriti":2590,"Ġprojekter":2591,"Ġum":2592,"Ġudvidelsen":2593,"ĠnÃ¸dvendig":2594,"Ġforretnings":2595,"Ġafstemningen":2596,"gn":2597,"Ġendelig":2598,"Ġprogram":2599,"Ġretningslin":2600,"Ġforven":2601,"Ġski":2602,"terede":2603,"okra":2604,"aj":2605,"rincippet":2606,"Ġstemmer":2607,"mÃ¦ss":2608,"ĠgennemfÃ¸res":2609,"ĠLissabon":2610,"Ġforfatning":2611,"omrÃ¥der":2612,"igheden":2613,"Ġfran":2614,"Ġve":2615,"Ġvide":2616,"rager":2617,"Ġro":2618,"Ġdemokratisk":2619,"gÃ¦ldende":2620,"Ġanvende":2621,"Ġkar":2622,"Ġslag":2623,"kommen":2624,"rÃ¥d":2625,"ĠhÃ¥r":2626,"Ġdisku":2627,"ĠreprÃ¦sen":2628,"Ġrele":2629,"Ġnab":2630,"Ġprincippet":2631,"ysk":2632,"Ġvilje":2633,"Ġmangler":2634,"Ġbal":2635,"medlem":2636,"istan":2637,"Ġmindste":2638,"Ġinvol":2639,"Ġenerg":2640,"Ġforbrugerne":2641,"Ġkraft":2642,"Ġnr":2643,"atisk":2644,"Ġindvandring":2645,"rende":2646,"ĠvÃ¦rdier":2647,"Ġuan":2648,"orm":2649,"Ġtra":2650,"Ġforvent":2651,"ĠpÃ¥gÃ¦ldende":2652,"Ġsyg":2653,"ĠfÃ¸rer":2654,"Ġfremtidige":2655,"aftalen":2656,"Ġglobale":2657,"Ġdest":2658,"Ġundtag":2659,"Ġmellemst":2660,"iden":2661,"Ġlokale":2662,").":2663,"Ġsidst":2664,"ĠDer":2665,"Ġstemt":2666,"\",":2667,"ĠprÃ¦cis":2668,"Vores":2669,"ĠsÃ¸rge":2670,"Ġtekst":2671,"ĠindlÃ¦g":2672,"lads":2673,"Ġkriter":2674,"Ġalmind":2675,"bar":2676,"Ġfire":2677,"virkning":2678,"Ġovervej":2679,"po":2680,"ator":2681,"Ġsenere":2682,"Ġhid":2683,"RÃ¥det":2684,"Ġrammerne":2685,"vention":2686,"Ġprojekt":2687,"Ġyderst":2688,"Ġbefolkningen":2689,"Ġabsolut":2690,"Ġut":2691,"Ġpositive":2692,"Ġaktuelle":2693,"ĠgennemfÃ¸rt":2694,"Ġbudgettet":2695,"kn":2696,"Ġsikkert":2697,"ĠSoci":2698,"Ġtraktaten":2699,"ille":2700,"Ġfattigdom":2701,"Ġtilsyn":2702,"Ã¸jer":2703,"Ġordet":2704,"Ġmellemstore":2705,"Ġforbindelser":2706,"ĠforsÃ¸ger":2707,"Ġgav":2708,"Ġrevision":2709,"Ã¸jelser":2710,"holdet":2711,"gj":2712,"ĠLi":2713,"Ġdesuden":2714,"Ved":2715,"spolitikken":2716,"iddelhav":2717,"Ġoprett":2718,"ration":2719,"Ġpassende":2720,"ftigt":2721,"ĠundersÃ¸":2722,"ĠÂ":2723,"Ġalene":2724,"Ġprogrammer":2725,"ĠnÃ¦vnte":2726,"ĠmiljÃ¸et":2727,"Ã¦rer":2728,"ron":2729,"Ġpositivt":2730,"rika":2731,"stilling":2732,"sÃ¦tninger":2733,"enes":2734,"Ã¸ver":2735,"vÃ¦":2736,"Ġfokus":2737,"ĠUnionens":2738,"tige":2739,"ĠstÃ¦rk":2740,"Da":2741,"Ġrigtige":2742,"Ġfles":2743,"jek":2744,"..":2745,"nal":2746,"cerede":2747,"Ġulov":2748,"Ġcivil":2749,"tiden":2750,"Ġak":2751,"Ġindg":2752,"ulering":2753,"Ġhuman":2754,"ortug":2755,"uren":2756,"Ã¦ste":2757,"Ġkatastro":2758,"ierne":2759,"kÃ¥r":2760,"cember":2761,"Ġprincip":2762,"Ġtan":2763,"Ġfik":2764,"ĠselvfÃ¸lgelig":2765,"Ġdecember":2766,"ĠÃ¸del":2767,"Ġkonsekvenser":2768,"Ġende":2769,"ĠhÃ¸rer":2770,"Ġindt":2771,"ĠsÃ¥som":2772,"Ġleve":2773,"Ġtjenesteydelser":2774,"Ġvise":2775,"Ġinvesteringer":2776,"institution":2777,"smin":2778,"Ġtredjelande":2779,"sler":2780,"Ġhistor":2781,"Ġuge":2782,"Ġnylig":2783,"Ġforretningsorden":2784,"Er":2785,"ekomm":2786,"Ġanaly":2787,"Ġforbud":2788,"Ġspiller":2789,"Ġreformer":2790,"Ġge":2791,"Ġforsik":2792,"Ġudvalget":2793,"rÃ¦nd":2794,"midler":2795,"san":2796,"Ġstede":2797,"viser":2798,"Ġhvorv":2799,"Ġsagen":2800,"Ġbritiske":2801,"Ind":2802,"Ġinternational":2803,"Ġlev":2804,"Ġkommet":2805,"Ġregionale":2806,"rale":2807,"ĠindgÃ¥":2808,"publik":2809,"iver":2810,"Ġhverken":2811,"Ġmeddelelse":2812,"somrÃ¥det":2813,"Ġbetingelser":2814,"Ġudarbejd":2815,"Ã¦nger":2816,"vile":2817,"Ġyde":2818,"pÃ¸rgsmÃ¥l":2819,"estemm":2820,"Ġdele":2821,"Ġbetal":2822,"Ġudfordringer":2823,"ĠÂ»":2824,"Ġby":2825,"Ġformanden":2826,"sidi":2827,"Bet":2828,"Ġnational":2829,"Ġflyg":2830,"Ġgjorde":2831,"Ġforber":2832,"oden":2833,"Ġvok":2834,"Ġgam":2835,"Ġdeltage":2836,"Ġinvolver":2837,"Ġhin":2838,"Ġalvorligt":2839,"Ġstigende":2840,"atiske":2841,"ragende":2842,"Ġbekl":2843,"Ġeget":2844,"Ġoverhold":2845,"ĠstÃ¦rkt":2846,"Ġstraff":2847,"Ġvelkommen":2848,"Ġhense":2849,"tten":2850,"Ġorgan":2851,"Ġprior":2852,"handel":2853,"ĠforeslÃ¥et":2854,"Ġneg":2855,"Ġlyset":2856,"Ġvedtage":2857,"Ġmulig":2858,"ĠforstÃ¥r":2859,"ĠberÃ¸r":2860,"Ġamerikanske":2861,"ĠÃ¸get":2862,"sprincippet":2863,"Ġforbedring":2864,"sto":2865,"ĠKonger":2866,"Ġmedlemmerne":2867,"kelse":2868,"Ġkorrekt":2869,"Ġjob":2870,"aluta":2871,"ĠforsÃ¸ge":2872,"valu":2873,"Ġfunger":2874,"Ġrel":2875,"Ġfleste":2876,"ĠVer":2877,"Ġjern":2878,"iljÃ¸":2879,"ureau":2880,"Ġmarkedet":2881,"kender":2882,"ĠopnÃ¥et":2883,"ĠmÃ¦nd":2884,"istrik":2885,"Ġudarbejde":2886,"Ġstandarder":2887,"Ġmulige":2888,"ĠFrankrig":2889,"Ġsigt":2890,"Ġiden":2891,"Ġregeringer":2892,"Ġvanskeligt":2893,"Mange":2894,"Ġprak":2895,"skriftlig":2896,"bef":2897,"uni":2898,"Ġ25":2899,"Ġhalv":2900,"ĠFÃ¦llesskabets":2901,"Ġ14":2902,"ĠbemÃ¦rkninger":2903,"reret":2904,"ĠstÃ¥":2905,"Ġopbyg":2906,"Ġvid":2907,"Ã¦vn":2908,"Ġplads":2909,"ĠsÃ¥vel":2910,"Ġvedvarende":2911,"Ġbede":2912,"Ġarbejdspladser":2913,"Ġhjem":2914,"ĠMen":2915,"esten":2916,"Ġspille":2917,"fond":2918,"Ġdiskussion":2919,"Ġvedtog":2920,"revet":2921,"Ġarbejdstagere":2922,"sstat":2923,"Ġkn":2924,"Ġstren":2925,"Ġhandle":2926,"Ġbeder":2927,"ĠlÃ¸sninger":2928,"Ġopfylde":2929,"Ġheraf":2930,"ĠtvÃ¦r":2931,"inens":2932,"Ġinstrumenter":2933,"Ġindled":2934,"ĠkÃ¦mp":2935,"Ġutil":2936,"Ġforhand":2937,"iven":2938,"samling":2939,"Ġej":2940,"Ġsan":2941,"distrik":2942,"kaldte":2943,"ĠopmÃ¦rksomhed":2944,"visning":2945,"anstaltning":2946,"Ġtab":2947,"ĠbeskÃ¦ftigelses":2948,"frastruktur":2949,"Ã¶":2950,"ĠlÃ¸bet":2951,"Ġsub":2952,"ĠarbejdslÃ¸s":2953,"Ã¸tte":2954,"ourg":2955,"Ġhind":2956,"sig":2957,"Ã¦gt":2958,"Ġdokument":2959,"Ġfremragende":2960,"Ġinstrument":2961,"Ġetabler":2962,"Ġskri":2963,"Ġsnar":2964,"accep":2965,"spek":2966,"Ġbort":2967,"vem":2968,"Ġorganisationer":2969,"Ġforelig":2970,"rland":2971,"acceptab":2972,"iteten":2973,"sprocessen":2974,"Ġtraktat":2975,"ĠpÃ¥peg":2976,"ference":2977,"Ġuacceptab":2978,"he":2979,"Ġforhindre":2980,"ĠhÃ¸jde":2981,"ĠkrÃ¦n":2982,"Ġkarakter":2983,"Ġoverord":2984,"osov":2985,"ĠRet":2986,"Ġhumanit":2987,"Ġrammer":2988,"ĠlÃ¸n":2989,"idst":2990,"Ġstrateg":2991,"Ġeffektive":2992,"Ġtekniske":2993,"Ġspecifi":2994,"Ġtilgang":2995,"Ġgenerelt":2996,"ission":2997,"Ġkonkurrencee":2998,"Ġir":2999,"alÃ¦stinens":3000,"Ġoverveje":3001,"Ġlandbrugspolitik":3002,"keret":3003,"tigt":3004,"ĠlykÃ¸nske":3005,"ĠsÃ¥kaldte":3006,"Ġdetal":3007,"Ġmob":3008,"sÃ¦ttelse":3009,"In":3010,"ikation":3011,"Ġfryg":3012,"tenti":3013,"Ġterrorisme":3014,"Ġskyldes":3015,"Ġregerings":3016,"ĠafgÃ¸relse":3017,"Ġforetage":3018,"Ġindfl":3019,"Ġerstat":3020,"velse":3021,"sformand":3022,"Ġtradi":3023,"Ġang":3024,"Ġ30":3025,"lerne":3026,"ĠudmÃ¦r":3027,"uel":3028,"ktivet":3029,"Ġoverbevist":3030,"lÃ¦gger":3031,"ĠÃ©t":3032,"imod":3033,"Ġhinanden":3034,"Under":3035,"vej":3036,"Ġoffentlighed":3037,"rimin":3038,"somt":3039,"Ġdeltagelse":3040,"Ġhendes":3041,"Ġanmoder":3042,"Ġsikrer":3043,"Ġtakker":3044,"ĠsÃ¦tter":3045,"sdag":3046,"ĠtÃ¦t":3047,"Ġudarbejdet":3048,"ĠvÃ¥ben":3049,"handlingen":3050,"ĠbestrÃ¦belser":3051,"sv":3052,"bruget":3053,"stemningen":3054,"Ġtillad":3055,"Ġjernban":3056,"Ġglad":3057,"Alle":3058,"At":3059,"konomiske":3060,"Ġaftalen":3061,"yskland":3062,"Ġudelukkende":3063,"ĠÃ¸st":3064,"ridende":3065,"obb":3066,"traktaten":3067,"okrater":3068,"ĠUnions":3069,"Ġelekt":3070,"Ġsel":3071,"ĠWTO":3072,"ifi":3073,"Ġdage":3074,"ĠundersÃ¸ge":3075,"Ġalligevel":3076,"oler":3077,"vs":3078,"ledes":3079,"ĠundersÃ¸gelse":3080,"Ġtruffet":3081,"ttede":3082,"Ġborgernes":3083,"ĠgÃ¦ldende":3084,"elles":3085,"eksl":3086,"ĠspÃ¸rge":3087,"Ġegentlig":3088,"Ġhenseende":3089,"serne":3090,"rihed":3091,"Ġminde":3092,"system":3093,"Ġil":3094,"Ġtilsk":3095,"Ġgennemsigtighed":3096,"lever":3097,"nere":3098,"rafik":3099,"mens":3100,"Ġbar":3101,"Ġadskil":3102,"Ġstilling":3103,"Ġrim":3104,"ppe":3105,"Ġslet":3106,"Ġafh":3107,"Ġretningslinjer":3108,"ĠBru":3109,"Ġ13":3110,"Ã¸mm":3111,"Ġindeb":3112,"retal":3113,"Ġopfordre":3114,"ĠhÃ¸rt":3115,"Ġevent":3116,"Ġforhandlingen":3117,"ĠvÃ¦sentlig":3118,"ĠafhÃ¦ng":3119,"dam":3120,"grundlag":3121,"Ġantallet":3122,"Ġsamarbejdet":3123,"lande":3124,"xelles":3125,"Ġens":3126,"sstil":3127,"Ġ2007":3128,"sted":3129,"Ġcentrale":3130,"Ġoli":3131,"ĠIrland":3132,"Ġdesto":3133,"Ġint":3134,"Ġminim":3135,"sive":3136,"Ġmon":3137,"mmelig":3138,"Ġbegiven":3139,"villing":3140,"Ġfolke":3141,"ĠovervÃ¥g":3142,"Ġaltern":3143,"ĠfÃ¦rd":3144,"Ġatom":3145,"Ġstart":3146,"ĠbefÃ¸jelser":3147,"Ġprotokollen":3148,"Ġekstra":3149,"marked":3150,"Ġjuni":3151,"forslag":3152,"center":3153,"Ġspecifikke":3154,"Ġfrie":3155,"ĠnÃ¥et":3156,"Ġdata":3157,"rib":3158,"Ġlille":3159,"uar":3160,"Ġy":3161,"kraft":3162,"Ġindflydelse":3163,"ĠBel":3164,"ĠKosov":3165,"ĠmÃ¸d":3166,"give":3167,"kont":3168,"Ġforbered":3169,"ĠklimaÃ¦nd":3170,"ĠLissabont":3171,"Ġbeklager":3172,"ĠtÃ¦nker":3173,"Ġfranske":3174,"Ġuanset":3175,"ĠBruxelles":3176,"Ġanledning":3177,"Ġforventer":3178,"Ġvejen":3179,"serv":3180,"ĠÃ¥bne":3181,"srael":3182,"Ġtyp":3183,"Ġanvendelsen":3184,"gÃ¦ng":3185,"Ġudfordring":3186,"mÃ¥l":3187,"Ġudtalelse":3188,"politikken":3189,"ĠtilstrÃ¦kkeligt":3190,"giver":3191,"Ġgenerelle":3192,"olitiske":3193,"Ġpension":3194,"Ġmindretal":3195,"Ġdeleg":3196,"Ġstatus":3197,"ĠtrovÃ¦rd":3198,"SE":3199,"ener":3200,"Hvordan":3201,"ytter":3202,"Ġrelig":3203,"Ġhidtil":3204,"siv":3205,"ordninger":3206,"Ġansvarlige":3207,"Ġformer":3208,"ĠgrÃ¸n":3209,"Ġlandene":3210,"),":3211,"aktion":3212,"vÃ¦rdi":3213,"Ġoper":3214,"Ġdyb":3215,"Ġvurdering":3216,"gede":3217,"ĠTyskland":3218,"Ġkriminalitet":3219,"ĠpÃ¥vir":3220,"Ġendelige":3221,"Ġkonstru":3222,"Ġbud":3223,"Ġstats":3224,"hoved":3225,"Ġbringe":3226,"Ġtalt":3227,"Ġbeslutningen":3228,"ĠSp":3229,"Ġarg":3230,"beret":3231,"arko":3232,"gjort":3233,"mod":3234,"agere":3235,"Ġufor":3236,"Ġty":3237,"Ġfremgang":3238,"balan":3239,"Ġflygtning":3240,"Ġsupp":3241,"Ġfortjen":3242,"Ġgensid":3243,"aliseringen":3244,"dire":3245,"Ġhenstilling":3246,"anuar":3247,"go":3248,"manden":3249,"smÃ¦ssigt":3250,"ĠdÃ¦":3251,"ĠÃ¦rede":3252,"Ġleg":3253,"sh":3254,"Ġprivate":3255,"jet":3256,"Ġjanuar":3257,"FÃ¸r":3258,"spunkter":3259,"ĠtilstrÃ¦kkelig":3260,"Pro":3261,"Ġlav":3262,"Ġmaj":3263,"Ġfremsat":3264,"Ġsnart":3265,"ĠreprÃ¦sentanter":3266,"Ġovergang":3267,"Ġbefinder":3268,"ĠlÃ¦gge":3269,"ĠKongerige":3270,"ide":3271,"Ġtur":3272,"programmet":3273,"lader":3274,"ider":3275,"talien":3276,"we":3277,"Ġsamlede":3278,"Ġevalu":3279,"Ġindk":3280,"Ġinnovation":3281,"Ġratifi":3282,"Ġsynspunkt":3283,"Han":3284,"olu":3285,"Ġudvidelse":3286,"ĠtopmÃ¸det":3287,"kle":3288,"Ġresultatet":3289,"Ġmuligheden":3290,"strategien":3291,"ĠbevÃ¦gelighed":3292,"Ġalvorlig":3293,"ĠÃ¥rsag":3294,"Ġaffald":3295,"Ġrelevan":3296,"ĠÃ¸delÃ¦g":3297,"gerne":3298,"Ġbevare":3299,"ou":3300,"ynder":3301,"ĠhÃ¸je":3302,"NÃ¦ste":3303,"behandlingen":3304,"kan":3305,"ateri":3306,"orgere":3307,"app":3308,"efter":3309,"olk":3310,"Ġeuroen":3311,"Ġrespekter":3312,"agement":3313,"ĠmÃ¥lsÃ¦tning":3314,"Ġdetaljer":3315,"somme":3316,"sek":3317,"ĠfortÃ¦l":3318,"pris":3319,"sende":3320,"Ġmio":3321,"arts":3322,"kenland":3323,"ĠdrÃ¸fte":3324,"rÃ¦kenland":3325,"ĠnÃ¦rmere":3326,"Ġafsp":3327,"Ġfare":3328,"Ġforker":3329,"ĠhÃ¸re":3330,"Ġuger":3331,"ĠhÃ¦":3332,"Ġreducere":3333,"Ġgamle":3334,"skabet":3335,"elskaber":3336,"ĠudÃ¸":3337,"oc":3338,"Ġhil":3339,"Samtidig":3340,"Ġambiti":3341,"Ã¦gter":3342,"Ġfundet":3343,"industrien":3344,"sger":3345,"Ġpotenti":3346,"Ġ50":3347,"uropÃ¦iske":3348,"stÃ¥":3349,"rett":3350,"sg":3351,"Ġperi":3352,"han":3353,"Ġbekendt":3354,"Ġdvs":3355,"bare":3356,"Ġbalance":3357,"Ã¦gte":3358,"PE":3359,"ĠfremhÃ¦ve":3360,"Ġglemme":3361,"Ġselve":3362,"svis":3363,"oversk":3364,"ĠnÃ¸je":3365,"99":3366,"isten":3367,"Ġdebatten":3368,"Ġgavn":3369,"Ġmenneske":3370,"Ġforsin":3371,"hen":3372,"che":3373,"Ġformandskabet":3374,"ventionen":3375,"Ġbruges":3376,"da":3377,"ĠforÃ¥r":3378,"ssam":3379,"yttet":3380,"Ġslags":3381,"OgsÃ¥":3382,"Ġsammenlig":3383,"ĠlandmÃ¦nd":3384,"pte":3385,"bog":3386,"Ġredeg":3387,"ĠlÃ¦ge":3388,"ĠMar":3389,"ragt":3390,"ĠEC":3391,"Ġyd":3392,"Ġeksper":3393,"Ġintet":3394,"vÃ¦rk":3395,"Ġinddrag":3396,"Ġvende":3397,"Ġengagement":3398,"Ġgrunde":3399,"ĠMon":3400,"ĠmÃ¥ned":3401,"beskyttelse":3402,"Ġemner":3403,"Ġfremover":3404,"ĠfÃ¸":3405,"Ġstoffer":3406,"Ġvanskelige":3407,"Ġbifal":3408,"ĠEUR":3409,"Ġprocedure":3410,"ĠÃ¸vrige":3411,"Ġperiode":3412,"Ġtold":3413,"Ġforny":3414,"ĠpalÃ¦stinens":3415,"Ġforekomm":3416,"Ġaut":3417,"Ġluftfart":3418,"krati":3419,"ĠerklÃ¦ring":3420,"Ġbenytte":3421,"Ġas":3422,"Ġtydelig":3423,"ĠCentral":3424,"ell":3425,"man":3426,"sitet":3427,"ĠMiddelhav":3428,"ba":3429,"ĠEuro":3430,"Ġendvidere":3431,"gaver":3432,"ĠAnliggender":3433,"sin":3434,"Ġinvestering":3435,"Ġnabo":3436,"ĠgÃ¥et":3437,"Ġmund":3438,"ober":3439,"ĠEF":3440,"Ġparlamentsmedlemmer":3441,"Ġmar":3442,"Ġsyd":3443,"ĠbelÃ¸b":3444,"Ġbureau":3445,"Ġmor":3446,"Ġbruger":3447,"Ġhelhed":3448,"aftale":3449,"Ġafspej":3450,"SpÃ¸rgsmÃ¥l":3451,"byr":3452,"fÃ¸res":3453,"ĠGrÃ¦kenland":3454,"Ġkriterier":3455,"Ġinfrastruktur":3456,"Ġmangel":3457,"Forhandlingen":3458,"Ġregn":3459,"havn":3460,"Ġnord":3461,"ograf":3462,"inge":3463,"vinde":3464,"Ġeksport":3465,"ĠRepublik":3466,"Ġkatastrof":3467,"Ġmarts":3468,"Afstemningen":3469,"Ġkompetence":3470,"ĠbegrÃ¦nse":3471,"Ġuddannelses":3472,"ĠvÃ¦sentlige":3473,"ariske":3474,"kommende":3475,"sÃ¸ger":3476,"ĠmÃ¥lsÃ¦tninger":3477,"ĠvÃ¦sentligt":3478,"Ġmak":3479,"ologiske":3480,"Ġkendsger":3481,"isere":3482,"Ã¸ret":3483,"Ġvirkeligheden":3484,"ĠindebÃ¦rer":3485,"ĠFÃ¦llesskabet":3486,"Ġhuske":3487,"Ġinten":3488,"Min":3489,"Om":3490,"Ġfag":3491,"Ġtiltag":3492,"Ġbesvar":3493,"Ġkender":3494,"forhandling":3495,"Ġminister":3496,"cering":3497,"domme":3498,"Ġdimen":3499,"Ġforbr":3500,"hovedet":3501,"ĠglÃ¦de":3502,"sretten":3503,"Ġhvorvidt":3504,"ĠKosovo":3505,"Ġjuridiske":3506,"Ġfrit":3507,"istiske":3508,"Ġkompli":3509,"bestemm":3510,"Ġtjenester":3511,"Ġfungerer":3512,"beg":3513,"skning":3514,"Ġfordele":3515,"Ġagentur":3516,"Ġretten":3517,"Ġ2009":3518,"Ġrelevante":3519,"skonferencen":3520,"Ġlad":3521,"Ġja":3522,"ĠÃ¥rsager":3523,"sproces":3524,"Ġmodstand":3525,"slande":3526,"rum":3527,"ĠMa":3528,"ĠbetÃ¦nkninger":3529,"Ġofre":3530,"Ġendda":3531,"Ġnorm":3532,"Ġforekommer":3533,"Hvorfor":3534,"ĠmilitÃ¦r":3535,"Ġoprindelige":3536,"ĠmÃ¥tte":3537,"eld":3538,"Ġbetragt":3539,"ament":3540,"Ġudnytte":3541,"overskridende":3542,"umÃ¦n":3543,"Ġ1999":3544,"afstem":3545,"Ġbegynde":3546,"Ġsandsyn":3547,"Ġmodel":3548,"givning":3549,"ĠBudget":3550,"ptember":3551,"Ġsager":3552,"Ġdels":3553,"skra":3554,"Ġ2004":3555,"onden":3556,"Ġmilliarder":3557,"har":3558,"ost":3559,"ĠIrak":3560,"Ġhandlingsplan":3561,"Ġomkostninger":3562,"ile":3563,"sudvalget":3564,"Ġkonkurrenceevne":3565,"Ġindvirkning":3566,"met":3567,"Ġfjerne":3568,"Ġvarer":3569,"Ġansvaret":3570,"Ġ18":3571,"Ġfisk":3572,"Ġengang":3573,"Ġasyl":3574,"Ġoverhovedet":3575,"Ġseptember":3576,"Ġbehandle":3577,"anien":3578,"ĠParlament":3579,"Ġlanddistrik":3580,"Ġproblemerne":3581,"esiske":3582,"Ġvalgt":3583,"Ġenor":3584,"alistiske":3585,"aterale":3586,"Ġjuridisk":3587,"ĠforelÃ¦g":3588,"ition":3589,"Ã¸rger":3590,"virksom":3591,"Ġtradition":3592,"andid":3593,"sd":3594,"Ġkrisen":3595,"Ġreelt":3596,"arbejder":3597,"Ġkontin":3598,"ril":3599,"ĠSocial":3600,"ys":3601,"Ġudtrykke":3602,"Ġrejse":3603,"Ġforbundet":3604,"ĠLissabontraktaten":3605,"omrÃ¥de":3606,"ĠgrÃ¦nseoverskridende":3607,"Ġkampen":3608,"ceduren":3609,"ĠmÃ¸det":3610,"ĠfÃ¸rt":3611,"Ġlykkedes":3612,"ĠmÃ¸der":3613,"ĠtÃ¦nke":3614,"Ġafskaff":3615,"minister":3616,"ĠÃĺst":3617,"Ġkulturelle":3618,"Ġudviklingslandene":3619,"sminister":3620,"kkes":3621,"all":3622,"Ġanerkendelse":3623,"Ġholdninger":3624,"ĠNord":3625,"Ġvalget":3626,"Ġindhold":3627,"Ġbegyndelsen":3628,"Ġ2008":3629,"Ġenten":3630,"St":3631,"ktiver":3632,"Ġhvem":3633,"ĠimÃ¸de":3634,"nen":3635,"klu":3636,"Ġbidrager":3637,"ses":3638,"ĠsÃ¥dant":3639,"Ġunderstreger":3640,"Ġgentage":3641,"ĠGruppe":3642,"olen":3643,"ĠtrÃ¦ffes":3644,"ĠreprÃ¦sentant":3645,"Ġforanstaltning":3646,"Ġanliggender":3647,"landske":3648,"ĠindfÃ¸rt":3649,"ĠAm":3650,"ansi":3651,"konomi":3652,"ĠIsrael":3653,"ĠudmÃ¦rket":3654,"Ġskade":3655,"Ġskabt":3656,"Ġtilst":3657,"Ġnationalt":3658,"Ã¦ldre":3659,"Ġaspekt":3660,"Ġbevidst":3661,"ĠlÃ¦gger":3662,"srettigheder":3663,"Ġbesluttet":3664,"bart":3665,"retning":3666,"pper":3667,"ĠophÃ¦":3668,"rÃ¥det":3669,"Ġforhind":3670,"ktive":3671,"ĠMellem":3672,"orie":3673,"Ġ2006":3674,"ha":3675,"ribe":3676,"Ġbureaukrati":3677,"Ġfungere":3678,"lÃ¦gges":3679,"Ġsynspunkter":3680,"ton":3681,"Ġca":3682,"Ġhvori":3683,"ovember":3684,"effek":3685,"Ġtilfreds":3686,"Ġbo":3687,"Ġ2010":3688,"Ġbetale":3689,"Ġirske":3690,"Ġbehandles":3691,"bud":3692,"Ġregionen":3693,"Ġminimum":3694,"Ġtog":3695,"Ġdokumenter":3696,"Ġstiller":3697,"Ġkal":3698,"Ġ17":3699,"Ġnovember":3700,"smÃ¦ssig":3701,"Ġomfatte":3702,"ĠfÃ¦ng":3703,"ilder":3704,"Ġbedst":3705,"Ġuh":3706,"Ġdeler":3707,"Ġforsvare":3708,"Ġlovgivningen":3709,"Ġsektorer":3710,"ĠretfÃ¦rdig":3711,"ka":3712,"iddag":3713,"atet":3714,"ĠRumÃ¦n":3715,"ĠIntern":3716,"Ġfleksibilitet":3717,"Ġka":3718,"Ġsimp":3719,"ingerne":3720,"Ġparlam":3721,"Ġbudskab":3722,"Ġvaluta":3723,"ĠLand":3724,"Ġapp":3725,"ĠfortsÃ¦tter":3726,"qu":3727,"gien":3728,"Ġfand":3729,"ĠnÃ¸j":3730,"Ġvanskeligheder":3731,"Ġprocedurer":3732,"Ġ2005":3733,"Ġforuren":3734,"aftaler":3735,"Ġderimod":3736,"ĠSyd":3737,"Ġfunktion":3738,"Ġdra":3739,"Ġsende":3740,"handels":3741,"yndighed":3742,"Ġsubsidi":3743,"arkotik":3744,"ĠforeslÃ¥ede":3745,"Ġrespek":3746,"Ġindlede":3747,"Ġstykke":3748,"Ġtyrk":3749,"ĠItalien":3750,"atisti":3751,"okratiske":3752,"ĠbeskÃ¦ftigelsen":3753,"Ġrefor":3754,"ĠgrÃ¦":3755,"ĠfremgÃ¥r":3756,"Ġskov":3757,"Ġenstemm":3758,"Ġsignal":3759,"Ġsteder":3760,"omstolen":3761,"Ġpligt":3762,"Ġlandbruget":3763,"ĠkrÃ¦ve":3764,"Bi":3765,"Ġretsgrundlag":3766,"liggende":3767,"nende":3768,"Ġfastsat":3769,"klare":3770,"Ã¡":3771,"ulgar":3772,"ktober":3773,"01":3774,"Ġigennem":3775,"Ġvedkommende":3776,"agten":3777,"Kommissionens":3778,"Ġfornuftig":3779,"Ġ16":3780,"Ġparti":3781,"ĠÃ¸nskede":3782,"ĠansÃ¸ger":3783,"ĠreprÃ¦senterer":3784,"Ġudgangspunkt":3785,"tagelse":3786,"Ġregel":3787,"Ġaften":3788,"Ġcentral":3789,"Ġhandlinger":3790,"Ġstabil":3791,"Ġoktober":3792,"program":3793,"ĠUkra":3794,"foranstaltninger":3795,"Ġspanske":3796,"Ġjord":3797,"urdere":3798,"deling":3799,"Ġkonstatere":3800,"Ġlandets":3801,"Ġligestilling":3802,"agne":3803,"Ã¸sten":3804,"ĠkÃ¸":3805,"ros":3806,"Ġstk":3807,"Ġcivile":3808,"ts":3809,"ĠfÃ¸devarer":3810,"Ġmyndighed":3811,"Ġsnarere":3812,"Ġekstre":3813,"Ġelementer":3814,"part":3815,"ystemer":3816,"ĠbegrÃ¦nset":3817,"niveau":3818,"char":3819,"sterdam":3820,"Ġmul":3821,"Ġterrit":3822,"Ġmekanis":3823,"ĠforstÃ¥else":3824,"ĠovertrÃ¦d":3825,"Ġlegiti":3826,"Ġbifalder":3827,"ismen":3828,"ski":3829,"ĠAfrika":3830,"Nog":3831,"Ġregnskab":3832,"rist":3833,"Ġstrukturfond":3834,"Ġdiskrimin":3835,"ĠsvÃ¦r":3836,"Ġplen":3837,"aktiv":3838,"Ġretsstat":3839,"eksling":3840,"Ġomhand":3841,"ĠtilgÃ¦ng":3842,"Ġforpligtelse":3843,"Ġmarkeder":3844,"Ġtyske":3845,"ĠbekrÃ¦ft":3846,"ĠZ":3847,"delt":3848,"ĠhÃ¥b":3849,"ĠifÃ¸lge":3850,"Ġordning":3851,"Ġsanktioner":3852,"Ġreaktion":3853,"Ġopstil":3854,"kastet":3855,"Ġkapital":3856,"Ġstillede":3857,"bes":3858,"Ġopgaver":3859,"givet":3860,"Ġkonkurrenced":3861,"Ġ21":3862,"kede":3863,"Ġforan":3864,"Ġkommission":3865,"Ikke":3866,"Ġtun":3867,"Ġdimension":3868,"Ġhelst":3869,"ium":3870,"Ġkonflikt":3871,"Ġmenneskelige":3872,"bringe":3873,"ĠhvorpÃ¥":3874,"Ġ2003":3875,"ringen":3876,"Ġafbalan":3877,"Ġreel":3878,"ĠovervÃ¥gning":3879,"Ġkandid":3880,"Ġeffektivitet":3881,"ĠStra":3882,"Ġsikkerheden":3883,"Ġlader":3884,"Ġbegrund":3885,"ĠforudsÃ¦tning":3886,"Ġju":3887,"Ġinterne":3888,"formand":3889,"sku":3890,"Ġosv":3891,"ĠindfÃ¸relsen":3892,"Ġfortjener":3893,"ĠÃ¸k":3894,"Ġtrag":3895,"Ã¥ret":3896,"ĠberÃ¸rte":3897,"timod":3898,"Ġfrivil":3899,"centr":3900,"ĠSpanien":3901,"sprodu":3902,"ĠfordÃ¸":3903,"Ġudsat":3904,"rative":3905,"Ġheld":3906,"Ġtilslutte":3907,"Ġberettig":3908,"Ġtalte":3909,"indende":3910,"ssiske":3911,"hund":3912,"kelser":3913,"edsm":3914,"Ġbeklag":3915,"Ġlivet":3916,"Ġspecifik":3917,"ĠUdvikling":3918,"Ġass":3919,"ĠLe":3920,"ologi":3921,"veje":3922,"Ġregist":3923,"Ġforretningsordenen":3924,"Ġses":3925,"ygtighed":3926,"Ġkritik":3927,"ĠPPE":3928,"pl":3929,"sprogram":3930,"Bifald":3931,"ĠlÃ¦re":3932,"Ġoprette":3933,"Ġparlamenter":3934,"Ġhandic":3935,"Ġide":3936,"ĠvilkÃ¥r":3937,"Ġ2002":3938,"situ":3939,"Ġtillade":3940,"Ġuniver":3941,"ĠdÃ©":3942,"Ġinternationalt":3943,"Ġbetydelige":3944,"redit":3945,"Ġspecielt":3946,"Ġopfylder":3947,"ĠAmsterdam":3948,"Ġpl":3949,"ĠdrÃ¸ftelser":3950,"krÃ¦":3951,"taliens":3952,"Ġoffici":3953,"ĠBer":3954,"Ġforordningen":3955,"Ġprof":3956,"Ġkontroller":3957,"Ġreglerne":3958,"asning":3959,"vid":3960,"Ġmodtaget":3961,"emb":3962,"ĠundersÃ¸gelser":3963,"ortugal":3964,"ttere":3965,"Ġuly":3966,"des":3967,"elen":3968,"Ġpassager":3969,"Ġadministrative":3970,"ĠbehÃ¸ver":3971,"Ġkunnet":3972,"Ġbetydningen":3973,"ĠForb":3974,"FR":3975,"Ġhertil":3976,"Ġfulde":3977,"elsespro":3978,"Ġsku":3979,"vender":3980,"DesvÃ¦rre":3981,"ĠÃ¥rhund":3982,"Ġbrugt":3983,"uligheder":3984,"Ġforskels":3985,"Ġimport":3986,"sniveau":3987,"ĠIran":3988,"Ġanmodning":3989,"ĠforhÃ¥b":3990,"orter":3991,"Ġgarantere":3992,"Ġstar":3993,"engen":3994,"Forslag":3995,"kom":3996,"ĠretfÃ¦rdighed":3997,"ĠfortÃ¦lle":3998,"ĠMellemÃ¸sten":3999,"ĠfremlÃ¦gge":4000,"Ġdemokratiet":4001,"per":4002,"Ġhistorie":4003,"Ġ27":4004,"Ġhurtigst":4005,"Ġinternet":4006,"acitet":4007,"posi":4008,"Ġresultaterne":4009,"Ġdu":4010,"ĠÃ¦ndret":4011,"Ġbehandlet":4012,"Ġkonklusion":4013,"iste":4014,"Ġderefter":4015,"Ġkommunikation":4016,"ĠLu":4017,"Ġudl":4018,"remier":4019,"holdes":4020,"Ġbas":4021,"Ġoverholde":4022,"Ġbor":4023,"rev":4024,"Ġnarkotik":4025,"givningen":4026,"Ġarbejdsmarkedet":4027,"Ġskad":4028,"fold":4029,"Ġsamlet":4030,"ĠMiljÃ¸":4031,"Ġteks":4032,"ÃĨ":4033,"ow":4034,"Ġlin":4035,"sli":4036,"ĠhÃ¥rdt":4037,"Ġsamfundet":4038,"Ġfe":4039,"Ġteknisk":4040,"Alt":4041,"Ġharmonisering":4042,"Ġoverd":4043,"ĠarbejdslÃ¸shed":4044,"ĠCO":4045,"ĠudfÃ¸rt":4046,"Ġ2020":4047,"ypern":4048,"Ġ2001":4049,"Ġinstitutionelle":4050,"Ġholder":4051,"etÃ¦re":4052,"ĠBal":4053,"Ġprocessen":4054,"Ġkonklusioner":4055,"Ġfandt":4056,"Ġforklar":4057,"unt":4058,"stager":4059,"ĠUkraine":4060,"udover":4061,"Ġbekymringer":4062,"Ġaktioner":4063,"kontrol":4064,"uelt":4065,"Ġbetydelig":4066,"Ġfremgangsm":4067,"Ġlandes":4068,"alisme":4069,"sstillende":4070,"iges":4071,"ĠfremsÃ¦tte":4072,"udvikling":4073,"Ġregulering":4074,"alistisk":4075,"Ġudform":4076,"ĠtilfÃ¸je":4077,"keligt":4078,"rige":4079,"Ġagter":4080,"Ġselvom":4081,"ativt":4082,"fri":4083,"Ġrettet":4084,"Ġeksterne":4085,"Ġforand":4086,"Ġ100":4087,"ved":4088,"Ġ40":4089,"Ġoprettelsen":4090,"rÃ¦ndsto":4091,"gÃ¸relse":4092,"Ġreduktion":4093,"ĠbestÃ¥r":4094,"ĠlÃ¥":4095,"Ġfund":4096,"ĠmilitÃ¦re":4097,"Ġolie":4098,"ĠmedfÃ¸rer":4099,"ivid":4100,"Ġbevilling":4101,"ommen":4102,"ĠPortugal":4103,"ĠfÃ¸ler":4104,"Ġplenar":4105,"Ġellers":4106,"Ġprogrammet":4107,"effektiv":4108,"Ġnegative":4109,"Ġterritori":4110,"ĠindgÃ¥et":4111,"Ġgodkendt":4112,"ĠtiltrÃ¦delse":4113,"ĠredegÃ¸r":4114,"Ġfremmer":4115,"endens":4116,"Ġudvide":4117,"Ġretlige":4118,"ĠSchengen":4119,"Ġelement":4120,"samfund":4121,"Ġjuli":4122,"Ġvedtagelsen":4123,"Ġmedvir":4124,"Ġlave":4125,"Ġlangsigt":4126,"Ġindivid":4127,"Ġude":4128,"smet":4129,"Ġfremlagt":4130,"Ġrisici":4131,"regi":4132,"Ġemb":4133,"Ġliberalisering":4134,"Ġbestemmelserne":4135,"PL":4136,"Ġomtal":4137,"Ġdan":4138,"Ġdom":4139,"rebet":4140,"ĠfÃ¸devare":4141,"Ġlykkes":4142,"Ġdobb":4143,"ĠNA":4144,"blemet":4145,"ĠkÃ¸n":4146,"ĠII":4147,"Ġstrid":4148,"Ġdirektiver":4149,"ĠÃ¸j":4150,"Ġfjern":4151,"ĠsÃ¦rdeleshed":4152,"ĠadfÃ¦rd":4153,"IT":4154,"Ġseri":4155,"fulde":4156,"lÃ¦gning":4157,"ĠutilstrÃ¦kk":4158,"ringerne":4159,"Tak":4160,"yst":4161,"ĠindrÃ¸":4162,"Ġenergik":4163,"Ġreelle":4164,"parti":4165,"Ġumu":4166,"Ġunion":4167,"ĠÃ¥ret":4168,"lÃ¸s":4169,"egion":4170,"Ġbehandler":4171,"ĠRevision":4172,"ĠforÃ¸":4173,"remierminister":4174,"Ġtrafik":4175,"Ġsundheds":4176,"Ġudbred":4177,"Ġmidlertid":4178,"Ġbeskyttelsen":4179,"Ġrek":4180,"Ġperspek":4181,"udgettet":4182,"arbejds":4183,"Ġtilstede":4184,"Ġprioritet":4185,"ĠhÃ¸ring":4186,"Ġfrygt":4187,"Ġudnyttelse":4188,"ĠRumÃ¦nien":4189,"stÃ¥ende":4190,"Medlem":4191,"ssel":4192,"entligt":4193,"Ġvidenskabelige":4194,"Ġanmode":4195,"VS":4196,"ĠlÃ¦r":4197,"befal":4198,"Ġdelegation":4199,"Ġstyrkelse":4200,"Nogle":4201,"Ġstyrker":4202,"Ġstatisti":4203,"Ġpartnere":4204,"Ġnej":4205,"Ġren":4206,"Ġpat":4207,"Ġkontrollere":4208,"Ġoffentligheden":4209,"Ġsammens":4210,"Ġansvarlig":4211,"Ġdeltager":4212,"Ġbetyde":4213,"Sk":4214,"Hvil":4215,"Ġkraftigt":4216,"erings":4217,"ulere":4218,"BetÃ¦nkningen":4219,"Ġsuppler":4220,"ceres":4221,"Ġpartier":4222,"Ġarbejdstager":4223,"amerik":4224,"Ġstrukturfondene":4225,"Ġmandat":4226,"Ġfastlagt":4227,"Ġtingene":4228,"Ġangreb":4229,"Ġflygtninge":4230,"Ġoblig":4231,"Ġforsy":4232,"Ġregional":4233,"Ġglobal":4234,"ĠÃ¥nd":4235,"behold":4236,"ĠCypern":4237,"Ġforelagt":4238,"Ġdechar":4239,"Ġbetydeligt":4240,"aktioner":4241,"ĠAnd":4242,"Ġaktivitet":4243,"ĠmÃ¥let":4244,"ĠrÃ¥dsformand":4245,"ĠopstÃ¥r":4246,"Ġteksten":4247,"vider":4248,"Ġoverslag":4249,"afstemning":4250,"produktion":4251,"talienske":4252,"Ġalmindelige":4253,"Ġmateri":4254,"Ġerfaringer":4255,"Ġfamilie":4256,"Ġorganer":4257,"Ġforkert":4258,"Ġfundament":4259,"Ġsikkerheds":4260,"Ġforskelsbehandling":4261,"gene":4262,"user":4263,"Ġap":4264,"somrÃ¥de":4265,"erende":4266,"Or":4267,"Ġfremad":4268,"Ġforsigtig":4269,"EF":4270,"son":4271,"leg":4272,"Ġgik":4273,"Ġrom":4274,"ĠordfÃ¸r":4275,"Ġteknologi":4276,"esikkerhed":4277,"Ġvedtages":4278,"ĠbesÃ¸g":4279,"Ġmundt":4280,"Ġtrakt":4281,"Ġmodtager":4282,"Ġramt":4283,"ĠsÃ¸j":4284,"Ã¸jelse":4285,"Ġitalienske":4286,"Ġudtalelser":4287,"ij":4288,"risen":4289,"Ġprodukt":4290,"Ġrejser":4291,"02":4292,"FÃ¸rst":4293,"rin":4294,"Ġanbefal":4295,"Ġacceptab":4296,"bin":4297,"sstra":4298,"az":4299,"Ġforbrugere":4300,"Ġlagt":4301,"skyld":4302,"ĠnÃ¸dvendigheden":4303,"ings":4304,"Ġsider":4305,"rup":4306,"Ġplaner":4307,"Ġtus":4308,"uns":4309,"ontrol":4310,"Ġdriv":4311,"ĠhumanitÃ¦re":4312,"Ġkendsgerning":4313,"rej":4314,"Ġmangfold":4315,"ĠuafhÃ¦ngighed":4316,"svarende":4317,"Ġskader":4318,"cerer":4319,"Ġetablere":4320,"ĠslÃ¥":4321,"Ġfod":4322,"neskeret":4323,"elske":4324,"Ġkul":4325,"Ġforetaget":4326,"stjen":4327,"Ġinteress":4328,"ĠÃ¦gte":4329,"sstaterne":4330,"plom":4331,"ĠsÃ¥r":4332,"Ġbeslutningstag":4333,"Ġvirksomhederne":4334,"ĠindfÃ¸res":4335,"Ġfokusere":4336,"Ġsikring":4337,"ĠFol":4338,"Ġfokuser":4339,"Ġkerne":4340,"Ġgribe":4341,"ĠAVS":4342,"ĠGruppen":4343,"ologisk":4344,"Ġapril":4345,"cit":4346,"ote":4347,"Ġvurdere":4348,"ĠGrÃ¸n":4349,"Ġstrategiske":4350,"Ġgeneral":4351,"Ġlettere":4352,"Ġmetoder":4353,"Ġanerkender":4354,"Ġslut":4355,"smand":4356,"ĠvÃ¦lge":4357,"Ġsuver":4358,"Ġuacceptabelt":4359,"Ġhjer":4360,"ĠÃ¦ndringsforslagene":4361,"ĠmedfÃ¸re":4362,"Ġleder":4363,"ĠpÃ¥pege":4364,"Ġregeringen":4365,"ĠselvstÃ¦nd":4366,"Ġgli":4367,"Ġkomment":4368,"Ġvin":4369,"tryk":4370,"rupper":4371,"dannelse":4372,"Ġforeliggende":4373,"Ġoplev":4374,"ĠstÃ¸tten":4375,"Ġ1998":4376,"Ġsund":4377,"ole":4378,"Ġbindende":4379,"Ġoverra":4380,"Ġidenti":4381,"Ġhy":4382,"ĠSocialdem":4383,"rift":4384,"Ġmoderne":4385,"Ġfinansiel":4386,"Ġmidlerne":4387,"ssektoren":4388,"ĠdrÃ¸fter":4389,"Ġaktivt":4390,"hÃ¸rer":4391,"Ġkur":4392,"finansi":4393,"sels":4394,"ĠÃ¥benhed":4395,"Ġpremierminister":4396,"Ġbegivenheder":4397,"ĠbekÃ¦mpelsen":4398,"ĠBulgar":4399,"Ġtype":4400,"ĠSam":4401,"Ġfase":4402,"Ġbyr":4403,"Ġforenk":4404,"of":4405,"ĠEn":4406,"estÃ¥ende":4407,"Ġcentr":4408,"ografiske":4409,"Ġenorme":4410,"Ġsygdomme":4411,"gruppen":4412,"...":4413,"ĠforeslÃ¥s":4414,"Ġgenopbyg":4415,"onde":4416,"Ġprivat":4417,"Ġforbedringer":4418,"ĠhÃ¥ndtere":4419,"icin":4420,"direktivet":4421,"beting":4422,"ĠnÃ¸g":4423,"Ġtendens":4424,"vede":4425,"betal":4426,"Ġmasse":4427,"Ġstigning":4428,"istens":4429,"Ġsimpelt":4430,"Ġkommentar":4431,"Ġudtrykk":4432,"olution":4433,"Ġkontinent":4434,"Ġobligator":4435,"Ġbegynder":4436,"Ġrest":4437,"Ġindholdet":4438,"Ġpersonligt":4439,"ask":4440,"ĠerklÃ¦ringer":4441,"Ġins":4442,"Ġaktion":4443,"Ġanalyse":4444,"Ġkonvent":4445,"MÃ¥":4446,"Ġsigte":4447,"ĠefterfÃ¸l":4448,"ghan":4449,"Ġtyrkiske":4450,"nene":4451,"sim":4452,"Ġendog":4453,"ationerne":4454,"rikanske":4455,"regler":4456,"Ġopfyld":4457,"Ġpresse":4458,"Ġforebyggelse":4459,"Ġrisikerer":4460,"foren":4461,"Ġdemon":4462,"Endvidere":4463,"vurder":4464,"nÃ¦vn":4465,"Ġreagere":4466,"ĠeuroomrÃ¥det":4467,"ES":4468,"Ġmist":4469,"sstÃ¸tte":4470,"ĠÃĺkonomiske":4471,"dvan":4472,"Ġherom":4473,"Ã¸rgsel":4474,"ĠindfÃ¸relse":4475,"Ġintegreret":4476,"jekk":4477,"Ġlignende":4478,"Ġlog":4479,"ĠSom":4480,"ĠforegÃ¥r":4481,"ĠNATO":4482,"bi":4483,"Ġbevis":4484,"Ġevaluering":4485,"Ġforskelle":4486,"Ġudarbejdelsen":4487,"ikt":4488,"Ġkonkurrencedygtig":4489,"xemb":4490,"ĠPolen":4491,"Ġtilsvarende":4492,"Ġdiplom":4493,"ĠbevÃ¦":4494,"ĠdrÃ¸ftet":4495,"Ġsubsidiaritet":4496,"ule":4497,"ĠsÃ¦ttes":4498,"Ġforbli":4499,"Ġfjerde":4500,"Ġdyre":4501,"ĠSver":4502,"Ġeksempler":4503,"andene":4504,"ĠPro":4505,"Ġuen":4506,"ĠklimaÃ¦ndringer":4507,"ira":4508,"Kun":4509,"ĠmodsÃ¦tning":4510,"Ġpati":4511,"Ġejend":4512,"Ġmisbrug":4513,"Ġbygger":4514,"Ġanti":4515,"Ġkoncent":4516,"proj":4517,"ess":4518,"Ã¥rige":4519,"Ġtegn":4520,"MV":4521,"Ġbetragter":4522,"Ġkonflikter":4523,"Ġgrunden":4524,"mÃ¦ssigt":4525,"Ġforklare":4526,"Ġtor":4527,"Ġkombin":4528,"Ġafbalanceret":4529,"Ġstilles":4530,"ĠGe":4531,"Ġsandsynligvis":4532,"ĠstÃ¸ttet":4533,"issioner":4534,"fuld":4535,"xembourg":4536,"ydende":4537,"Ġpol":4538,"Ġlette":4539,"Ġgaranti":4540,"ringsforslag":4541,"ĠfÃ¸rstebehandlingen":4542,"Ġkoordinering":4543,"Ġdecharge":4544,"por":4545,"Ġvore":4546,"venske":4547,"Ġ1997":4548,"An":4549,"Ġhindringer":4550,"orien":4551,"ĠnÃ¦st":4552,"abilitet":4553,"Ġanser":4554,"vÃ¦g":4555,"ĠmÃ¦rkning":4556,"ĠUn":4557,"Ġelektron":4558,"ĠInternationale":4559,"Forslaget":4560,"ĠordfÃ¸rerens":4561,"ĠnÃ¸jag":4562,"Ġvirkninger":4563,"cerne":4564,"ssystemer":4565,"Ġlove":4566,"Ġmenneskerettigheds":4567,"Ġsvenske":4568,"ĠtÃ¦ttere":4569,"sien":4570,"Ġanvendt":4571,"ĠprÃ¸":4572,"iskeri":4573,"ĠCentralban":4574,"rettet":4575,"Ġkontakt":4576,"roso":4577,"Ġopposi":4578,"kkede":4579,"sektoren":4580,"Ġneder":4581,"Ġstarte":4582,"ĠRettigheder":4583,"Ġsocialt":4584,"Ġadskillige":4585,"periode":4586,"Ġfastsl":4587,"Ġindbyg":4588,"ĠsvÃ¦rt":4589,"Ġno":4590,"Ġindtryk":4591,"Ġtrussel":4592,"ĠmÃ¦ng":4593,"Ġoply":4594,"rab":4595,"ĠÃ¸konomien":4596,"ĠSikkerhed":4597,"Ġsvare":4598,"Ġanvender":4599,"Ġopm":4600,"Ġsvarer":4601,"Ġbygge":4602,"hjÃ¦lp":4603,"slen":4604,"Ġvisum":4605,"Ġvedtagelse":4606,"arus":4607,"ĠdÃ¸":4608,"Ġinklu":4609,"ksomme":4610,"ade":4611,"ĠstÃ¦rke":4612,"Ġoverordnede":4613,"ĠaktÃ¸rer":4614,"one":4615,"ennem":4616,"ĠCh":4617,"ĠprimÃ¦r":4618,"Ġtakket":4619,"Ġopmunt":4620,"Ġforsikre":4621,"ĠlÃ¸b":4622,"Ġsystemer":4623,"Ġart":4624,"akken":4625,"sbourg":4626,"agen":4627,"ĠspÃ¸rger":4628,"ĠÃ¸nsket":4629,"Ġreguler":4630,"Ġinstitutionerne":4631,"Ġkvinders":4632,"Ġbrugen":4633,"Ġhilser":4634,"Ġhvid":4635,"ĠkrÃ¦fter":4636,"ĠÃ¦ldre":4637,"ituation":4638,"Ġresten":4639,"Ġtilfredsstillende":4640,"Ġsport":4641,"Ġundertry":4642,"Ã¸retÃ¸jer":4643,"Ġeksisterer":4644,"ĠSlov":4645,"sformanden":4646,"ĠtilstrÃ¦kkelige":4647,"ĠoverfÃ¸r":4648,"Ġproducenter":4649,"Ġskabes":4650,"Ġforsknings":4651,"Ġfattige":4652,"Ġtakne":4653,"Ġovervejelser":4654,"ĠlÃ¦gemidler":4655,"nor":4656,"Ġkorrup":4657,"Ġinst":4658,"berale":4659,"Ġreformen":4660,"ĠAr":4661,"Ġhovedsag":4662,"gte":4663,"gres":4664,"slav":4665,"ĠhÃ¥ndhÃ¦":4666,"Ġdrage":4667,"Ġemission":4668,"Ã¸ben":4669,"Ġrede":4670,"adende":4671,"ĠStrasbourg":4672,"ĠfastsÃ¦tte":4673,"Ġopd":4674,"Ġforpligtet":4675,"Ġoprettelse":4676,"forsy":4677,"skaber":4678,"ĠforegÃ¥ende":4679,"ĠAfghan":4680,"Ġrespektere":4681,"Ġhermed":4682,"ĠeuropÃ¦ere":4683,"Ġstraks":4684,"Ġdybt":4685,"Ġmodst":4686,"ĠtopmÃ¸de":4687,"forsamling":4688,"Ġtide":4689,"nit":4690,"Ġenergikilder":4691,"Ã¸benhavn":4692,"tens":4693,"Ġvelly":4694,"Ġlighed":4695,"Ġsikres":4696,"Ġkvaliteten":4697,"rÃ¦ngende":4698,"aster":4699,"nÃ¦vnte":4700,"IfÃ¸lge":4701,"Ġorganisation":4702,"ĠGu":4703,"ugo":4704,"ĠVerdens":4705,"Ġ%.":4706,"omen":4707,"ĠdÃ¥rligt":4708,"tille":4709,"Ord":4710,"Ġomfattet":4711,"snit":4712,"ay":4713,"Kan":4714,"sfrihed":4715,"kerne":4716,"Ġetn":4717,"Ġtanke":4718,"hvert":4719,"mÃ¦ssig":4720,"ĠtilstedevÃ¦r":4721,"orgernes":4722,"ynam":4723,"Ġassoci":4724,"Ġsent":4725,"Ġmobilitet":4726,"ĠBelarus":4727,"sere":4728,"Ġkonvention":4729,"ĠopmÃ¦rksomme":4730,"Ġudenrigs":4731,"Ġudveksling":4732,"Ġnogens":4733,"ĠivÃ¦rksÃ¦tte":4734,"eladende":4735,"landet":4736,"Ġindvandrere":4737,"Ġchance":4738,"Ġvest":4739,"Ġstarten":4740,"Ġportug":4741,"Ġerfaring":4742,"Ġafspejler":4743,"ĠmÃ¥der":4744,"ĠhÃ¦v":4745,"Ġgives":4746,"ĠlÃ¸ses":4747,"Ġgensidig":4748,"Ġsvig":4749,"Ġevne":4750,"Ġmetode":4751,"ĠKÃ¸benhavn":4752,"Ġbetragtes":4753,"ĠSverige":4754,"Ġorden":4755,"Ġhus":4756,"ĠkÃ¸re":4757,"Ġfinansieringen":4758,"Mit":4759,"ĠfastlÃ¦gge":4760,"arisk":4761,"ĠgÃ¦lde":4762,"vilkÃ¥r":4763,"nÃ¥r":4764,"Ġmodern":4765,"Ġsigter":4766,"stillet":4767,"Ġprioriteter":4768,"Ġkraftig":4769,"Ġbekymret":4770,"ĠBalkan":4771,"Ġdiskutere":4772,"Ġaccepterer":4773,"sanliggender":4774,"sstater":4775,"Ġkem":4776,"Ġperman":4777,"Ġindustrien":4778,"Ġoverholdelse":4779,"skraft":4780,"oter":4781,"Ġemnet":4782,"ĠfremgangsmÃ¥de":4783,"03":4784,"Ġfolkes":4785,"Ġsvag":4786,"Ġ198":4787,"ĠprÃ¦sen":4788,"Ġlider":4789,"brud":4790,"Ġsamarbejds":4791,"beskytt":4792,"Ġbeskat":4793,"Ġstyre":4794,"Ġlinje":4795,"ugoslav":4796,"Ġselskab":4797,"Ġholdt":4798,"ĠdÃ©r":4799,"ĠefterfÃ¸lgende":4800,"produkter":4801,"ĠforÃ¥rs":4802,"Mine":4803,"dommen":4804,"Ġuret":4805,"Ġregeringskonferencen":4806,"Ġsystemet":4807,"ĠsÃ¸ger":4808,"ĠÃ¥bent":4809,"Ġramm":4810,"Ġyt":4811,"ĠNeder":4812,"Ġportugis":4813,"Ġdomstol":4814,"hederne":4815,"derne":4816,"ĠtrovÃ¦rdighed":4817,"Ġpersonlige":4818,"orte":4819,"Ġafg":4820,"onen":4821,"ĠmiljÃ¸mÃ¦ssige":4822,"Ġmangfoldighed":4823,"ĠSMV":4824,"Ġmia":4825,"stegn":4826,"ĠhensigtsmÃ¦ssigt":4827,"Ġargumenter":4828,"Ġdobbelt":4829,"Ġdynam":4830,"Ġoverrask":4831,"ĠMed":4832,"ekÃ¦mp":4833,"Ġinvolveret":4834,"Ġgodkende":4835,"Ġresul":4836,"Ġledere":4837,"Ġejendom":4838,"gelsen":4839,"Ġfalder":4840,"Ġkin":4841,"ĠÃĺstrig":4842,"Ġafslutning":4843,"Ġbilaterale":4844,"initi":4845,"sprocedure":4846,"cel":4847,"Ġhund":4848,"Ġpost":4849,"ĠAfghanistan":4850,"Ġudgift":4851,"Ġfiske":4852,"ĠkrÃ¦ves":4853,"ĠidÃ©er":4854,"Ġmidt":4855,"Ġsituationer":4856,"Ġanvendelses":4857,"eskyttelse":4858,"bruar":4859,"sol":4860,"Ġnogensinde":4861,"Ġglobalt":4862,"Ġfebruar":4863,"Ġpraktiske":4864,"hÃ¥nd":4865,"Ġrig":4866,"Ġensart":4867,"ĠGrÃ¸nne":4868,"Ġrealitet":4869,"Ġkonsol":4870,"eter":4871,"alisere":4872,"Ã¼":4873,"97":4874,"Ġforbehold":4875,"Ġfamilier":4876,"ĠNi":4877,"Ġkvalifi":4878,"Ġreligion":4879,"arter":4880,"2001":4881,"Ġbeskri":4882,"98":4883,"Ġtalere":4884,"ÃĨnd":4885,"Ġtilsyneladende":4886,"Ġkredit":4887,"isterne":4888,"ĠafhÃ¦nger":4889,"Ã¨":4890,"istisk":4891,"Ġmedicin":4892,"Ġhistoriske":4893,"slam":4894,"Ġstu":4895,"Ġnarkotika":4896,"bring":4897,"ĠansÃ¸g":4898,"Ġoptim":4899,"ari":4900,"Ġopretholde":4901,"Ġbeteg":4902,"Ġinteressant":4903,"Ġanerkende":4904,"Ġberetning":4905,"Ġfornuftigt":4906,"Ġtilpasse":4907,"Ġoplever":4908,"dik":4909,"ĠÃ¦ndres":4910,"Ġforbindelserne":4911,"Ġmindske":4912,"send":4913,"Ġanbef":4914,"Ġregeringerne":4915,"Ġ1996":4916,"Ġborgeres":4917,"ĠsuverÃ¦n":4918,"ifik":4919,"ĠspÃ¦nd":4920,"Ġhurtigere":4921,"Ġfortal":4922,"Ġlanddistrikterne":4923,"ĠBudgetudvalget":4924,"ĠfÃ¦r":4925,"Ġ23":4926,"oster":4927,"ĠtiltrÃ¦delses":4928,"Ġrund":4929,"reds":4930,"Ġhandicapp":4931,"skÃ¦r":4932,"Ġunderskud":4933,"kkelse":4934,"Ġlavere":4935,"Ġskete":4936,"Ġadvar":4937,"Ġhenviser":4938,"ĠtrÃ¦ffer":4939,"nÃ¦r":4940,"Ġev":4941,"Ġtillader":4942,"fre":4943,"ĠlÃ¦gges":4944,"ĠÃ¥rhundrede":4945,"ĠstÃ¸ttes":4946,"Ġreligi":4947,"ĠAt":4948,"Ġkompens":4949,"-,":4950,"asser":4951,"ĠtiltrÃ¦":4952,"pe":4953,"Ġvor":4954,"Ġslutte":4955,"entlige":4956,"Ġskj":4957,"Ġbange":4958,"sstand":4959,"Ġtilskynde":4960,"Ġilleg":4961,"Ġproceduren":4962,"ĠnÃ¦vnes":4963,"enhed":4964,"Ġimm":4965,"Â«.":4966,"ĠforvÃ¦r":4967,"roati":4968,"Ġeftersp":4969,"irektivet":4970,"Ġdefinition":4971,"Ġomstruktur":4972,"Ġkrist":4973,"ĠIndre":4974,"ĠdÃ¸r":4975,"Ġfil":4976,"Ġmiddel":4977,"Ġdikt":4978,"ĠhumanitÃ¦r":4979,"Ġtemmelig":4980,"Ġstandard":4981,"ĠopnÃ¥s":4982,"Ġbasis":4983,"ĠprimÃ¦rt":4984,"Ġutro":4985,"ansk":4986,"stats":4987,"Ġuund":4988,"ĠspÃ¸rgsmÃ¥lstegn":4989,"ĠsÃ¸ge":4990,"Ġrespekterer":4991,"Ġfang":4992,"Ġtj":4993,"Ġforsam":4994,"ĠNederlandene":4995,"Ġsek":4996,"erson":4997,"ĠBulgarien":4998,"tages":4999,"Ġtotal":5000,"ffekt":5001,"Ġpla":5002,"Ġigang":5003,"ĠIndien":5004,"ĠDemokrater":5005,"bogen":5006,"orbr":5007,"Ġafgift":5008,"Ġperioden":5009,"iz":5010,"Ġunderteg":5011,"ĠbekrÃ¦fte":5012,"ĠindgÃ¥r":5013,"itann":5014,"Ġslutningen":5015,"Ġglim":5016,"Ġkonstruktiv":5017,"orbritann":5018,"Ġarbejdstagerne":5019,"dio":5020,"Ġomh":5021,"Ġpakke":5022,"Ġander":5023,"Ġgennemsnit":5024,"odeks":5025,"Ġ60":5026,"ĠMenneskeret":5027,"Ġfinansiere":5028,"Ġoprindelses":5029,"Ġulovlig":5030,"Ar":5031,"rel":5032,"hus":5033,"ĠKy":5034,"styr":5035,"Ġrussiske":5036,"ĠmÃ¸des":5037,"Ġmaksim":5038,"borgere":5039,"iets":5040,"ĠgrÃ¦ske":5041,"SpÃ¸rgsmÃ¥let":5042,"ĠBN":5043,"punkt":5044,"by":5045,"201":5046,"Ġkorruption":5047,"Ġformuler":5048,"ĠMin":5049,"ryd":5050,"Ġfrug":5051,"Ġmer":5052,"ĠpalÃ¦stinensiske":5053,"ĠforhÃ¥bentlig":5054,"ĠFin":5055,"Ġservi":5056,"ĠtvÃ¦rtimod":5057,"rest":5058,"ĠlÃ¸st":5059,"Ġbeskyttelses":5060,"Ġrevider":5061,"Ġforslagene":5062,"ĠsammenhÃ¦ngende":5063,"Ġumuligt":5064,"Ġngo":5065,"Ġliste":5066,"Ġbedt":5067,"Ġstatsb":5068,"opmÃ¸det":5069,"Ġidentifi":5070,"ĠNe":5071,"ĠgrÃ¦nserne":5072,"Ġpersonale":5073,"ĠdÃ¥rlig":5074,"Ġanderledes":5075,"ose":5076,"Ġtidsplan":5077,"yttes":5078,"Ġfart":5079,"kkerne":5080,"Ġsimpelthen":5081,"Ġforholdet":5082,"Ġudkast":5083,"Ġinformer":5084,"ĠbÃ¸rne":5085,"Ġsocialdem":5086,"Ġforbrugernes":5087,"slov":5088,"Ã¦d":5089,"Ġbeslut":5090,"ĠAg":5091,"organisationer":5092,"Ġstyring":5093,"ĠforsÃ¸gt":5094,"Ġgrundlaget":5095,"sforanstaltninger":5096,"ĠLandbrug":5097,"bland":5098,"Ġsikkerhedspolitik":5099,"gruppe":5100,"Vil":5101,"ations":5102,"Ġafholdt":5103,"Ġmultil":5104,"ĠsÃ¸jle":5105,"ĠsÃ¦l":5106,"Ġpriser":5107,"Ġrum":5108,"Ġkatastrofe":5109,"vÃ¦sen":5110,"Ġhende":5111,"ĠGeor":5112,"Ġskrift":5113,"Ġmedlemskab":5114,"ĠSer":5115,"Ġfaktum":5116,"Ġforsamling":5117,"Ġstol":5118,"Ġethvert":5119,"Ġforesp":5120,"Ġsymb":5121,"Ġulovlige":5122,"Ġpraktisk":5123,"Ġglimrende":5124,"Ġlo":5125,"ĠhÃ¦nd":5126,"Ġ%,":5127,"Ġungar":5128,"union":5129,"abrik":5130,"Ġmodtage":5131,"ĠVest":5132,"Ġmobil":5133,"udvalg":5134,"Ġeventuelle":5135,"Ġsyv":5136,"Ġunderstreges":5137,"Ġenergieffektiv":5138,"KO":5139,"Ġkonstant":5140,"svin":5141,"speriode":5142,"Ġvigtigere":5143,"ĠJugoslav":5144,"Ġanmodet":5145,"Ġhed":5146,"Ġenhed":5147,"Ġudtrykkeligt":5148,"ĠstÃ¸rr":5149,"Ġmedlemslande":5150,"ĠopmÃ¦rksomheden":5151,"Ġ24":5152,"50":5153,"ĠnetvÃ¦rk":5154,"leje":5155,"Ġtilslutter":5156,"Ġperspektiv":5157,"Ġgenstand":5158,"Ġmedlemsstaters":5159,"ĠskÃ¸n":5160,"ĠforelÃ¦gge":5161,"Ġlange":5162,"Ġkandidat":5163,"Ġinternettet":5164,"Ġprincipi":5165,"Ġforbrydelser":5166,"nÃ¦st":5167,"Ġpeg":5168,"Ġkateg":5169,"Ġspecifikt":5170,"Ġunderstreget":5171,"ĠStorbritann":5172,"Ġomhandler":5173,"konventionen":5174,"ĠuafhÃ¦ngige":5175,"ĠBarroso":5176,"ammer":5177,"Ġbereg":5178,"frem":5179,"va":5180,"Ġudgifterne":5181,"Ġvoksende":5182,"Ġoven":5183,"Ġunderskri":5184,"oritet":5185,"Ġ000":5186,"oss":5187,"Ġidentitet":5188,"ĠstrÃ¦":5189,"Ġfrig":5190,"raktatens":5191,"lene":5192,"Ġumiddel":5193,"ygge":5194,"Ġbesvare":5195,"OrdfÃ¸rer":5196,"Ġsej":5197,"ygg":5198,"Ġforplig":5199,"Ġdato":5200,"Ġkonver":5201,"ĠambitiÃ¸se":5202,"Ġ22":5203,"Ġmoral":5204,"Ġisra":5205,"ĠbrÃ¦ndsto":5206,"Ġfortsatte":5207,"best":5208,"Ġkoncentr":5209,"Ġbestemte":5210,"velsen":5211,"Ġlid":5212,"sering":5213,"Ġfarlige":5214,"Ġstrategisk":5215,"anger":5216,"mÃ¥let":5217,"vÃ¥ben":5218,"Ġignor":5219,"Ġforbedret":5220,"ĠRetlige":5221,"Ġrac":5222,"lagte":5223,"peget":5224,"Ġfastholde":5225,"sspÃ¸rgsmÃ¥l":5226,"Ġvaret":5227,"SÃ¥dan":5228,"Ġofrene":5229,"Ġopbygge":5230,"pport":5231,"ĠovervÃ¥ge":5232,"mark":5233,"Kon":5234,"ĠbeskÃ¦ftiger":5235,"ĠfuldstÃ¦ndigt":5236,"Ġrestrik":5237,"vig":5238,"arbejdere":5239,"Ġrejst":5240,"fÃ¸relse":5241,"blemer":5242,"Derudover":5243,"vÃ¦k":5244,"Ġinterinstitution":5245,"Ġbidraget":5246,"Ġdatab":5247,"garn":5248,"atin":5249,"Ġteknologier":5250,"iseret":5251,"ĠlovgivningsmÃ¦ssige":5252,"Ġmom":5253,"Ġopfyldt":5254,"sforhold":5255,"Ġyderste":5256,"Ġoverholdes":5257,"Uden":5258,"ĠpÃ¥tage":5259,"30":5260,"Ġomkostningerne":5261,"ĠKroati":5262,"Ġdis":5263,"elÃ¦g":5264,"ĠivÃ¦rksat":5265,"Ġsamarbejd":5266,"Ġkoncentrere":5267,"kal":5268,"MÃ¥ske":5269,"ric":5270,"stÃ¸tte":5271,"ĠstÃ¦rkere":5272,"Ġregeringsche":5273,"Ġudf":5274,"ĠFolke":5275,"ĠvelfÃ¦rd":5276,"otor":5277,"ock":5278,"ĠunÃ¸d":5279,"Ġforfatningen":5280,"Ġhvoraf":5281,"Ġorganiseret":5282,"Ġbetaling":5283,"Ġtraditionelle":5284,"Ġgentager":5285,"Ġytring":5286,"ai":5287,"sre":5288,"Ġudviklede":5289,"Ġsiges":5290,"sagn":5291,"Ġtvun":5292,"ĠkÃ¦mpe":5293,"Ġforeligger":5294,"Ġudviklet":5295,"ĠHer":5296,"ĠoptrÃ¦":5297,"vant":5298,"Ġpresser":5299,"Ġkapacitet":5300,"ĠvÃ¦rdighed":5301,"Ġfulgt":5302,"Ġfornyet":5303,"Ġhenlede":5304,"strÃ¦kning":5305,"Ġportugisiske":5306,"ĠtilgÃ¦ngelige":5307,"Ġparat":5308,"Ġuop":5309,"Ġforkast":5310,"katastro":5311,"Ġvedtager":5312,"ĠRegion":5313,"Ġbeslutningsforslaget":5314,"Ġinddrage":5315,"servat":5316,"Ġfys":5317,"Ã¸bet":5318,"ĠSol":5319,"Ġdagens":5320,"Ġvision":5321,"Ã¦isk":5322,"tagen":5323,"ĠÃĺkonomi":5324,"sstandarder":5325,"Ġhe":5326,"Ġon":5327,"lysende":5328,"Ġgenet":5329,"Ġkil":5330,"Ġreklam":5331,"Ġtilbag":5332,"ĠskÃ¦r":5333,"Ġfiskeripolitik":5334,"Ġspred":5335,"ĠredegÃ¸relse":5336,"Ġgennemsku":5337,"Ġudgangen":5338,"Ġung":5339,"politiske":5340,"indelser":5341,"ournal":5342,"Ġforetages":5343,"Ġtider":5344,"ller":5345,"ana":5346,"bien":5347,"Ġforlig":5348,"Ġpolitikere":5349,"Ġkonsekvenserne":5350,"Ġorien":5351,"lit":5352,"ĠCan":5353,"Ġsygdom":5354,"Ġkommerci":5355,"Ġventer":5356,"virksomheder":5357,"transport":5358,"Ġafslutte":5359,"Ġtjener":5360,"Ġmellemtiden":5361,"Ġforsikring":5362,"her":5363,"oni":5364,"Ġundtagelse":5365,"ĠtvÃ¦rs":5366,"Ġautom":5367,"Ġgenerel":5368,"Ġoverholder":5369,"Ġkontra":5370,"ĠFolkeparti":5371,"ĠtrÃ¦kke":5372,"Ġhalvdel":5373,"ĠbesÃ¦":5374,"Ġhenvisning":5375,"Ġgodkendelse":5376,"markedet":5377,"Ġbringer":5378,"Ġordentligt":5379,"osn":5380,"Ġkontrollen":5381,"alet":5382,"Ġprote":5383,"Ġobjek":5384,"ĠstÃ¸ttede":5385,"oll":5386,"spolitiske":5387,"aliseret":5388,"Ġopfordring":5389,"Ġspor":5390,"BetÃ¦nkning":5391,"ĠmÃ¦l":5392,"Ġregionerne":5393,"Ġsektoren":5394,"spoliti":5395,"fÃ¸rte":5396,"Ġforventninger":5397,"ĠDette":5398,"ĠforstÃ¦r":5399,"Ġstopper":5400,"ĠÃ¸konomier":5401,"Ġfaktorer":5402,"amerika":5403,"Ġbetingelserne":5404,"Ġindlysende":5405,"ĠSikkerheds":5406,"itÃ©":5407,"ĠvÃ¦rre":5408,"Ġkonsekvent":5409,"Ġhistorisk":5410,"endet":5411,"Ġafsnit":5412,"rich":5413,"96":5414,"itioner":5415,"ordfÃ¸rer":5416,"Ġskam":5417,"Ġviste":5418,"ĠforlÃ¦ng":5419,"ĠbegrÃ¦nsninger":5420,"Ġvalgk":5421,"centerne":5422,"fÃ¸relsen":5423,"Ġrimeligt":5424,"ĠansÃ¸gerlandene":5425,"ĠforstÃ¥et":5426,"ĠRevisionsretten":5427,"sikkerheden":5428,"Ġintegrer":5429,"Ġundersk":5430,"Ġaktive":5431,"Ġbetaler":5432,"Ġmark":5433,"oto":5434,"ĠindtÃ¦gter":5435,"Ã¸rget":5436,"Ġsandt":5437,"Ġpas":5438,"ĠRom":5439,"somhed":5440,"atorer":5441,"betÃ¦nkning":5442,"Ġmo":5443,"Ġfolks":5444,"ĠmervÃ¦rdi":5445,"vok":5446,"ĠstÃ¸rst":5447,"Ġoverbevisning":5448,"Ġrisikoen":5449,"ĠY":5450,"tjen":5451,"ancen":5452,"politi":5453,"Ġbesked":5454,"ĠberÃ¸rer":5455,"Inden":5456,"Ã¦b":5457,"mynd":5458,"Ġkritiser":5459,"sprogrammer":5460,"Ġvirker":5461,"ĠtilstedevÃ¦relse":5462,"Ġisol":5463,"ĠnÃ¦vner":5464,"oris":5465,"Ġtilbyde":5466,"Ġaccepteret":5467,"Ġproduktionen":5468,"Ġsalen":5469,"edon":5470,"Ġafsl":5471,"processen":5472,"ssystemet":5473,"Ġledelse":5474,"ĠfÃ¦n":5475,"ĠhÃ¸jtstÃ¥ende":5476,"Ã¸konom":5477,"Ġbredere":5478,"ona":5479,"komme":5480,"Ġreser":5481,"ressour":5482,"ÃĨndringsforslag":5483,"Ġforenkling":5484,"EL":5485,"Ġskuff":5486,"leve":5487,"Ġvalgte":5488,"Ġnation":5489,"ĠgengÃ¦ld":5490,"Ġstrenge":5491,"AF":5492,"ÃŃ":5493,"ĠafgÃ¸relser":5494,"Ġuniversitet":5495,"Ġrundt":5496,"sstrategi":5497,"Ġnormalt":5498,"ĠudstrÃ¦kning":5499,"tokollen":5500,"Ġprioriteringer":5501,"Ġoprettet":5502,"systemet":5503,"Be":5504,"PT":5505,"bo":5506,"ĠtrÃ¥d":5507,"Ġskand":5508,"ĠarbejdslÃ¸sheden":5509,"gens":5510,"Ġmenneskers":5511,"ĠgennemfÃ¸rer":5512,"Ġtit":5513,"CO":5514,"Ġspek":5515,"ĠnÃ¸dvendigvis":5516,"Ġinvolverede":5517,"Ã¸rerne":5518,"ĠÃ¥rlige":5519,"ydere":5520,"Ġselskaber":5521,"Ġinvestere":5522,"ĠPar":5523,"bred":5524,"mning":5525,"tv":5526,"Ġnabol":5527,"Ġlegitim":5528,"ĠdrÃ¦":5529,"Ġgarantier":5530,"ĠfÃ¸d":5531,"ragender":5532,"Ġhenstillinger":5533,"sÃ¦ttelsen":5534,"somrÃ¥der":5535,"Ġklim":5536,"Ġvente":5537,"slivet":5538,"Ġudenrigspolitik":5539,"Ġdig":5540,"fÃ¦l":5541,"smekanis":5542,"Ġomhygg":5543,"holdelse":5544,"Ġlejligheden":5545,"aus":5546,"Ġdrift":5547,"ĠimÃ¸degÃ¥":5548,"Ġbesluttede":5549,"ĠLiberale":5550,"ĠStorbritannien":5551,"ĠudfÃ¸re":5552,"Ġansatte":5553,"Ġkonkurrencen":5554,"Ġ1995":5555,"Ġofficielle":5556,"ĠfÃ¦rre":5557,"Ġparlamentariske":5558,"Ġ80":5559,"ĠLuxembourg":5560,"sfonden":5561,"ich":5562,"ĠmÃ¥lene":5563,"Ġpengene":5564,"Ġenergis":5565,"Ġindledt":5566,"Ġinformationer":5567,"Re":5568,"entere":5569,"alerne":5570,"Ġislam":5571,"ĠRÃ¥ds":5572,"Ġprim":5573,"iner":5574,"Medlemsstaterne":5575,"Ġkritisk":5576,"ĠÃ¸strig":5577,"Ġydet":5578,"forhold":5579,"Ġmuligvis":5580,"ĠhÃ¸jeste":5581,"ĠECU":5582,"Ġarbejdskraft":5583,"givende":5584,"stedelen":5585,"ĠudstÃ¸d":5586,"ki":5587,"jekkiske":5588,"ĠfÃ¸lsomme":5589,"ĠudÃ¸ve":5590,"Ġblod":5591,"ĠHa":5592,"Ġryg":5593,"ĠOg":5594,"igvis":5595,"Ġmulighederne":5596,"medlemsstater":5597,"Ġbekost":5598,"Ġsamtlige":5599,"Ġkendskab":5600,"ĠBNP":5601,"Ġkendet":5602,"Ġskyl":5603,"Ġindstilling":5604,"Alligevel":5605,"sminist":5606,"ĠformÃ¥let":5607,"dy":5608,"ĠMc":5609,"oplys":5610,"dele":5611,"ĠDan":5612,"ĠlÃ¸fter":5613,"ĠTur":5614,"Ġcentralt":5615,"ydes":5616,"Ġopfordres":5617,"Ġtjene":5618,"sprodukter":5619,"eslu":5620,"Ġerkende":5621,"Ġincit":5622,"Ġpotentiale":5623,"ssamfund":5624,"Ġstrukturer":5625,"Ġindsatsen":5626,"Ġkonference":5627,"ĠUden":5628,"slÃ¸s":5629,"ektet":5630,"oper":5631,"Ġroma":5632,"Ġvestlige":5633,"etid":5634,"ĠfÃ¸devaresikkerhed":5635,"Ġindividuelle":5636,"Ã¸konomiske":5637,"Ġforberede":5638,"Ġberettiget":5639,"Ġskygge":5640,"ĠBe":5641,"abe":5642,"Ġfolkeafstemning":5643,"utter":5644,"Ġrelevant":5645,"esien":5646,"Ġtimer":5647,"ĠhjÃ¦lper":5648,"ĠÃ¦ndrer":5649,"Ġstyrket":5650,"Ġfork":5651,"aliserede":5652,"Ġkyst":5653,"bakning":5654,".,":5655,"ĠsuverÃ¦nitet":5656,"Ġarbejdstagernes":5657,"Ġkendeteg":5658,"ĠHvis":5659,"Ġalder":5660,"Ġlokal":5661,"lagde":5662,"slutning":5663,"Ġsymbol":5664,"Ġisraelske":5665,"Ġdiskrimination":5666,"kler":5667,"Ġjournal":5668,"ĠforhÃ¥nd":5669,"Ġfrist":5670,"svinkel":5671,"ĠbÃ¦redygtighed":5672,"Ġopbakning":5673,"Ġprincipperne":5674,"):":5675,"Ġfrihedsrettigheder":5676,"Ġkvalifik":5677,"fÃ¸ring":5678,"Natur":5679,"ĠSe":5680,"Siden":5681,"ĠBur":5682,"Ġlovgivnings":5683,"Ġsydlige":5684,"Op":5685,"Ãħ":5686,"pri":5687,"Ġmodsatte":5688,"kur":5689,"Ġmyndighederne":5690,"Ġhandicappede":5691,"budgettet":5692,"Ġfortolkning":5693,"Ġrammeprogram":5694,"Ġforhandle":5695,"steuropa":5696,"Ġfaktor":5697,"Ġmigration":5698,"leder":5699,"Ġforuro":5700,"Ġherfor":5701,"Ġvenner":5702,"Ġadministra":5703,"ĠEuropol":5704,"ĠhvornÃ¥r":5705,"sfri":5706,"Ġkommentarer":5707,"ĠmÃ¸n":5708,"Ġappeller":5709,"Ġtekstil":5710,"Ġsalg":5711,"ash":5712,"ĠlÃ¦se":5713,"unde":5714,"Ġbefolkninger":5715,"Ġtorsdag":5716,"Ġkvinderne":5717,"Ġforeslog":5718,"ĠindtrÃ¦ngende":5719,"Ġmundtlige":5720,"spar":5721,"Ġsukker":5722,"ĠValuta":5723,"Ġforurolig":5724,"yre":5725,"Formanden":5726,"ah":5727,"sionen":5728,"Ġhersker":5729,"Ġ...":5730,"Ingen":5731,"Ġforbedres":5732,"ituationen":5733,"Ġoplevet":5734,"flÃ¸j":5735,"Ġfrugt":5736,"Ġgas":5737,"Ġbelg":5738,"Ġtilpasning":5739,"Ġforholder":5740,"Deres":5741,"programmer":5742,"Hvilke":5743,"199":5744,"Har":5745,"apan":5746,"sning":5747,"ank":5748,"osnien":5749,"Ġ0":5750,"nergi":5751,"satlan":5752,"itau":5753,"Ġtaknemmelig":5754,"forb":5755,"kohol":5756,"Ġdengang":5757,"Ġtel":5758,"Ġalli":5759,"Ġnukle":5760,"sfond":5761,"Ġbiler":5762,"Ġsupplerende":5763,"ons":5764,"akedon":5765,"cedurer":5766,"ĠpÃ¥virker":5767,"ĠkÃ¸d":5768,"Ġskel":5769,"Ġreager":5770,"Ġbeviser":5771,"ĠrÃ¦":5772,"Res":5773,"smidler":5774,"Ġudryd":5775,"Ġrimelig":5776,"Ġmedlemslandene":5777,"irekte":5778,"indvis":5779,"Ġglobalisering":5780,"Ġarbejdsmarkedets":5781,"situationen":5782,"ĠdÃ¦kke":5783,"byrdes":5784,"enda":5785,"Ġafgjort":5786,"eskÃ¦ftig":5787,"ĠnedskÃ¦r":5788,"idste":5789,"Ġunderlagt":5790,"Ġsvaret":5791,"Ġpolitikken":5792,"Ġbeslutningstagning":5793,"delse":5794,"ĠfÃ¸res":5795,"Ġkravet":5796,"ĠafhjÃ¦lp":5797,"ĠsjÃ¦l":5798,"Ġhurtige":5799,"ĠSociale":5800,"Ġtoler":5801,"varer":5802,"Ġtjenesteg":5803,"Ġ31":5804,"Ġkinesiske":5805,"Ġophold":5806,"Ġafgifter":5807,"Ġeksperter":5808,"Ġvelstand":5809,"Ġdialogen":5810,"Ġnaboskab":5811,"Ġlandbrugs":5812,"spil":5813,"abil":5814,"ĠBSE":5815,"oret":5816,"ĠforfÃ¦rd":5817,"ĠPak":5818,"ĠfastsÃ¦ttes":5819,"ĠTil":5820,"Ġoveralt":5821,"Ã³":5822,"Ġtilveje":5823,"Ġvirkelige":5824,"ĠuafhÃ¦ngig":5825,"middag":5826,"alder":5827,"Ġlag":5828,"revne":5829,"forsk":5830,"Ġstyrkes":5831,"skriter":5832,"Ġfond":5833,"ĠDomstolen":5834,"ĠSerbien":5835,"Ġfattigste":5836,"Ġkonflikten":5837,"Ġhj":5838,"Ġprotes":5839,"ĠGen":5840,"fuldt":5841,"unikation":5842,"rim":5843,"ventioner":5844,"Ġfagforen":5845,"Ġenstemmigt":5846,"ellekt":5847,"acc":5848,"Ġbekostning":5849,"istere":5850,"vo":5851,"ĠforetrÃ¦":5852,"LAF":5853,"rering":5854,"ĠProdi":5855,"ĠUngarn":5856,"mel":5857,"Ġasy":5858,"Ġeftermiddag":5859,"Ġgentagne":5860,"Ġatomkraft":5861,"sivt":5862,"Ġpermanent":5863,"ĠforelÃ¸b":5864,"Ġalternativ":5865,"Ġoffentligt":5866,"ĠIndustri":5867,"ĠbekrÃ¦fter":5868,"ĠherpÃ¥":5869,"ĠBosnien":5870,"Afslutning":5871,"Ġforvaltningen":5872,"Ġoperation":5873,"Ġvirke":5874,"Ġkravene":5875,"Ġtilpass":5876,"Ġstrafferet":5877,"berettig":5878,"Ġlys":5879,"hn":5880,"Ġ26":5881,"ylde":5882,"Ġfair":5883,"Ġimpor":5884,"ĠCentralbank":5885,"cens":5886,"Ġ28":5887,"ĠprimÃ¦re":5888,"orgerne":5889,"Ġbehandlingen":5890,"Ġundtagelser":5891,"ĠpÃ¥virke":5892,"ttelse":5893,"Ġsender":5894,"Ġforskellig":5895,"Ġomstrukturering":5896,"ekÃ¸d":5897,"sproceduren":5898,"Ġrapporter":5899,"omrÃ¥derne":5900,"Ġsidder":5901,"ĠuretfÃ¦rd":5902,"ĠUdenrig":5903,"smod":5904,"Ġtilt":5905,"smÃ¦nd":5906,"Ġforestille":5907,"KOM":5908,"ĠKroatien":5909,"ĠÃ¸gede":5910,"ĠMonetÃ¦re":5911,"Ġfoder":5912,"ĠgennemfÃ¸relses":5913,"Ġhjemme":5914,"Ġforvente":5915,"mbud":5916,"Ġudvise":5917,"Ġangiv":5918,"afgifter":5919,"Ġnordlige":5920,"RO":5921,"sstraf":5922,"Eftersom":5923,"Ġengager":5924,"Ġskib":5925,"ĠsÃ¥rbare":5926,"derende":5927,"Ġdram":5928,"Ġmekanismer":5929,"Ġdon":5930,"Ġoversv":5931,"rerer":5932,"ĠudsÃ¦ttes":5933,"Ġbom":5934,"ĠKin":5935,"ĠUdvalg":5936,"Ġrespekten":5937,"nedsm":5938,"ĠhÃ¦r":5939,"Ġundermin":5940,"Ġminutter":5941,"ĠopstÃ¥":5942,"ĠFinland":5943,"Ã¥g":5944,"Ġvirkelighed":5945,"Ġmotor":5946,"ĠTyrkiets":5947,"versi":5948,"ĠprÃ¦cist":5949,"Ġerhvervslivet":5950,"Ã¥let":5951,"ttrÃ¦":5952,"ĠnÃ¦stformand":5953,"adtil":5954,"Ġudvidet":5955,"2000":5956,"Ġassocierings":5957,"Ġheri":5958,"vÃ¦rker":5959,"ĠidÃ©en":5960,"Afslutningsvis":5961,"Ġtilladelse":5962,"ĠdÃ¦kker":5963,"Ġpresserende":5964,"Ġindirekte":5965,"Ġklager":5966,"ente":5967,"ĠudgÃ¸re":5968,"rette":5969,"valitet":5970,"Ġlyd":5971,"Ġposition":5972,"Naturligvis":5973,"Ġminder":5974,"proceduren":5975,"ĠdrÃ¸ftelse":5976,"Ġafholde":5977,"Ġbillede":5978,"Ġcivilsamfund":5979,"ĠtÃ¸r":5980,"Ġindbyrdes":5981,"ĠMakedon":5982,"Ġforventes":5983,"Ġintellekt":5984,"ini":5985,"Ġopfat":5986,"ĠafhÃ¦ngige":5987,"Ġalternative":5988,"Ġargument":5989,"Ġenergieffektivitet":5990,"Ġusikkerhed":5991,"Ġhavne":5992,"kommer":5993,"ĠkÃ¦mper":5994,"Ã¸jet":5995,"ĠvÃ¦lger":5996,"saktioner":5997,"Ġordninger":5998,"ĠhÃ¥be":5999,"ĠstÃ¸rstedelen":6000,"strument":6001,"ĠrÃ¥der":6002,"Ġsendt":6003,"ĠTransport":6004,"Ġfemte":6005,"Ġadgangen":6006,"ĠfÃ¦rdig":6007,"Ġvellykket":6008,"tede":6009,"Ġotte":6010,"ĠhÃ¦nger":6011,"ĠpÃ¥lid":6012,"artret":6013,"ĠbegÃ¥et":6014,"Ġradik":6015,"Ġtraged":6016,"Ġoplyse":6017,"celona":6018,"Over":6019,"edel":6020,"Ġformiddag":6021,"Ġbekymrede":6022,"Ġvare":6023,"kraf":6024,"Ġlytte":6025,"Ġudstyr":6026,"Ġgruppes":6027,"Ġkonsens":6028,"Ġhvorved":6029,"Ġtraktaterne":6030,"Ġmonop":6031,"krafttrÃ¦":6032,"tra":6033,"ĠopnÃ¥r":6034,"skrÃ¦n":6035,"erioden":6036,"ĠbegrÃ¦nsede":6037,"Ġkendt":6038,"Ġnederlandske":6039,"Ġtredjeland":6040,"Ġoplysning":6041,"Ġ,":6042,"Ġkomplek":6043,"Ġbragt":6044,"Ġudenrigsminister":6045,"ĠKyoto":6046,"uss":6047,"Ġskub":6048,"afrika":6049,"anerne":6050,"Ġindik":6051,"organisation":6052,"Ġhensyntagen":6053,"Ġsystematisk":6054,"ĠsvÃ¦":6055,"Ġopposition":6056,"sbe":6057,"Ġradio":6058,"Ġtrusler":6059,"04":6060,"ĠtillÃ¦g":6061,"FormÃ¥let":6062,"Ġalkohol":6063,"Ġregnskabs":6064,"Ġvigtigheden":6065,"Ġtids":6066,"ars":6067,"Ġudtale":6068,"Ġstrategier":6069,"Ġoverbevis":6070,"Â«,":6071,"Ġskibe":6072,"ĠkrÃ¦nkelser":6073,"Ġtilfredshed":6074,"kningen":6075,"Ġtidligt":6076,"Ġindeholdt":6077,"Ġniveauer":6078,"Ġforretningsordenens":6079,"ĠudnÃ¦vn":6080,"Ġkritiske":6081,"Ġanerkendt":6082,"forhandlingerne":6083,"ĠikrafttrÃ¦":6084,"Ġringe":6085,"Ġstim":6086,"Ġformandskabs":6087,"Ġkonventet":6088,"Ġspur":6089,"ĠGeorgien":6090,"mann":6091,"ĠBorgernes":6092,"Ġkriminelle":6093,"ĠSlovak":6094,"Ġtydeligvis":6095,"uds":6096,"ĠLam":6097,"ĠlÃ¥n":6098,"vit":6099,"Ġafbr":6100,"sko":6101,"ĠDerfor":6102,"Ġforurening":6103,"Ġpap":6104,"Ġlukke":6105,"Ġfremmed":6106,"muligheder":6107,"Ġmas":6108,"lang":6109,"Ġinstans":6110,"ĠNice":6111,"Ġungarske":6112,"ĠdÃ¸de":6113,"tekn":6114,"ĠtrÃ¦de":6115,"Ġdomin":6116,"Ġtransatlan":6117,"ids":6118,"Ġfremskynde":6119,"ĠkommissÃ¦rer":6120,"ryde":6121,"Ġfant":6122,"menterne":6123,"Ġuheld":6124,"ĠreligiÃ¸se":6125,"Ġtilsagn":6126,"raksis":6127,"Ġgenopretning":6128,"Ġegentlige":6129,"frihed":6130,"Ġsommer":6131,"ellig":6132,"ĠforlÃ¸b":6133,"Ġlangsigtede":6134,"Ġinsp":6135,"gÃ¸relsen":6136,"Ġtraktatens":6137,"KommissÃ¦r":6138,"Ġfanger":6139,"Europ":6140,"oning":6141,"ĠlÃ¸sningen":6142,"ĠbekrÃ¦ftet":6143,"beretning":6144,"ĠindkÃ¸b":6145,"Ġkonsolider":6146,"Ġensid":6147,"ĠdÃ¸dsstraf":6148,"Ġforvir":6149,"Ġbelgiske":6150,"ader":6151,"ĠJapan":6152,"Udvalget":6153,"Ġbyer":6154,"Ġstod":6155,"Ġbestemmelse":6156,"ĠBelgien":6157,"orier":6158,"Ġforbund":6159,"Ġetniske":6160,"ĠanlÃ¦g":6161,"Ġklarhed":6162,"spÃ¸rgsmÃ¥let":6163,"ĠFÃ¸r":6164,"Ġutvivl":6165,"ladt":6166,"mindre":6167,"spor":6168,"Ġanliggende":6169,"ĠOr":6170,"Ġmedier":6171,"ĠrÃ¥dsformanden":6172,"fun":6173,"ĠkÃ¸retÃ¸jer":6174,"Ġmarkederne":6175,"ĠbesÃ¸":6176,"arÃ¥det":6177,"direkt":6178,"Ġbeklageligt":6179,"ftet":6180,"ura":6181,"ada":6182,"Ġfrihandels":6183,"ĠdÃ¥rlige":6184,"Ġerkender":6185,"Ġankl":6186,"orea":6187,"Ġ2011":6188,"fe":6189,"Ġtort":6190,"Ja":6191,"Ġinformere":6192,"Ġbilag":6193,"ĠBarcelona":6194,"And":6195,"ĠstrÃ¸":6196,"energi":6197,"Ġfornuftige":6198,"Ġhedder":6199,"Gennem":6200,"Ġlands":6201,"Ġbevillinger":6202,"Ġeffekt":6203,"ĠMenneskerettighed":6204,"baser":6205,"Ġudvikler":6206,"Ġfamili":6207,"Ġhenvise":6208,"Ġutvivlsomt":6209,"Ġbolig":6210,"ĠÃ¥":6211,"Ġloven":6212,"Ġplanlagt":6213,"sagen":6214,"edig":6215,"Ġfredsprocessen":6216,"Ġydes":6217,"Ġvender":6218,"ĠordfÃ¸rerne":6219,"rise":6220,"Ġbanker":6221,"egen":6222,"Ġkommentere":6223,"astrich":6224,"Ġtvunget":6225,"ĠCol":6226,"ĠhÃ¥rd":6227,"Ġbegrebet":6228,"oplysninger":6229,"ĠMinister":6230,"Ġerkend":6231,"Ġadministration":6232,"Ġkommissionsformand":6233,"Ġsubsidiaritetsprincippet":6234,"ĠlÃ¸bende":6235,"ĠindfÃ¸rer":6236,"Ġflertallet":6237,"kri":6238,"ĠGal":6239,"Ġforhindrer":6240,"Ġbekymrer":6241,"Eller":6242,"Ġtilkende":6243,"ĠtilhÃ¸rer":6244,"Ġensartet":6245,"obby":6246,"ansvar":6247,"mmes":6248,"Ġunderskrevet":6249,"EC":6250,"ĠCub":6251,"ĠInter":6252,"ĠÃĺster":6253,"tagelsen":6254,"Ġcharter":6255,"Ġteknologiske":6256,"rÃ¥dt":6257,"ĠberÃ¸rt":6258,"Ġplenarforsamling":6259,"OrdfÃ¸reren":6260,"ĠkÃ¸b":6261,"Ġrealistisk":6262,"cip":6263,"initiativ":6264,"Ġafslutningen":6265,"Ġydre":6266,"ĠuundgÃ¥":6267,"ĠForbruger":6268,"Ġelektric":6269,"MÃ¸det":6270,"Ġvider":6271,"ĠtrÃ¦der":6272,"Ġkompetente":6273,"ĠigangvÃ¦rende":6274,"ĠskÃ¦b":6275,"Ġafrikanske":6276,"ĠDo":6277,"ultin":6278,"hÃ¥nden":6279,"oet":6280,"Ã¸ber":6281,"Ġafklar":6282,"atten":6283,"ital":6284,"rifter":6285,"Ġanalyser":6286,"omp":6287,"retÃ¦r":6288,"bil":6289,"lod":6290,"Ġnyttigt":6291,"isch":6292,"Ġobservat":6293,"ĠÃ¸strigske":6294,"tek":6295,"Ġrettighed":6296,"ĠMakedonien":6297,"Ġul":6298,"Ġjus":6299,"ĠPÃ¥":6300,"Ġbetydnings":6301,"Ġindkomst":6302,"Ġembedsm":6303,"ĠÃĺsteuropa":6304,"Ġkristne":6305,"vÃ¦rdigt":6306,"ova":6307,"Ġfaste":6308,"ĠPakistan":6309,"vande":6310,"orerne":6311,"ĠbÃ¦redygtige":6312,"ĠdrÃ¸ftelserne":6313,"Ġafskaffe":6314,"sa":6315,"yring":6316,"ĠpÃ¥peget":6317,"Ġbank":6318,"Ġfremstil":6319,"ĠCo":6320,"finansiering":6321,"Ġmultin":6322,"Ġerstatning":6323,"ĠTh":6324,"Ġsmule":6325,"ferencer":6326,"ĠfÃ¦ngsl":6327,"Ġkonsensus":6328,"ĠopstÃ¥et":6329,"Ġobligatorisk":6330,"Ġregionalt":6331,"Ġunderstregede":6332,"Ġlisten":6333,"Ġekstremt":6334,"Ġvenstre":6335,"Ġudtrykt":6336,"aktiviteter":6337,"vandet":6338,"Ġkvind":6339,"Ġerstatte":6340,"Ġkonklusionerne":6341,"ĠforespÃ¸rgsel":6342,"elef":6343,"imb":6344,"ĠklimaÃ¦ndringerne":6345,"IS":6346,"Ġuform":6347,"Ġ29":6348,"Ġteg":6349,"ĠÃ¦re":6350,"ĠEuroparÃ¥det":6351,"ĠfastsÃ¦tter":6352,"ĠbegrÃ¦nsning":6353,"befolkning":6354,"Ġurim":6355,"Ġbeslutte":6356,"Ġkonvergens":6357,"Ġ500":6358,"Ġkompliceret":6359,"ĠMaastrich":6360,"analy":6361,"Ġkonstruktive":6362,"mmere":6363,"Ġkonventionen":6364,"Ġmenneskehandel":6365,"Ġtortur":6366,"Ġluftfartss":6367,"ĠovertrÃ¦delser":6368,"ĠfÃ¦nomen":6369,"stekn":6370,"ĠOmbud":6371,"Ġoverbevise":6372,"Ġulykker":6373,"Ġlangsigtet":6374,"Ġpasser":6375,"Ġkvalifikationer":6376,"Ġoks":6377,"aterede":6378,"Ġforebygge":6379,"Ġdiskussionen":6380,"ĠÃ¸jne":6381,"Ġinfl":6382,"erefter":6383,"Ġundervisning":6384,"vÃ¦gt":6385,"ong":6386,"ĠstatsstÃ¸tte":6387,"Ġeksistens":6388,"Ġvirksomheders":6389,"Ã¸tten":6390,"ĠpÃ¥beg":6391,"Ġintervention":6392,"ultatet":6393,"Ġpartnerskabs":6394,"Ġindf":6395,"Ġkunst":6396,"Ġresolution":6397,"Ġ70":6398,"ĠlÃ¸fte":6399,"Ġspillet":6400,"Ġfredelig":6401,"Ġgeografiske":6402,"Ġlanddistrikter":6403,"Ġfarligt":6404,"ĠoversvÃ¸mm":6405,"Ġdefinere":6406,"Problemet":6407,"Ġsc":6408,"Ġvent":6409,"Ġkatastrofer":6410,"Ġillu":6411,"Ġforblive":6412,"ĠfÃ¸rte":6413,"Ġbeskytter":6414,"Ġefterretning":6415,"Ġtranse":6416,"Ġmodstrid":6417,"Ġelektricitet":6418,"mÃ¸det":6419,"ĠJo":6420,"prÃ¸":6421,"indsat":6422,"ĠSocialdemokratiske":6423,"Ġanbefaler":6424,"Ġbeskatning":6425,"ĠGaz":6426,"Ġforetager":6427,"foruren":6428,"Ġusik":6429,"Ġdirektivets":6430,"ĠuopsÃ¦tt":6431,"ykke":6432,"Ġafviser":6433,"ĠsammensÃ¦":6434,"chen":6435,"sproj":6436,"Ġforstand":6437,"Ġbefolkningens":6438,"Ġtilslutning":6439,"bak":6440,"mar":6441,"Ġafsat":6442,"agentur":6443,"Ġkvalificeret":6444,"ĠplanlÃ¦gning":6445,"Ġdiskuterer":6446,"Ġfrivillige":6447,"Hver":6448,"NL":6449,"melse":6450,"ino":6451,"Ġudpeg":6452,"ĠreprÃ¦senteret":6453,"beskyttelses":6454,"Ġhusker":6455,"ekommunikation":6456,"kas":6457,"ĠAgenda":6458,"Ġdomm":6459,"Ġeventuelt":6460,"sregler":6461,"Ġretss":6462,"mpro":6463,"Ġaccepteres":6464,"Ġlejligheder":6465,"institutionerne":6466,"Ġlokalt":6467,"Ġinddrages":6468,"ulighed":6469,"ĠÃ¸ger":6470,"Ġinsister":6471,"Ġlast":6472,"Ġlevere":6473,"ĠprÃ¸ve":6474,"ĠopfÃ¸lg":6475,"iseringen":6476,"Ġfremsatte":6477,"Ġstandse":6478,"Ġmedvirke":6479,"myndighed":6480,"Ġureg":6481,"Ġoptaget":6482,"ekÃ¦mpelse":6483,"nam":6484,"forklar":6485,"imbab":6486,"Ã¤":6487,"sili":6488,"Ġforsigtighed":6489,"Ġbyrde":6490,"ĠFiskeri":6491,"Ġafstand":6492,"rettigheder":6493,"Ġglobaliseringen":6494,"servative":6495,"Ġnaboer":6496,"Ã¦rt":6497,"Ġ90":6498,"Ġhas":6499,"Ġug":6500,"vejen":6501,"gÃ¸res":6502,"ĠÃ¥rsagerne":6503,"ĠunÃ¸dvend":6504,"givere":6505,"Situationen":6506,"Ġandel":6507,"yttede":6508,"ĠMarok":6509,"atter":6510,"ex":6511,"stan":6512,"ĠprÃ¦get":6513,"weiz":6514,"Ġgro":6515,"rad":6516,"ĠCuba":6517,"ĠmiljÃ¸ven":6518,"tÃ¦n":6519,"Ġstabilitetsp":6520,"Ġintensi":6521,"gelser":6522,"Ġrev":6523,"ĠbÃ¸rns":6524,"Ġpolske":6525,"Ġmegen":6526,"Ġrappor":6527,"Ġlevnedsm":6528,"Ġovervinde":6529,"vÃ¦rdige":6530,"itionen":6531,"ĠDenne":6532,"Ġtilskynd":6533,"ĠmonetÃ¦re":6534,"Ġkre":6535,"ĠMan":6536,"Ġkriser":6537,"Ġjernbane":6538,"Ġkvinde":6539,"Ġwe":6540,"ĠMart":6541,"ĠfÃ¸lgerne":6542,"Ġinterinstitutionelle":6543,"Ġmedierne":6544,"kontroludvalget":6545,"Net":6546,"kap":6547,"Ġhalvdelen":6548,"MU":6549,"Ġstraffe":6550,"Ġdrivhus":6551,"Ġhavn":6552,"anda":6553,"ĠsÃ¦dvan":6554,"reglerne":6555,"ĠbestrÃ¦belserne":6556,"15":6557,"Ġdanske":6558,"Ġnor":6559,"Ġmekanisme":6560,"forme":6561,"Ġstrukturelle":6562,"Ġoffentliggjort":6563,"gelses":6564,"Ġforfal":6565,"Ġbredt":6566,"Ġmedtaget":6567,"Ġforenkle":6568,"Ġovervejelse":6569,"Land":6570,"gelig":6571,"ikal":6572,"oul":6573,"Ġsikret":6574,"Ġudbud":6575,"Ġpatent":6576,"rÃ¶":6577,"Ġforv":6578,"ĠÃ¥rtier":6579,"ĠbegrÃ¦nser":6580,"Ġratificeret":6581,"Ġinddragelse":6582,"ciplin":6583,"ue":6584,"ĠSa":6585,"ĠÃ¦ndringsforslaget":6586,"Ġtilfredse":6587,"Ġbog":6588,"Ġmeddele":6589,"vurdering":6590,"Ġrespekteres":6591,"Ġdemonst":6592,"Ġ.":6593,"Ġundlade":6594,"Ġacceptabelt":6595,"Ġdoll":6596,"Ġderved":6597,"ĠBus":6598,"kets":6599,"ĠBerlin":6600,"ĠomgÃ¥ende":6601,"Ġfremstilling":6602,"ĠfordÃ¸mmer":6603,"Ġsti":6604,"Ġmente":6605,"ip":6606,"Ġomgang":6607,"ringes":6608,"bestemmelser":6609,"ĠophÃ¸r":6610,"Ġmakro":6611,"Ġfransk":6612,"mping":6613,"Ġfinansieres":6614,"Ġforebyggende":6615,"Ġintellig":6616,"ĠtranseuropÃ¦iske":6617,"Ġpes":6618,"vendt":6619,"Ġalmindelig":6620,"eneral":6621,"skrav":6622,"ĠudstÃ¸delse":6623,"punkter":6624,"iger":6625,"Ġ197":6626,"Ġstabilitets":6627,"ala":6628,"Ġnav":6629,"Ġtilbud":6630,"Ġambitioner":6631,"co":6632,"Ġskole":6633,"Ġprisen":6634,"Ġprioritering":6635,"Ġmisfor":6636,"Ġparlamentsmedlemmerne":6637,"Ġveje":6638,"Ġfiskeriet":6639,"Ġskadelige":6640,"Fra":6641,"iversitet":6642,"Ġudenlandske":6643,"ĠMinisterrÃ¥det":6644,"Ġstraf":6645,"tyd":6646,"Ġforordninger":6647,"tivt":6648,"Ġekstrem":6649,"sides":6650,"bel":6651,"Ġprocent":6652,"sfriheden":6653,"FI":6654,"Ġnylige":6655,"Ġlykke":6656,"ĠECB":6657,"Ġasylan":6658,"ĠfÃ¸der":6659,"Ġindstillet":6660,"Ġhelbred":6661,"Ġforkerte":6662,"ĠlandmÃ¦ndene":6663,"Ġbist":6664,"revis":6665,"mmelighed":6666,"rien":6667,"Ġterrorismen":6668,"Faktisk":6669,"Ġforkastet":6670,"Ġminist":6671,"lÃ¦ggelse":6672,"ĠglÃ¦d":6673,"Ġnegativ":6674,"akker":6675,"stren":6676,"ĠoksekÃ¸d":6677,"Ġuddy":6678,"MO":6679,"Ġordentlig":6680,"ĠLa":6681,"stater":6682,"ĠpÃ¥st":6683,"skodeks":6684,"Ġlufthavn":6685,"ĠÃ¥revis":6686,"Ġdagen":6687,"Ġprivile":6688,"jetjen":6689,"ikro":6690,"Ġnationer":6691,"runde":6692,"ĠPSE":6693,"ĠRegional":6694,"ase":6695,"Ġz":6696,"Ġuro":6697,"ĠMaastricht":6698,"vnen":6699,"rasili":6700,"Ġchartret":6701,"Ġbrev":6702,"Ġmodifi":6703,"ĠvÃ¦rkt":6704,"Ġtelekommunikation":6705,"ĠEnergi":6706,"Ġforbyde":6707,"ĠLatin":6708,"Ġrose":6709,"Ġtjenestegrene":6710,"Ġforandringer":6711,"ĠenestÃ¥ende":6712,"Ġanerkendes":6713,"ĠÃ¸jnene":6714,"eskÃ¦ftigelse":6715,"Ġbevil":6716,"Ġdeltog":6717,"Ġseksuel":6718,"Arbej":6719,"Ġafholdes":6720,"ill":6721,"ĠBu":6722,"ĠBro":6723,"Ġfinansk":6724,"vestering":6725,"ĠRepublikken":6726,"Ġekstraordin":6727,"Ġvinde":6728,"Ġredskab":6729,"Ġfordeling":6730,"Ġstiger":6731,"Ġgrundigt":6732,"Ġudtalelsen":6733,"Ġab":6734,"bevilling":6735,"ĠefterhÃ¥nden":6736,"ĠbehÃ¸r":6737,"lement":6738,"lovgivningen":6739,"Ġutilf":6740,"Ġdetaljeret":6741,"Ġservice":6742,"sordninger":6743,"Ġopfordret":6744,"Ġgeneration":6745,"Ġprioritere":6746,"sprogrammet":6747,"Ġgrundig":6748,"Ġdanne":6749,"CE":6750,"Ġudvist":6751,"uld":6752,"ĠFormand":6753,"ceringen":6754,"Ġholdes":6755,"Ġverdensplan":6756,"ĠuafhÃ¦ngigt":6757,"statslige":6758,"Ġbudgetter":6759,"ĠhÃ¸jre":6760,"ĠnÃ¥ede":6761,"kaste":6762,"Ġhundred":6763,"ovjet":6764,"assi":6765,"ĠbeskÃ¦ftige":6766,"Ġtac":6767,"rÃ¦kkende":6768,"ĠlykÃ¸nsker":6769,"aner":6770,"tillid":6771,"Ġfreden":6772,"Ġforfatningst":6773,"ĠkrÃ¦ft":6774,"Ġekspor":6775,"ĠmÃ¦rke":6776,"Ġhul":6777,"ĠbetÃ¦n":6778,"ĠAlban":6779,"fremt":6780,"ĠhÃ¸rte":6781,"Ġstrategien":6782,"Ġfabrik":6783,"ĠtilnÃ¦r":6784,"Ġtanken":6785,"Middelhav":6786,"ulation":6787,"2002":6788,"ĠseriÃ¸st":6789,"Ġkompensation":6790,"Ã¥d":6791,"Ġni":6792,"ÃĺF":6793,"ĠPrÃ¦":6794,"Ġudsted":6795,"Ġcentrum":6796,"oli":6797,"afgift":6798,"politikker":6799,"Ġetableret":6800,"grÃ¦n":6801,"anterne":6802,"vÃ¦rdig":6803,"ĠnÃ¸gle":6804,"Ġkald":6805,"Ġoph":6806,"tidige":6807,"vetyd":6808,"ĠgrÃ¦nsen":6809,"ĠvÃ¦lgere":6810,"na":6811,"Ġsnarest":6812,"ĠBudgetkontroludvalget":6813,"rabiske":6814,"delingen":6815,"Ġkorte":6816,"ĠÃ¥benbart":6817,"Ġindledende":6818,"))":6819,"Ġtobak":6820,"Ġdiskussioner":6821,"ĠforÃ¸gelse":6822,"Ġturisme":6823,"ĠbevÃ¦ge":6824,"ĠMarokko":6825,"ĠslÃ¥et":6826,"ĠnÃ¦rmeste":6827,"Ġforsyning":6828,"vind":6829,"Ġudvides":6830,"Ġulovligt":6831,"SP":6832,"ĠFri":6833,"Ġforsvarer":6834,"projekter":6835,"Ġarrest":6836,"ĠanvendelsesomrÃ¥de":6837,"Ġkompetencer":6838,"Ġvidereg":6839,"ĠSlovakiet":6840,"Ġmultinationale":6841,"SÃ¥ledes":6842,"Ġkorre":6843,"Ġinvest":6844,"Ġpatienter":6845,"ĠtilfÃ¦ld":6846,"idligere":6847,"Ġfac":6848,"Ġbetingelse":6849,"ĠMo":6850,"ĠBurma":6851,"fikation":6852,"Ġomfanget":6853,"ĠfastslÃ¥":6854,"ĠDanmark":6855,"Ġlobby":6856,"ffe":6857,"sstyr":6858,"aftalerne":6859,"ĠÃ¥bner":6860,"handlinger":6861,"Ġmyndigheders":6862,"Ġkrigen":6863,"Ġungdom":6864,"ĠsjÃ¦ld":6865,"NG":6866,"Ġhom":6867,"ĠtÃ¸":6868,"Ġretningslinjerne":6869,"gÃ¥et":6870,"elov":6871,"Ġtilbaget":6872,"spligt":6873,"Ġkollektive":6874,"Ġtving":6875,"Ġfaldet":6876,"Ġprotektion":6877,"grib":6878,"Ġbeskyttes":6879,"Ġracisme":6880,"Ġhvormed":6881,"Ġudviklingslande":6882,"sbestemm":6883,"Ġstreng":6884,"ĠÃ¦ndrede":6885,"Ġnaturkatastro":6886,"Ġetablering":6887,"Ġtilladt":6888,"kor":6889,"ĠmarkedsÃ¸":6890,"sekretÃ¦r":6891,"ĠCar":6892,"ressourcer":6893,"ĠLatinamerika":6894,"kort":6895,"Ġklog":6896,"Ġtilrett":6897,"Ġtilkn":6898,"ĠspÃ¸rgsmÃ¥lene":6899,"systemer":6900,"Beg":6901,"Ġhjemland":6902,"Netop":6903,"Ġudviklingssam":6904,"ĠVan":6905,"Ġ1990":6906,"Ġinteresseret":6907,"ĠambitiÃ¸s":6908,"partner":6909,"stabilitet":6910,"unionen":6911,"Union":6912,"urg":6913,"Ġminut":6914,"ĠmÃ¥lrettet":6915,"Ġudtalt":6916,"ferne":6917,"sider":6918,"sikring":6919,"lovgivning":6920,"ĠvÃ¦kstp":6921,"Ġhandelen":6922,"Ġstrengere":6923,"ĠafhÃ¦ngighed":6924,"ĠforlÃ¦ngelse":6925,"Ġbefolkningerne":6926,"Ġtruer":6927,"Ġfak":6928,"Ġoverskud":6929,"Ġprogramm":6930,"Ġbenytter":6931,"ĠfordÃ¸mm":6932,"Ġhovedsagelig":6933,"ĠforÃ¦ld":6934,"Ġbad":6935,"Ġalmen":6936,"Ġoverholdt":6937,"Ġerhvervsud":6938,"ĠAlli":6939,"Ġordningen":6940,"Ġoprigtig":6941,"Ġbro":6942,"Ġoverf":6943,"havne":6944,"Ġkalde":6945,"hov":6946,"amb":6947,"ĠÃ¸ges":6948,"elskaberne":6949,"Ġomtalte":6950,"Ġlyder":6951,"ĠLitau":6952,"ĠNew":6953,"Ġslov":6954,"ĠoverfÃ¸rsel":6955,"uer":6956,"Ġmedmindre":6957,"Ġbegrundelse":6958,"Ġfj":6959,"ĠZimbab":6960,"organisationen":6961,"Ġskatteyder":6962,"Ġknyttet":6963,"ja":6964,"Ġudvikles":6965,"ĠAsien":6966,"Ġarbejdstid":6967,"Ġkvoter":6968,"Ġinklusive":6969,"had":6970,"ĠbetÃ¦nkningens":6971,"rÃ¸rende":6972,"ĠslÃ¥r":6973,"smetoder":6974,"ĠÃĺstersÃ¸":6975,"Ġretsfor":6976,"ftt":6977,"ĠarbejdslÃ¸se":6978,"Ġtransatlantiske":6979,"Ġenorm":6980,"gyp":6981,"agner":6982,"parelser":6983,"sgrupper":6984,"Ġydelser":6985,"Ġbrede":6986,"sÃ¦dvan":6987,"ĠkrÃ¦vet":6988,"Ġoprindelse":6989,"lyd":6990,"Ġmister":6991,"Ġafven":6992,"Ġinformations":6993,"ach":6994,"Ġvalut":6995,"reger":6996,"ĠÃ¸stlige":6997,"pres":6998,"ĠindgÃ¥ende":6999,"ĠsamhÃ¸righedspolitikken":7000,"Ġnedbringe":7001,"Ġpotentielle":7002,"Ġment":7003,"ĠembedsmÃ¦nd":7004,"Ġafvise":7005,"Ġsundhedsp":7006,"Ġeffektiviteten":7007,"Ġsamfunds":7008,"Ġmultilaterale":7009,"Ġjorden":7010,"Ġindust":7011,"Ġoprettes":7012,"lÃ¸se":7013,"Ġration":7014,"sante":7015,"Ġdertil":7016,"Ġbegyndt":7017,"Ġkonkurrencedygtige":7018,"Ġgenetisk":7019,"Ġrige":7020,"ĠordfÃ¸rere":7021,"kaldt":7022,"ĠstÃ¸j":7023,"Ġundertiden":7024,"Ġemissioner":7025,"ĠkrÃ¦nkelse":7026,"ĠTun":7027,"iasko":7028,"Ġdiktatur":7029,"undheden":7030,"Ġnaturlige":7031,"Ġsenest":7032,"ĠfordÃ¸mme":7033,"ĠJugoslavien":7034,"forslaget":7035,"EÃĺF":7036,"Ġ35":7037,"Ġinformeret":7038,"ĠKar":7039,"Ġkalder":7040,"Ġmodernisering":7041,"10":7042,"priser":7043,"pass":7044,"ral":7045,"Ġank":7046,"Ġstoppe":7047,"ĠusÃ¦dvan":7048,"itÃ¦re":7049,"ĠstadigvÃ¦k":7050,"Ġtvang":7051,"Ġandenbehandlingen":7052,"Ġinteressante":7053,"Ġafskedig":7054,"Ġdiskuteret":7055,"Ġhjert":7056,"Ġtransaktioner":7057,"ĠvÃ¦ksten":7058,"to":7059,"ante":7060,"virksomhed":7061,"Ġfiasko":7062,"Ġbund":7063,"Ġudbetal":7064,"ĠvÃ¦rste":7065,"ĠMiddelhavsomrÃ¥det":7066,"Ġprioriterede":7067,"vendelse":7068,"ĠprÃ¦cise":7069,"ĠvÃ¦sentligste":7070,"Ġretsstatsprincippet":7071,"gangen":7072,"Ġindtage":7073,"Ġrelation":7074,"Ġregeringskon":7075,"Ġelektronisk":7076,"Ġliberale":7077,"ĠÃ¥rsagen":7078,"ĠMiddelhavet":7079,"rods":7080,"Ġundskyld":7081,"idaritet":7082,"Ġvidner":7083,"ĠskrÃ¦":7084,"ĠAlbanien":7085,"Ġintegrere":7086,"Ġlide":7087,"ĠÃĺMU":7088,"Ġfrygter":7089,"Ġelektroniske":7090,"Ġderaf":7091,"Ġenergiforsy":7092,"Ġbringes":7093,"Ġharmonisere":7094,"Ġfalde":7095,"Ġbarn":7096,"ĠkÃ¸be":7097,"Ġforuroligende":7098,"Ġplenarforsamlingen":7099,"Ġsamling":7100,"skabelse":7101,"omstolens":7102,"Ã¥der":7103,"mmen":7104,"ĠfÃ¦llesskabs":7105,"Ġ2013":7106,"Ġfiskere":7107,"Ġfokuserer":7108,"Ġstolt":7109,"Ġsplit":7110,"Ġmedlemsland":7111,"Ġsymp":7112,"Ġobligatoriske":7113,"vÃ¥g":7114,"terende":7115,"Ġkollegerne":7116,"ĠPrÃ¦sidi":7117,"Frem":7118,"ĠspÃ¸rget":7119,"Ġinitiativet":7120,"betingelser":7121,"ĠCanada":7122,"Ġmedarbejdere":7123,"Ġstammer":7124,"sme":7125,"Ġprincipielt":7126,"ck":7127,"Ġudviklingsb":7128,"ĠLond":7129,"ĠdrÃ¦b":7130,"ĠEr":7131,"Ġoversk":7132,"Ġparlamentarisk":7133,"Ġforsinkelser":7134,"stjenester":7135,"Ġvild":7136,"ĠPalÃ¦st":7137,"formation":7138,"ĠbÃ¦rer":7139,"skede":7140,"Ġkurs":7141,"Hun":7142,"lykke":7143,"Ġredde":7144,"Ġdetaljerede":7145,"Ġstuderende":7146,"IB":7147,"istrib":7148,"Ġkost":7149,"forval":7150,"Reg":7151,"ĠmiljÃ¸beskyttelse":7152,"agn":7153,"riber":7154,"Ġgenoptaget":7155,"ĠafgÃ¸re":7156,"Ġmedtage":7157,"ĠudfÃ¸rer":7158,"ĠMold":7159,"Ġregne":7160,"Ġfastsatte":7161,"Ġstaten":7162,"Ġdemonstra":7163,"ĠnÃ¦gter":7164,"Ġrevidere":7165,"Ġsamarbejder":7166,"Ġklage":7167,"Ġuacceptabel":7168,"ession":7169,"Ġrelationer":7170,"ĠÃ¸kologiske":7171,"mes":7172,"Ã¸mme":7173,"Ġafskaffelse":7174,"Liges":7175,"god":7176,"klÃ¦ringen":7177,"ĠMil":7178,"1999":7179,"jede":7180,"lerede":7181,"odiversitet":7182,"jetjenien":7183,"Ġgyld":7184,"undersÃ¸g":7185,"Ġsanktion":7186,"ĠLanddistrik":7187,"Ġkontrakter":7188,"ta":7189,"Ġga":7190,"ĠforudsÃ¦tter":7191,"ĠfremhÃ¦ver":7192,"Ġbetalinger":7193,"ĠCon":7194,"bold":7195,"Ġhindre":7196,"Ġ1994":7197,"Ġjournalister":7198,"nelse":7199,"Ġforlan":7200,"landenes":7201,"ĠÃ¦rligt":7202,"ĠbrÃ¦ndstof":7203,"sprog":7204,"Ġluftt":7205,"kot":7206,"hu":7207,"ancer":7208,"Ġindsam":7209,"Ġproduktiv":7210,"ĠfornÃ¸d":7211,"ĠTurisme":7212,"Ġbekymrende":7213,"Ġry":7214,"Ġmagten":7215,"Ġalternativer":7216,"Ġtusindvis":7217,"bevÃ¦g":7218,"2006":7219,"Ġintegr":7220,"Ġtaleren":7221,"eskytt":7222,"Ġregulere":7223,"Ġproducenterne":7224,"smanden":7225,"Ġretter":7226,"ĠAsh":7227,"gypten":7228,"ĠBeskÃ¦ftigelse":7229,"ĠfÃ¸lges":7230,"smodel":7231,"Ġudnyttes":7232,"Ġanstren":7233,"ĠadfÃ¦rdskodeks":7234,"ĠstÃ¸rrelse":7235,"Ġha":7236,"Ġkoncep":7237,"ĠhÃ¥ndtering":7238,"ĠdrÃ¸ftes":7239,"ĠGenÃ¨":7240,"midlertid":7241,"fÃ¸lelse":7242,"Ġliberaliseringen":7243,"ĠlÃ¸sl":7244,"ĠforudsÃ¦tninger":7245,"Ġautomatisk":7246,"ĠbemÃ¦rke":7247,"Ġovervejer":7248,"ceg":7249,"Ġsamordning":7250,"ĠOLAF":7251,"ĠselvstÃ¦ndige":7252,"Ġillegale":7253,"Ġkvindernes":7254,"Ġuregel":7255,"Ġkat":7256,"Ġreal":7257,"topmÃ¸det":7258,"vning":7259,"ĠGeneral":7260,"Ġrapporten":7261,"Ġsyvende":7262,"Ġtekster":7263,"Ġmidlertidige":7264,"Ġumiddelbart":7265,"ĠhÃ¸jst":7266,"Ġparterne":7267,"Ġperif":7268,"Ġenstemmighed":7269,"Ġskrevet":7270,"Ġdigit":7271,"Ġkomplekse":7272,"Ġprivati":7273,"Ġmonopol":7274,"Ġirak":7275,"sled":7276,"Ġvarig":7277,"ĠTjetjenien":7278,"ĠForskning":7279,"ĠskÃ¦bne":7280,"mentere":7281,"Ġtilstand":7282,"ats":7283,"Ġsteget":7284,"Ġenergipolitik":7285,"direktiv":7286,"ristelige":7287,"Ġlegitimitet":7288,"ĠeuropÃ¦erne":7289,"stig":7290,"sket":7291,"ĠUN":7292,"Ġfornuft":7293,"Ġsamle":7294,"yer":7295,"ĠsÃ¦n":7296,"Ġhistorien":7297,"Ġafgive":7298,"Ġtragiske":7299,"tis":7300,"ĠMer":7301,"ĠtjenestemÃ¦nd":7302,"Ġforbliver":7303,"ĠÃ¥bning":7304,"ĠLondon":7305,"Ġmikro":7306,"Ġbane":7307,"Dermed":7308,"ĠÃ¸delÃ¦gge":7309,"Ġregime":7310,"Ġblok":7311,"Ġbegyndte":7312,"Ġformelt":7313,"Ġfordelene":7314,"ins":7315,"ĠFisch":7316,"kelsen":7317,"teringen":7318,"ĠpÃ¥krÃ¦":7319,"Ġlevende":7320,"Ġekspert":7321,"tom":7322,"holdelsen":7323,"ĠasylansÃ¸g":7324,"konferencen":7325,"Ġbetragte":7326,"Ġudarbejdes":7327,"Ġuover":7328,"Ġformod":7329,"Ġmellemlang":7330,"Ġpriserne":7331,"Ġmeddelelsen":7332,"Ġkilde":7333,"Sp":7334,"Ġsinde":7335,"Ġinternt":7336,"pasning":7337,"Ã¸ft":7338,"Ġkonferencen":7339,"Ġserb":7340,"Ġvenlig":7341,"Ġbygninger":7342,"Ġforhandler":7343,"Ġansvarlighed":7344,"Ġforbedrer":7345,"Ġforpligter":7346,"Ġomhyggeligt":7347,"05":7348,"ĠtrÃ¦k":7349,"ĠopnÃ¥ede":7350,"Ġprofit":7351,"amenter":7352,"Ġep":7353,"Ġtydelige":7354,"Ġeksempelvis":7355,"Ġbiodiversitet":7356,"Ġgenopbygning":7357,"2013":7358,"Ġtildelt":7359,"Ġender":7360,"Ġophav":7361,"Ġindbyggere":7362,"ato":7363,"ĠSundhed":7364,"Ġguns":7365,"ĠFÃ¦lles":7366,"gÃ¸rende":7367,"Ġopfordrede":7368,"kostninger":7369,"gjorde":7370,"ĠfremhÃ¦vet":7371,"Ġmistet":7372,"Ġpil":7373,"ĠfÃ¸rende":7374,"sper":7375,"Ġopbygningen":7376,"barhed":7377,"Ġsult":7378,"Ġforene":7379,"Ġvort":7380,"Ġpsy":7381,"Ġinformationssamfund":7382,"Ġtanker":7383,"Ġhensigten":7384,"Ġprivatli":7385,"Ġkemikal":7386,"Ġkommercielle":7387,"Ġfolkesundheden":7388,"pligt":7389,"Ġgradvis":7390,"Ġarbejdsgiver":7391,"Ġrevisionen":7392,"Ġudkastet":7393,"ublin":7394,"ĠafhÃ¦ngig":7395,"Ġtraktater":7396,"Ġimmun":7397,"rÃ¦t":7398,"rang":7399,"Ġbran":7400,"eligheden":7401,"Ġgenind":7402,"ĠforegÃ¥":7403,"institutioner":7404,"Ġkonkurrenceevnen":7405,"Ġmilj":7406,"idenskab":7407,"Ġfaktiske":7408,"Beslu":7409,"Ġkoordinere":7410,"ĠprÃ¦cisere":7411,"bestemmelse":7412,"Ġtabt":7413,"ĠindrÃ¸mme":7414,"ean":7415,"Ġfinske":7416,"Ġundertrykkelse":7417,"ani":7418,"Ġforfatnings":7419,"Ġopstille":7420,"Ġfantas":7421,"ĠEl":7422,"Ġkernekraft":7423,")).":7424,"ĠPalÃ¦stina":7425,"stoffer":7426,"Ġforanstaltningerne":7427,"ĠutilstrÃ¦kkelige":7428,"gerende":7429,".\"":7430,"Ġreduceret":7431,"Sammen":7432,"ĠgeneralsekretÃ¦r":7433,"fen":7434,"fÃ¸rst":7435,"ĠgennemgÃ¥":7436,"Ġfremmes":7437,"ors":7438,"ĠÃ¥rets":7439,"ĠivÃ¦rksÃ¦tter":7440,"Ġforandring":7441,"Mens":7442,"Ġdemografiske":7443,"Ġcivilis":7444,"sÃ¦ttelses":7445,"Ġfjernet":7446,"Ġulem":7447,"Ã¸ren":7448,"nettet":7449,"Ġteknologisk":7450,"Ġafvis":7451,"ttende":7452,"etsudvalget":7453,"lÃ¸b":7454,"givelse":7455,"Ġprocedurerne":7456,"Ġhykler":7457,"Ġudsend":7458,"Ġvacc":7459,"Ġfolkeret":7460,"rapport":7461,"Ġtest":7462,"ĠreprÃ¦sentation":7463,"enterne":7464,"ĠmÃ¦g":7465,"Ġplanlagte":7466,"ork":7467,"Ġhvorledes":7468,"ĠefterspÃ¸rgsel":7469,"Ġbyde":7470,"Ġudlever":7471,"Ġvirkningerne":7472,"Ġkontro":7473,"Ġkonkurrencep":7474,"ĠAndragender":7475,"ĠmedfÃ¸rt":7476,"Ġsyge":7477,"ĠfÃ¦llesskabslov":7478,"opul":7479,"ĠLanddistrikter":7480,"ĠmÃ¦lke":7481,"Ġsepar":7482,"Ġrespektive":7483,"Ġpropor":7484,"Ġomsider":7485,"folk":7486,"Ġtysk":7487,"strumenter":7488,"Ġaftalt":7489,"Ġrelativt":7490,"ĠuregelmÃ¦ss":7491,"flik":7492,"ĠangÃ¥ende":7493,"Ford":7494,"Ġubeg":7495,"ĠudfÃ¸res":7496,"Ġstraffes":7497,"Ġhandlingsplanen":7498,"Ãħr":7499,"Ġtema":7500,"betydende":7501,"Ġpersonlig":7502,"vÃ¦rdier":7503,"Ġformid":7504,"ĠhensigtsmÃ¦ssige":7505,"Ġensbetydende":7506,"ussiske":7507,"Ġatter":7508,"Ġudbyg":7509,"ĠundersÃ¸gelses":7510,"Ġenormt":7511,"blanding":7512,"sordning":7513,"Ġanses":7514,"ĠValutaspÃ¸rgsmÃ¥l":7515,"drag":7516,"ĠsÃ¥fremt":7517,"angreb":7518,"ĠMarked":7519,"Ġinnovative":7520,"Ġhindring":7521,"ĠMiljÃ¸udvalget":7522,"ĠtilrettelÃ¦g":7523,"sbeg":7524,"laus":7525,"fÃ¸lgelse":7526,"Ġprofession":7527,"forand":7528,"Ġann":7529,"Ġbeskrevet":7530,"Ġpresset":7531,"Ġkig":7532,"agter":7533,"atori":7534,"Ã¸jes":7535,"ĠMalt":7536,"ĠkommissÃ¦rens":7537,"ypri":7538,"yret":7539,"lus":7540,"vÃ¦rtimod":7541,"Ġimplem":7542,"Ġuacceptable":7543,"HO":7544,"Imidlertid":7545,"Ġindustrielle":7546,"Ġindgreb":7547,"ĠophÃ¦velse":7548,"ĠafhjÃ¦lpe":7549,"Ġsmu":7550,"Ġudnytter":7551,"otekn":7552,"Ġbeslutsomhed":7553,"Ġ2012":7554,"Ġudvalgets":7555,"Skrift":7556,"ĠLitauen":7557,"skamp":7558,"Ġfortol":7559,"Ġhalvt":7560,"Ġnytte":7561,"Endnu":7562,"ĠEgypten":7563,"ĠMad":7564,"Ġtidsf":7565,"Ġkoordineret":7566,"Ġgensidige":7567,"ĠZimbabwe":7568,"Ġforbudt":7569,"tit":7570,"Ġspare":7571,"ĠnÃ¦ppe":7572,"ĠovertrÃ¦delse":7573,"exic":7574,"Ġmiste":7575,"Ġforbrugeren":7576,"Ġanbefalinger":7577,"ssektor":7578,"Ġudvalgs":7579,"ĠivÃ¦rksÃ¦ttes":7580,"sigelse":7581,"Domstolen":7582,"Ġtjekkiske":7583,"Ġudlandet":7584,"ĠudmÃ¦rkede":7585,"Ġlandbrugsprodukter":7586,"ĠfÃ¦llesskabsretten":7587,"Ġmistillid":7588,"Ġudsigt":7589,"ĠfremlÃ¦gger":7590,"Ġnyde":7591,"Ġidentificere":7592,"Ġked":7593,"Ġskar":7594,"Ġprogrammerne":7595,"ĠbegrÃ¦nses":7596,"Ġoverordnet":7597,"Ġfodbold":7598,"Ġhovedsageligt":7599,"ĠGenÃ¨ve":7600,"ĠforÃ¦ldre":7601,"ley":7602,"oldater":7603,"ĠflerÃ¥rige":7604,"Ġregeringscheferne":7605,"traktatens":7606,"ĠHvad":7607,"ane":7608,"gÃ¸relser":7609,"Ġvelkend":7610,"Ġfiskeris":7611,"tus":7612,"Ġtilsides":7613,"Ġtilbagehold":7614,"ĠDublin":7615,"Ġdrikke":7616,"Ġmateriale":7617,"Ġudforme":7618,"Ġmodtag":7619,"spolitikker":7620,"Ġoptagelse":7621,"slang":7622,"yldt":7623,"Ġlandbrugere":7624,"klÃ¦ring":7625,"Ġvidne":7626,"jour":7627,"Ġfremlagde":7628,"Ġpluds":7629,"krav":7630,"gav":7631,"nerne":7632,"Ġprojektet":7633,"ĠFÃ¸rst":7634,"int":7635,"Ġafb":7636,"Ġombud":7637,"Ġlyttet":7638,"Ġfriheder":7639,"ĠkrÃ¦vede":7640,"ĠbemÃ¦rket":7641,"direktor":7642,"ordfÃ¸r":7643,"ĠundersÃ¸gt":7644,"ĠbevÃ¦ger":7645,"Ġforek":7646,"Ġhoris":7647,"stad":7648,"ĠFra":7649,"Ġdefinitionen":7650,"Ġtraditioner":7651,"Ġforkaste":7652,"Ġforbrugerbeskyttelse":7653,"ĠutilstrÃ¦kkelig":7654,"greb":7655,"Ġforum":7656,"Ġforskningen":7657,"Ġimellem":7658,"Ġfinanser":7659,"rÃ¸der":7660,"Ġtales":7661,"Ġgaranterer":7662,"Ġkoordination":7663,"Ġkriterierne":7664,"rasilien":7665,"ranter":7666,"Ġglade":7667,"spraksis":7668,"Ġnyder":7669,"Ġproducent":7670,"bnede":7671,"kurren":7672,"Ġudviser":7673,"smynd":7674,"ĠGlob":7675,"Enhver":7676,"sind":7677,"Ġstige":7678,"relaterede":7679,"ĠFer":7680,"Ġlangvar":7681,"Ġnemt":7682,"Ġfarlig":7683,"Ġvidenskabelig":7684,"Ġpassagerer":7685,"Ġlogisk":7686,"prÃ¦sent":7687,"12":7688,"Ġindenrig":7689,"Ġsvind":7690,"Ġerindre":7691,"Ġundtagelses":7692,"Ġtilskud":7693,"sudgifter":7694,"ĠhÃ¥bet":7695,"Ġindeholde":7696,"Ġsign":7697,"Ġadvok":7698,"Ġvirksomhedernes":7699,"Ġkapitel":7700,"Ġonsdag":7701,"Ġintellektuelle":7702,"Andre":7703,"Ġmenneskelig":7704,"Ġgenerationer":7705,"ĠnÃ¸jagtig":7706,"SCE":7707,"skap":7708,"ĠSy":7709,"Ġetiske":7710,"ugust":7711,"Ġterritorium":7712,"Ġdistrib":7713,"ĠInvestering":7714,"srettens":7715,"ĠkvÃ¦g":7716,"pet":7717,"Ġforretning":7718,"ĠMal":7719,"Ġretsgrundlaget":7720,"Ligesom":7721,"middel":7722,"lej":7723,"able":7724,"ĠTak":7725,"Ġudtrykker":7726,"ĠmarkedsfÃ¸ring":7727,"enz":7728,"ppet":7729,"oks":7730,"ĠEst":7731,"ĠFÃ¸devar":7732,"ĠfartÃ¸jer":7733,"Ġajour":7734,"Ġbjer":7735,"att":7736,"Ġdeltaget":7737,"Ġfleksibel":7738,"ĠLiby":7739,"Ġsocialdemokrater":7740,"Ġtillige":7741,"Ġtilbagevend":7742,"Ġdefineret":7743,"Ġkonstateret":7744,"Indtil":7745,"Ġmodstandere":7746,"bu":7747,"ĠTi":7748,"ĠfastlÃ¦gges":7749,"obling":7750,"Ġstatsborgere":7751,"Ġcivilsamfundet":7752,"pon":7753,"ĠpÃ¥skud":7754,"valiteten":7755,"Ġtoba":7756,"Ġerhvervs":7757,"ĠfornÃ¸dne":7758,"Ġtillykke":7759,"ĠRo":7760,"Ġkulturel":7761,"Ġstabilisering":7762,"lÃ¸sning":7763,"ersoner":7764,"ellit":7765,"Ġdelvis":7766,"Ġalmindelighed":7767,"Ġoverordentlig":7768,"Ġunivers":7769,"Ġudbredt":7770,"Ġflytte":7771,"UE":7772,"bund":7773,"protokollen":7774,"Ġkontrakt":7775,"ĠHar":7776,"Formand":7777,"Ġfastholder":7778,"ĠVen":7779,"Ġsandheden":7780,"ĠGaza":7781,"ĠmisforstÃ¥":7782,"Ġtobaks":7783,"bli":7784,"Ġvind":7785,"Ġuskyld":7786,"atte":7787,"Ġindsamling":7788,"Ġbeslutningerne":7789,"Ġcy":7790,"ĠFiskeriudvalget":7791,"asi":7792,"Ġtranspor":7793,"Ġnyttig":7794,"gin":7795,"mÃ¸de":7796,"Ġtilh":7797,"Ġstaterne":7798,"ĠberÃ¸":7799,"Ġmission":7800,"Ġhandicap":7801,"artikel":7802,"ikere":7803,"ydelses":7804,"Ġligge":7805,"ktionen":7806,"irland":7807,"Ġstillinger":7808,"Ġsjet":7809,"ĠsÃ¸rger":7810,"Ġtilbyder":7811,"Ġbiob":7812,"ĠOp":7813,"Ġterrorister":7814,"ĠretfÃ¦rdigt":7815,"off":7816,"ĠÃ¥benly":7817,"fÃ¦lde":7818,"Ġstabilitetspagten":7819,"steuropÃ¦iske":7820,"Ġkro":7821,"andel":7822,"fÃ¸rsel":7823,"Ġetableringen":7824,"situation":7825,"ĠTunesien":7826,"ĠindskrÃ¦n":7827,"Ġsamord":7828,"Ġforholdene":7829,"Ġtruet":7830,"Ġkonkurrencefor":7831,"ĠvidtrÃ¦kkende":7832,"ĠrumÃ¦n":7833,"Ġrettes":7834,"Ġbegreb":7835,"Ġsusp":7836,"ĠundersÃ¸ges":7837,"elsesprocessen":7838,"Ġdiplomatiske":7839,"mission":7840,"Ã¦rsk":7841,"Ġlovet":7842,"ĠbemÃ¦rk":7843,"irektiv":7844,"ĠvÃ¦kstpagten":7845,"ugen":7846,"Ġkir":7847,"mmelse":7848,"Ġlukket":7849,"2003":7850,"Ġinddraget":7851,"vÃ¦senet":7852,"Ġnavne":7853,"ye":7854,"stitutionelle":7855,"ruppens":7856,"Ġvokser":7857,"Kristelige":7858,"frit":7859,"Ġflag":7860,"sstruktur":7861,"ĠbÃ¦redygtigt":7862,"Ġlede":7863,"ĠerklÃ¦rede":7864,"Ġfjernes":7865,"vittighed":7866,"smyndighed":7867,"Hvem":7868,"okument":7869,"Ġfattigdommen":7870,"ĠforsÃ¸gte":7871,"mmende":7872,"Ġtilpas":7873,"Ġnormale":7874,"ĠpÃ¥lÃ¦gge":7875,"ĠfastlÃ¦gger":7876,"Ġudarbejdelse":7877,"komst":7878,"ĠKvinder":7879,"Ġskatter":7880,"Ġprioriteres":7881,"Ġanklag":7882,"cy":7883,"udan":7884,"vister":7885,"lades":7886,"auff":7887,"Ġbevidsthed":7888,"Ġreklame":7889,"Ã¸rn":7890,"smuligheder":7891,"ografisk":7892,"ĠAshton":7893,"TA":7894,"telse":7895,"ĠÃ¥rsberetning":7896,"ĠophÃ¦ve":7897,"hjer":7898,"orn":7899,"Ġkoster":7900,"Ġentyd":7901,"elsens":7902,"Ġsamvittighed":7903,"ĠInternational":7904,"ĠnedskÃ¦ringer":7905,"HU":7906,"Nej":7907,"sagt":7908,"ĠRetsudvalget":7909,"Ġkonstaterer":7910,"Ġhidtidige":7911,"ĠforÃ¥rsaget":7912,"ĠtilhÃ¸r":7913,"agefter":7914,"Ġfonde":7915,"Ġbrem":7916,"Ġtilliden":7917,"Ġoperat":7918,"ĠFormandskonferencen":7919,"Ġlufthavne":7920,"handelen":7921,"Ġstatistikker":7922,"ausul":7923,"ĠudsÃ¦tte":7924,"Ġnaturkatastrofer":7925,"igeri":7926,"Ġ300":7927,"ystemet":7928,"oth":7929,"Ġnyttige":7930,"Ġbevarelse":7931,"kar":7932,"Ġstemmeforklar":7933,"Ġleds":7934,"Ġgodkendte":7935,"Ġklimaforand":7936,"ĠNordirland":7937,"Ġarabiske":7938,"Ġho":7939,"elsest":7940,"ĠFl":7941,"sproblemer":7942,"ĠligevÃ¦gt":7943,"Ġinteresserede":7944,"Ġfleksible":7945,"ĠpÃ¥pegede":7946,"ĠgrÃ¸nbogen":7947,"Ġfysiske":7948,"ensk":7949,"Ġarv":7950,"ĠmÃ¦ngder":7951,"Ġkvan":7952,"Ġvedtagne":7953,"Ġforne":7954,"havet":7955,"ĠStock":7956,"Ġruss":7957,"Ġkomplicerede":7958,"ĠforelÃ¸bige":7959,"Ġvalgperiode":7960,"sendt":7961,"ĠfortÃ¦ller":7962,"ĠkÃ¸replan":7963,"stransport":7964,"ligheden":7965,"Ġkorrekte":7966,"ĠbemÃ¦rkelses":7967,"grupper":7968,"Ġforg":7969,"Ġligebehandling":7970,"Ġorganiserede":7971,"anset":7972,"Ġindtager":7973,"Ġpesti":7974,"Ġsjette":7975,"tikler":7976,"rettede":7977,"ĠBrasilien":7978,"ĠsÃ¦rskil":7979,"Ġopbygning":7980,"Ġbordet":7981,"Ġnormer":7982,"ĠMoldova":7983,"amas":7984,"ĠsÃ¥kaldt":7985,"Ġperf":7986,"Ġlidelser":7987,"Ġforrige":7988,"ĠbrÃ¦nd":7989,"ĠDa":7990,"taler":7991,"Ġsvage":7992,"Ġindstil":7993,"Ġkonservative":7994,"Selvom":7995,"Ġappel":7996,"Ġinsistere":7997,"hi":7998,"esterne":7999,"ĠfremsÃ¦tter":8000,"ĠerklÃ¦rer":8001,"Ġdaglig":8002,"Ġforbrydelse":8003,"Ġintegritet":8004,"ung":8005,"ĠDel":8006,"ĠomstÃ¦ndighed":8007,"Ġkende":8008,"ttelsen":8009,"Ġdemokratisering":8010,"anstaltningerne":8011,"ĠbeskÃ¦ftiget":8012,"orgerskab":8013,"Ġlivsk":8014,"Ġmotiver":8015,"ano":8016,"Ġalar":8017,"ĠanfÃ¸rt":8018,"Ġtalrige":8019,"produkt":8020,"Ġknap":8021,"ĠregelmÃ¦ssigt":8022,"offer":8023,"Ġsmit":8024,"ĠmÃ¥lsÃ¦tningerne":8025,"Ġbesvaret":8026,"Ġmoralsk":8027,"Ġytringsfrihed":8028,"Ġaugust":8029,"Ġvillig":8030,"endte":8031,"jern":8032,"Ġproducere":8033,"Ġmillion":8034,"Ġkompromiser":8035,"Ġoverholdelsen":8036,"uddannelse":8037,"Ġbeslutningsprocedure":8038,"Ġreduceres":8039,"Ġkontakter":8040,"ĠForsamling":8041,"Ġvanskeligere":8042,"Ġtemp":8043,"Ġforenet":8044,"bruger":8045,"mÃ¸n":8046,"ofi":8047,"bringelse":8048,"AL":8049,"kostningerne":8050,"ĠSchweiz":8051,"Ġmandag":8052,"ĠudgiftsomrÃ¥de":8053,"Ġhorison":8054,"Ġeli":8055,"ĠÃ¸delagt":8056,"Ġmidlertidig":8057,"Ġtragedie":8058,"ĠSundhedsanliggender":8059,"ĠbÃ¦re":8060,"retari":8061,"Ġligeg":8062,"Ġtvinge":8063,"Ġforventede":8064,"Ġvedtoges":8065,"beslu":8066,"Ġinflation":8067,"NGL":8068,"Ġpsyk":8069,"riske":8070,"Ġafvist":8071,"Ġandenbehandling":8072,"Ġskaffe":8073,"ĠerklÃ¦ret":8074,"ĠhÃ¥rde":8075,"Ġfysisk":8076,"ĠforetrÃ¦kker":8077,"asen":8078,"Ġbortset":8079,"ĠnÃ¦g":8080,"Direktivet":8081,"ĠuregelmÃ¦ssigheder":8082,"ĠEIB":8083,"ĠÃ¸steuropÃ¦iske":8084,"Ġtaletid":8085,"Ġregistrering":8086,"ĠSocialdemokrater":8087,"stitut":8088,"ĠÃ¥rhundred":8089,"ovina":8090,"Ġressourcerne":8091,"Ġkonkurrere":8092,"Ġturist":8093,"Ġutroligt":8094,"Ġtegner":8095,"Ġbu":8096,"Ġbagefter":8097,"forskning":8098,"ĠnÃ¥s":8099,"sigter":8100,"sgrÃ¦n":8101,"ĠopfÃ¸lgning":8102,"NS":8103,"ps":8104,"Ġmedborgere":8105,"TvÃ¦rtimod":8106,"Ġmodificerede":8107,"cu":8108,"Ġparall":8109,"Ġengageret":8110,"Trods":8111,"uropÃ¦isk":8112,"Ġoverfl":8113,"ĠfÃ¸lgelig":8114,"Ġmanglen":8115,"biler":8116,"ned":8117,"Ġ1992":8118,"Ġbegivenhederne":8119,"Ġalles":8120,"Ġligefrem":8121,"Ġopt":8122,"Ġoverlev":8123,"Ġbero":8124,"dyr":8125,"handlingerne":8126,"Ġregner":8127,"ĠundgÃ¥r":8128,"Ġlivslang":8129,"ĠhensigtsmÃ¦ssig":8130,"ĠtrÃ¦n":8131,"ĠEfter":8132,"ĠvÃ¦rdifulde":8133,"Ġkemiske":8134,"ty":8135,"Ġfu":8136,"ĠregnskabsÃ¥ret":8137,"ĠmarkedsÃ¸konomi":8138,"hne":8139,"iskrimin":8140,"Ġvog":8141,"retten":8142,"ĠLad":8143,"Ġsuper":8144,"Ġanmodninger":8145,"sinstrument":8146,"Ġprag":8147,"ĠrÃ¥dgivende":8148,"centre":8149,"Ġindikatorer":8150,"ivet":8151,"riti":8152,"Ġmass":8153,"ogra":8154,"rÃ¥b":8155,"Ġbrutt":8156,"ĠfremhÃ¦ves":8157,"Ġuformelle":8158,"Ġpragm":8159,"MÃ¥let":8160,"Ġvillige":8161,"ĠbetÃ¦nkelig":8162,"ĠInvesteringsb":8163,"test":8164,"siden":8165,"ylder":8166,"Ġnaturligt":8167,"iliteter":8168,"ack":8169,"ĠmÃ¦ngde":8170,"ĠskyggeordfÃ¸r":8171,"Ġtildeling":8172,"ĠLiban":8173,"befolkningen":8174,"abel":8175,"Ġformelle":8176,"Ġarter":8177,"riben":8178,"KÃ¦re":8179,"mekanis":8180,"strÃ¶":8181,"forbud":8182,"Ġundergra":8183,"Ġklassi":8184,"Ġdeltag":8185,"ĠÃ¸kologisk":8186,"veksling":8187,"Ġing":8188,"forbrug":8189,"Ġspis":8190,"Ã¸rgslen":8191,"ĠlÃ¸slad":8192,"strÃ¶m":8193,"Ġflo":8194,"ĠFond":8195,"Ġrestriktioner":8196,"ningsvis":8197,"ĠmÃ¸deperiode":8198,"ĠlÃ¸ser":8199,"result":8200,"priserne":8201,"ĠtilstrÃ¦":8202,"Ġudsk":8203,"reres":8204,"Ġkontor":8205,"Ġstatut":8206,"Ġsmer":8207,"mmelser":8208,"ledende":8209,"Ġtackle":8210,"Ġiran":8211,"ĠudvÃ¦l":8212,"Ġofficielt":8213,"AR":8214,"Ġformentlig":8215,"mmelige":8216,"problem":8217,"Ġbloker":8218,"ĠGUE":8219,"Ġeventuel":8220,"Lige":8221,"ail":8222,"korea":8223,"Ġudgave":8224,"Ġdiver":8225,"ĠprÃ¸ver":8226,"ĠNÃ¦ste":8227,"tika":8228,"ĠdÃ¸mt":8229,"Ġsunde":8230,"deleg":8231,"Ġdaglige":8232,"Ġordlyd":8233,"Ġinstitutioners":8234,"ramme":8235,"Ġtviv":8236,"mÃ¦rkning":8237,"ĠtÃ¦nkt":8238,"ĠCongo":8239,"Ġdelvist":8240,"sborgere":8241,"Ġ37":8242,"ĠundersÃ¸ger":8243,"ĠikrafttrÃ¦den":8244,"Aft":8245,"iler":8246,"skontrol":8247,"ĠKan":8248,"Ġhensig":8249,"ĠGar":8250,"ĠdrÃ¸ftede":8251,"sving":8252,"Ġincitamenter":8253,"ĠLibyen":8254,"enti":8255,"Ġforlade":8256,"cider":8257,"Ġpapir":8258,"Ġlem":8259,"geriet":8260,"Ġkonventioner":8261,"Ġaccept":8262,"Ġhenvises":8263,"Ġformandskabets":8264,"Ġaktiver":8265,"Ġforbuddet":8266,"Ġopstillet":8267,"ĠAtlan":8268,"Ġdumping":8269,"ĠpÃ¥krÃ¦vet":8270,"Ġskit":8271,"ĠOSCE":8272,"Ġmarkedsordning":8273,"Ġoppositionen":8274,"Ġkonstruktivt":8275,"Ġskriftligt":8276,"ĠIndustripolitik":8277,"mennes":8278,"ĠpÃ¥begynd":8279,"Ġkontroversi":8280,"Ġw":8281,"Ġgennemgang":8282,"ĠhÃ¦vet":8283,"Ġhypp":8284,"Ġgennemskuelighed":8285,"ola":8286,"ĠafbrÃ¸d":8287,"ĠColom":8288,"mil":8289,"sede":8290,"Ġvirkeligt":8291,"Ġovergangen":8292,"flu":8293,"Ġtyper":8294,"ĠhÃ¦ndelser":8295,"Ġopfatter":8296,"ulz":8297,"Ġhenviste":8298,"Ġudviklingsbistand":8299,"Ġindvend":8300,"Ġ75":8301,"Ġdrasti":8302,"Ġthe":8303,"ĠhÃ¦vder":8304,"Ġhavet":8305,"Ġopfyldes":8306,"arv":8307,"verden":8308,"ekn":8309,"Ġuansvar":8310,"kÃ¦mp":8311,"etland":8312,"virkninger":8313,"Ġutrolig":8314,"ĠsammensÃ¦tning":8315,"Ġskoler":8316,"Ġkryd":8317,"Ġledende":8318,"Ġneut":8319,"Ġamerikanerne":8320,"Ġterritoriale":8321,"kotland":8322,"skÃ¦l":8323,"Ġfinansmarked":8324,"Ġkontrolleres":8325,"udvik":8326,"forhandlinger":8327,"aret":8328,"omster":8329,"ĠbudgetmÃ¦ssige":8330,"Ġbefolknings":8331,"Ġsatellit":8332,"ĠlÃ¦rt":8333,"Ġperiferi":8334,"Ġsli":8335,"ĠsÃ¥gar":8336,"Ġmodsat":8337,"Ġledsag":8338,"brudt":8339,"ĠGalile":8340,"lÃ¦ggelsen":8341,"sbudget":8342,"Ġanmodede":8343,"Ġkategori":8344,"ĠtilhÃ¦ng":8345,"ampere":8346,"ebyggelse":8347,"personer":8348,"stÃ¥et":8349,"Ã¦rende":8350,"Ġopvar":8351,"Ġfreds":8352,"Ġvalgkreds":8353,"tekst":8354,"tallige":8355,"Ġskibs":8356,"Ġsort":8357,"Ġmad":8358,"Ġerind":8359,"sforbr":8360,"erioder":8361,"Ġeksperti":8362,"ĠMalta":8363,"Ġdrag":8364,"Ġskil":8365,"Ġopgive":8366,"Ġbestyr":8367,"Ġekstern":8368,"splanen":8369,"ĠRuslands":8370,"Ġlegitime":8371,"Ġfrivillig":8372,"ĠSyrien":8373,"hal":8374,"Ġinspi":8375,"Skriftlige":8376,"smyndigheder":8377,"Ġih":8378,"Ġmenneskeheden":8379,"ĠTibet":8380,"fonden":8381,"Ã¦t":8382,"staterne":8383,"Ġtol":8384,"ĠBo":8385,"ĠfÃ¦ngsel":8386,"Ġtav":8387,"vÃ¦rket":8388,"Ġintegrerede":8389,"Unionen":8390,"Ġirakiske":8391,"25":8392,"iget":8393,"isbrug":8394,"skrig":8395,"Ġvigtighed":8396,"Ġforstyr":8397,"Ġpeger":8398,"olle":8399,"Ġinspek":8400,"problemet":8401,"Ġsandhed":8402,"Herceg":8403,"bragt":8404,"heugen":8405,"dis":8406,"enske":8407,"ffen":8408,"Ġfarvande":8409,"pen":8410,"iserede":8411,"Ġindfald":8412,"udio":8413,"Ġdynamik":8414,"ĠforfÃ¦rdelige":8415,"ĠstÃ¥et":8416,"anser":8417,"Ġdecentr":8418,"ĠbesvÃ¦r":8419,"Ġrimelige":8420,"ytning":8421,"Ã¥den":8422,"ĠOmbudsmand":8423,"Ġuguns":8424,"ladser":8425,"Ġbestemme":8426,"Ġretsakter":8427,"Ġforklaring":8428,"fungerende":8429,"infrastruktur":8430,"Ġtom":8431,"problemer":8432,"Ġudvidede":8433,"forurening":8434,"fonde":8435,"Ġpasse":8436,"lÃ¸st":8437,"skriterierne":8438,"Ġstatistiske":8439,"ĠVerdenshandels":8440,"pakken":8441,"Ġdirekt":8442,"Ġstatslige":8443,"Ġfjernsyn":8444,"sministrene":8445,"ompu":8446,"omitÃ©":8447,"tiller":8448,"urd":8449,"Ġrealistiske":8450,"Ġbesid":8451,"ĠgrÃ¸nbog":8452,"ĠSloven":8453,"Ġundertegnet":8454,"ĠÃ¸ver":8455,"Ġfortro":8456,"Ġbegivenhed":8457,"Ġproportion":8458,"Ġrejste":8459,"Ġagenturer":8460,"Ġbureaukratiske":8461,"Ġimmig":8462,"Ġdistribu":8463,"fly":8464,"Ġbeslutter":8465,"LT":8466,"Ġnemmere":8467,"ĠSydafrika":8468,"Ellers":8469,"Ġrevolution":8470,"eren":8471,"ĠTampere":8472,"Ġkoloss":8473,"Ġparad":8474,"hr":8475,"Ġopleve":8476,"srapport":8477,"Ã³n":8478,"ĠdrÃ¦bt":8479,"idem":8480,"Ġudadtil":8481,"ĠoprÃ¸r":8482,"Ġratificere":8483,"indsats":8484,"Ġforholde":8485,"renes":8486,"sbudgettet":8487,"ĠforhÃ¸jelse":8488,"Ġkilder":8489,"ĠdernÃ¦st":8490,"Ġambass":8491,"post":8492,"Ġspurgte":8493,"Ġspid":8494,"Ġindustrier":8495,"Ġforhandlet":8496,"Ġramte":8497,"Ġbegyndelse":8498,"ĠForbrugerbeskyttelse":8499,"Ġaff":8500,"stÃ¸":8501,"Resultatet":8502,"21":8503,"Ġpopul":8504,"ĠÃ¸jeblikkelig":8505,"Ġbeskyttet":8506,"ĠspÃ¸rgetiden":8507,"ĠfÃ¸le":8508,"aiw":8509,"Ġavis":8510,"ĠbegÃ¥":8511,"ĠHels":8512,"ĠindtÃ¦gt":8513,"region":8514,"Ġmenneskerettighedssituationen":8515,"ĠStockhol":8516,"Ġindledes":8517,"Ġkorn":8518,"Ġvidenskabeligt":8519,"Ġforpligte":8520,"Ġhensigter":8521,"Uanset":8522,"aliseres":8523,"ologien":8524,"Ġuforhold":8525,"produktionen":8526,"Ġdrivhusg":8527,"Ġbord":8528,"Ġheldigvis":8529,"Ġperspektiver":8530,"stÃ¸d":8531,"ĠSkotland":8532,"Ġkulturer":8533,"Ġvolden":8534,"ĠforÃ¸ge":8535,"ĠFÃ¸devaresikkerhed":8536,"06":8537,"SV":8538,"trÃ¦den":8539,"sfald":8540,"Ġarbejdspladsen":8541,"Ġudformningen":8542,"CS":8543,"ĠtillÃ¦gger":8544,"Ġfremstillet":8545,"Ġvelfungerende":8546,"ĠambitiÃ¸st":8547,"onational":8548,"redse":8549,"Ġbiotekn":8550,"Ġtredjedel":8551,"Ġbaggrunden":8552,"medlemmer":8553,"Ġkatastrofale":8554,"Ġpege":8555,"ĠBush":8556,"ĠtilhÃ¦nger":8557,"Ġrammed":8558,"ĠKvinders":8559,"Ġkortsigt":8560,"viklingen":8561,"tvinge":8562,"IsÃ¦r":8563,"ererer":8564,"Ġcir":8565,"Ġresultere":8566,"Ġpolitiet":8567,"Ġmenneskel":8568,"Ġsocio":8569,"sraels":8570,"Ġudelukke":8571,"Ġforberedelse":8572,"Ġudformning":8573,"udiovis":8574,"kkens":8575,"Ġbiom":8576,"ĠÃ¦rlig":8577,"slim":8578,"Ġtransi":8579,"Ġteknik":8580,"Ġagenturet":8581,"Ġkvar":8582,"Ġundsk":8583,"Ġredskaber":8584,"Ġfredelige":8585,"Ġratificering":8586,"Ġnukleare":8587,"Ġkaldes":8588,"ĠPrÃ¦sidiet":8589,"ĠpÃ¥tager":8590,"Ġegenskab":8591,"Ġforsoning":8592,"eskab":8593,"Person":8594,"fur":8595,"pakke":8596,"ĠnÃ¸dvendighed":8597,"Ġoffentlighedens":8598,"Ġfrivilligt":8599,"Ġanstrengelser":8600,"ĠÂ«":8601,"Ġleget":8602,"Ġbryder":8603,"ĠstrÃ¸m":8604,"skaff":8605,"Ġlovlig":8606,"Ġ1993":8607,"Ġsatte":8608,"ĠklÃ¸ft":8609,"kendelse":8610,"Ġimperi":8611,"VedrÃ¸rende":8612,"Ġhundrede":8613,"Ġmultilater":8614,"Ġforvirring":8615,"ĠFischler":8616,"Bar":8617,"God":8618,"Ġso":8619,"Ġnoteret":8620,"Ġsundhedspleje":8621,"Ġforsvaret":8622,"Ġmargin":8623,"Ġbevillingerne":8624,"Ġacceptabel":8625,"Ġberegnet":8626,"Ġforvejen":8627,"skabende":8628,"kriter":8629,"ĠtilsidesÃ¦":8630,"Ġrene":8631,"Ġindse":8632,"forvaltning":8633,"gyld":8634,"ĠpÃ¥stÃ¥":8635,"tighederne":8636,"Ġgennemsigtige":8637,"Ġforsinkelse":8638,"ĠjordskÃ¦l":8639,"ĠLibanon":8640,"Ġresterende":8641,"USA":8642,"ordre":8643,"ksterne":8644,"ĠTidligere":8645,"trÃ¦dende":8646,"Ġaggres":8647,"Ġfolkeafstem":8648,"ĠgrÃ¸nne":8649,"sprojekter":8650,"Hercegovina":8651,"ĠsÃ¸s":8652,"olie":8653,"Ġinvi":8654,"Ġfinansielt":8655,"ĠAlgeriet":8656,"ĠsidstnÃ¦vnte":8657,"Ġpilot":8658,"Ġond":8659,"Ġutallige":8660,"runden":8661,"Ġforsvarspolitik":8662,"RÃ¥dets":8663,"regionen":8664,"Ġudarbejder":8665,"Ġuenighed":8666,"Ġfilos":8667,"Ġkampagne":8668,"Ġbevares":8669,"ĠansÃ¸gning":8670,"AC":8671,"tel":8672,"Ġ45":8673,"Ġforskere":8674,"ĠfÃ¸lsomt":8675,"ĠNÃ¥r":8676,"Ġparlaments":8677,"Ġudtalte":8678,"Ġskattes":8679,"ĠimÃ¸dekomme":8680,"Ġmulti":8681,"Ġrealiteten":8682,"Ġdramatiske":8683,"Ġimmunitet":8684,"osf":8685,"kommet":8686,"ĠKultur":8687,"ĠÃ¥rligt":8688,"aukas":8689,"Ġblande":8690,"ĠlÃ¦ser":8691,"Ġaudiovis":8692,"Ġindgivet":8693,"ĠmÃ¥ttet":8694,"ĠbÃ¸rnene":8695,"Ġambition":8696,"ryg":8697,"Ġomtalt":8698,"Ġtusinder":8699,"ĠlovgivningsmÃ¦ssig":8700,"dannelses":8701,"sammen":8702,"ĠsÃ¸fart":8703,"Ġforelag":8704,"Hvilken":8705,"lok":8706,"Ġlangs":8707,"Ġbruttonational":8708,"Ġekspertise":8709,".-":8710,"rust":8711,"DernÃ¦st":8712,"ygdomme":8713,"ĠnedsÃ¦ttelse":8714,"Ġluftrum":8715,"Ġsignaler":8716,"bia":8717,"mord":8718,"miljÃ¸":8719,"utten":8720,"Ġfredag":8721,"Ġintegrationen":8722,"ĠforÃ¥rsager":8723,"ĠDoha":8724,"SK":8725,"Ã¦den":8726,"Ġpu":8727,"2004":8728,"Ġvurderer":8729,"ĠdÃ¸dsstra":8730,"Ġutvetyd":8731,"Ġpleje":8732,"ĠPol":8733,"Ġfortid":8734,"Ġejer":8735,"udgifter":8736,"Ġdrivkraft":8737,"Ġgrati":8738,"Ã¥lmod":8739,"Ġgruppen":8740,"ĠtrÃ¦kker":8741,"ĠmÃ¥lsÃ¦tningen":8742,"Ġmord":8743,"agtt":8744,"verne":8745,"Ġkomit":8746,"ĠDemokratiske":8747,"Ġproducerer":8748,"Ġkollektiv":8749,"ĠretfÃ¦rdige":8750,"LO":8751,"Ġac":8752,"Ġforarbejd":8753,"Ġrefer":8754,"producenter":8755,"Ġsammenlignet":8756,"elefon":8757,"Ġlevnedsmidler":8758,"spÃ¦nd":8759,"spart":8760,"ĠMich":8761,"ĠLetland":8762,"Ġpoin":8763,"ĠforlÃ¸bne":8764,"lelse":8765,"ĠaktÃ¸r":8766,"Ġretssikkerhed":8767,"fferenti":8768,"ĠtrovÃ¦rdig":8769,"ĠhÃ¦ve":8770,"borg":8771,"Ġarran":8772,"Ġhenvist":8773,"Ġsamtykke":8774,"Ġvurderes":8775,"Ġskrive":8776,"Ġtilskynder":8777,"Ġformuleret":8778,"ĠtilnÃ¦rmelse":8779,"hÃ¸j":8780,"Ġbryde":8781,"Ġindblanding":8782,"estand":8783,"ĠGMO":8784,"ĠEt":8785,"ĠopfÃ¸rt":8786,"aktive":8787,"sproblem":8788,"Ġtrukket":8789,"Ġopfattes":8790,"ĠkÃ¸ber":8791,"kul":8792,"Ġlavt":8793,"ĠMexic":8794,"ĠomrÃ¥derne":8795,"Ġplur":8796,"ĠnÃ¸jagtigt":8797,"Ġkonsekvensanaly":8798,"Ġskuffet":8799,"ĠVenstre":8800,"sstrÃ¸":8801,"Ġplanen":8802,"orienteret":8803,"Ġkvindelige":8804,"Ġaids":8805,"ĠoverfÃ¸re":8806,"stillad":8807,"Ġgodkendes":8808,"Ġdynamisk":8809,"ĠoversvÃ¸mmelser":8810,"ellen":8811,"Ġfint":8812,"Ġresolu":8813,"Ġtroede":8814,"Ġlandbrugspolitikken":8815,"Ġfjerner":8816,"ĠmuliggÃ¸re":8817,"SF":8818,"edygtig":8819,"rierer":8820,"Ġvarmt":8821,"Ġforholdsregler":8822,"Ġslutter":8823,"Ġgammel":8824,"prisen":8825,"Ġopmuntre":8826,"information":8827,"ĠlÃ¦ring":8828,"Ġhvidbogen":8829,"Ã¸konomien":8830,"Ġube":8831,"Ġgradvist":8832,"Ġtvinger":8833,"Ġoverrasket":8834,"ĠSikkerhedsrÃ¥det":8835,"ĠuundgÃ¥eligt":8836,"ĠsÃ¸rg":8837,"Ġinstitutionel":8838,"Ġbevidste":8839,"ĠundgÃ¥s":8840,"Ġdatabeskyttelse":8841,"burg":8842,"Ġfir":8843,"Ġstabiliteten":8844,"Ġreformpro":8845,"Ġinsisterer":8846,"ĠoverflÃ¸d":8847,"adgang":8848,"ĠvÃ¦bnede":8849,"ĠhenhÃ¸rer":8850,"ĠnedsÃ¦tte":8851,"ĠpÃ¥peger":8852,"ĠRevisionsrettens":8853,"ĠobservatÃ¸rer":8854,"ĠÃĺstersÃ¸en":8855,"su":8856,"Ġmillen":8857,"Ġislamiske":8858,"Ġskarp":8859,"Kort":8860,"ĠsamrÃ¥d":8861,"landt":8862,"teneg":8863,"leks":8864,"ĠVerheugen":8865,"IA":8866,"standen":8867,"Ġdebatter":8868,"Ġgenoprette":8869,"Ġprioriteret":8870,"ĠlegetÃ¸j":8871,"ho":8872,"Ġafstemninger":8873,"Ġanmodningen":8874,"ĠoffentliggÃ¸re":8875,"ĠSolidaritet":8876,"Ġanklage":8877,"person":8878,"ata":8879,"smÃ¸de":8880,"Ġpartnerskaber":8881,"Ġatt":8882,"Ġsejr":8883,"Ġdigitale":8884,"Tyrk":8885,"alem":8886,"rategi":8887,"Ġudveksl":8888,"Ġ36":8889,"regulering":8890,"ĠbestÃ¥ende":8891,"Ġglemmer":8892,"Ġoverskri":8893,"Ġdrejede":8894,"ĠdÃ¸dsfald":8895,"ĠbevÃ¦gelse":8896,"11":8897,"Ġmennesk":8898,"ĠIsraels":8899,"eksle":8900,"Ġmidlertidigt":8901,"Ġanbefale":8902,"Ġpludselig":8903,"Kvinder":8904,"ĠWien":8905,"cedurerne":8906,"alÃ¦stinensiske":8907,"Ġopfyldelse":8908,"krain":8909,"Ġprocesser":8910,"ĠsÃ¦lge":8911,"initiativet":8912,"Ġafventer":8913,"Ġmenneskeliv":8914,"Ġmeddelt":8915,"Ġcompu":8916,"Ġpensioner":8917,"Ġsynsvinkel":8918,"organer":8919,"medlemsstaterne":8920,"Ġetableres":8921,"ĠSamhÃ¸righed":8922,"Ġiranske":8923,"egler":8924,"ĠBon":8925,"Ġlukkede":8926,"Ġgratis":8927,"reen":8928,"ĠudfÃ¸r":8929,"Ġbevist":8930,"Ġnedsat":8931,"Ġborgerlige":8932,"ĠforlÃ¦nge":8933,"Ġturismen":8934,"Ġoverbevisende":8935,"Ġministre":8936,"Ġforring":8937,"ity":8938,"Ġoprindeligt":8939,"ĠParis":8940,"BÃ¥de":8941,"ben":8942,"inki":8943,"Ġudviklings":8944,"Ġkurd":8945,"Ġstolte":8946,"Ġfortiden":8947,"ĠforestÃ¥ende":8948,"elte":8949,"rerede":8950,"Ġfinansieret":8951,"Ġansvarligt":8952,"Ġbrand":8953,"programmerne":8954,"Ġudelukket":8955,"Ġvellykkede":8956,"fordeling":8957,"tallet":8958,"Ġparate":8959,"ĠforudgÃ¥ende":8960,"befÃ¸jelser":8961,"Ġorientering":8962,"Ġbaseres":8963,"Ġvurderinger":8964,"Ġdollars":8965,"Ġregeringskonference":8966,"ejst":8967,"Ġforholdsvis":8968,"ĠHan":8969,"ĠtiltrÃ¦delsen":8970,"Ġjobskabelse":8971,"ĠseriÃ¸s":8972,"Ġsundheden":8973,"Ġincitament":8974,"ĠAlliance":8975,"kret":8976,"skabe":8977,"ologier":8978,"Ġforberedt":8979,"asien":8980,"Ġmal":8981,"iko":8982,"formen":8983,"Ġmodtog":8984,"Ġfornyelse":8985,"Ġdyrevel":8986,"Ġlan":8987,"Ġleverand":8988,"ĠnÃ¸jes":8989,"Euro":8990,"Ġsoldater":8991,"slÃ¸se":8992,"ĠRoth":8993,"ĠPatten":8994,"Ġaftalerne":8995,"ĠWall":8996,"stof":8997,"Ġkandidater":8998,"ĠdÃ©t":8999,"adem":9000,"uly":9001,"Ġopmuntrende":9002,"pil":9003,"Ġuddan":9004,"sprincipp":9005,"ĠSanter":9006,"Dem":9007,"Ġbeklage":9008,"Ġinstanser":9009,"ĠSlovenien":9010,"wa":9011,"ĠvÃ¥b":9012,"iseres":9013,"ensigt":9014,"Ġhellere":9015,"Ġfangst":9016,"40":9017,"DR":9018,"Ġikk":9019,"Ġlovlige":9020,"Ġbillig":9021,"ĠVerdensban":9022,"Ġstrafferetlige":9023,"ĠfÃ¦ngslet":9024,"Ġtidlig":9025,"vic":9026,"Ġressource":9027,"Ġignorere":9028,"Fordi":9029,"etnam":9030,"Ġmask":9031,"ĠkÃ¸r":9032,"fterne":9033,"rÃ¸b":9034,"sprocedurer":9035,"Ġetnisk":9036,"imp":9037,"Ġbevise":9038,"ĠBÃ¶":9039,"SelvfÃ¸lgelig":9040,"Ġanalysere":9041,"ĠÃ¸delÃ¦ggende":9042,"Ġtankegang":9043,"kultur":9044,"Ġhaster":9045,"tex":9046,"itter":9047,"ĠanstÃ¦nd":9048,"komment":9049,"idere":9050,"ĠlÃ¦st":9051,"ĠÃ¸re":9052,"riere":9053,"Ġorganisere":9054,"ALE":9055,"ĠopkrÃ¦":9056,"Ġbesparelser":9057,"ĠÃ¥bnet":9058,"Ġkritisere":9059,"initiativer":9060,"âĢ":9061,"igennem":9062,"rider":9063,"ĠlÃ¸ber":9064,"Ġarbejdsprogram":9065,"Ġskandal":9066,"COD":9067,"Ġkvik":9068,"ĠAng":9069,"ĠnÃ¦rmest":9070,"Ġtilpasses":9071,"Ġerkl":9072,"ĠUnder":9073,"Ġlovede":9074,"Ġaccepterede":9075,"Ġpressen":9076,"Ġrammeaf":9077,"ĠerklÃ¦re":9078,"Ġmyr":9079,"Ġvinder":9080,"Ġiagtt":9081,"Ġafkald":9082,"retnings":9083,"Ġforfatningstraktaten":9084,"Ġopvarmning":9085,"ĠHelsinki":9086,"Ġlatter":9087,"Ġformulering":9088,"Ġgenskabe":9089,"ĠnÃ¸dhjÃ¦lp":9090,"Ġberettigede":9091,"SÃ¥danne":9092,"kvens":9093,"erklÃ¦ringen":9094,"Ġulighed":9095,"Ġudt":9096,"gennem":9097,"Ġbyerne":9098,"Ġpesticider":9099,"Ġretlig":9100,"ĠreprÃ¦sentere":9101,"ĠpalÃ¦stinenserne":9102,"Ġinvestorer":9103,"indt":9104,"gier":9105,"Ġudtrykte":9106,"ĠopmÃ¦rksomt":9107,"Ġfremmedhad":9108,"Ġudvis":9109,"Ġskabelsen":9110,"ĠJac":9111,"ĠhÃ¸ringer":9112,"vejs":9113,"Ġsammenligning":9114,"ĠParlamentariske":9115,"Ġsendes":9116,"edomstol":9117,"anlÃ¦g":9118,"spris":9119,"Ġretligt":9120,"Ġbibe":9121,"rontex":9122,"Ġtilvejebringe":9123,"Ġindfaldsvinkel":9124,"sia":9125,"Ġbiologiske":9126,"blandt":9127,"ĠGalileo":9128,"konvention":9129,"Ġkonsul":9130,"Ġmisly":9131,"ĠSchulz":9132,"smetode":9133,"Ġpatenter":9134,"ECD":9135,"ĠnÃ¦rhed":9136,"Ġanerkendte":9137,"ĠÃ¸kos":9138,"Ġbjerg":9139,"sÃ¸l":9140,"amme":9141,"Ġfaglige":9142,"Ġbyrder":9143,"Ġytringsfriheden":9144,"ĠoptrÃ¦der":9145,"Ġusikre":9146,"Ġkonkurrenceforv":9147,"sch":9148,"Ġkast":9149,"Ġub":9150,"Ġlangsomt":9151,"Ġlovgivende":9152,"ĠinitiativbetÃ¦nkning":9153,"Ġsupplere":9154,"Ġlederskab":9155,"Ġtilknytning":9156,"magt":9157,"ĠtÃ¦rsk":9158,"forordningen":9159,"Ġfinansfor":9160,"Ġforhandlings":9161,"Ġfremtidens":9162,"EUR":9163,"Ġcho":9164,"Ġtilpasset":9165,"ĠskyggeordfÃ¸rerne":9166,"mere":9167,"Ġstik":9168,"Ġfolkesundhed":9169,"ografi":9170,"tan":9171,"ĠstÃ¥l":9172,"Ġ32":9173,"Ġbestand":9174,"Arbejd":9175,"Ġudviklingssamarbejde":9176,"interes":9177,"Ġafvig":9178,"ĠSudan":9179,"procedure":9180,"ledningen":9181,"Ġomkostning":9182,"ĠekstraordinÃ¦re":9183,"ĠMadrid":9184,"ĠHamas":9185,"sordenen":9186,"standarder":9187,"modtag":9188,"Ġsammenslu":9189,"Ġuenig":9190,"Ġmoralske":9191,"Ġstimulere":9192,"ĠdÃ¸dsstraffen":9193,"Ġhast":9194,"Ġminer":9195,"ĠbemÃ¦rker":9196,"Ġdanner":9197,"Ġensartede":9198,"ĠtiltrÃ¦de":9199,"Ġhvorefter":9200,"Ġforsvinder":9201,"ĠtilbagetrÃ¦":9202,"Ġtransit":9203,"spo":9204,"trÃ¦der":9205,"Ġbrud":9206,"Ġarbejdsgruppe":9207,"ĠMcC":9208,"Ġsvindel":9209,"ĠfremtrÃ¦dende":9210,"smÃ¥lene":9211,"Ġfortrin":9212,"mÃ¦rket":9213,"ĠmindreÃ¥rige":9214,"Ġglemt":9215,"Ġinformationssamfundet":9216,"etten":9217,"ĠbÃ¥nd":9218,"ĠskrÃ¸b":9219,"Ġoverlade":9220,"ĠHus":9221,"Ġretsstaten":9222,"ĠplenarmÃ¸det":9223,"Formandskabet":9224,"Blandt":9225,"genhed":9226,"ĠInvesteringsbank":9227,"ĠnÃ¦gte":9228,"Ġstandpunkt":9229,"Ġhjerte":9230,"ĠfÃ¸lelse":9231,"AT":9232,"ain":9233,"derer":9234,"ĠfremfÃ¸rt":9235,"Ġgodkender":9236,"Ġforsv":9237,"Ġudvidelses":9238,"sdri":9239,"ĠvÃ¦rktÃ¸j":9240,"mo":9241,"Ġudlig":9242,"talt":9243,"Ġforskellene":9244,"ĠÃ¸delÃ¦gger":9245,"ĠfÃ¦ngsler":9246,"Ġsundhedsydelser":9247,"Ġtolerance":9248,"Ġerhvervsuddannelse":9249,"ssikkerhed":9250,"Ġfonden":9251,"ĠvidtgÃ¥ende":9252,"ĠbrÃ¦ndstoffer":9253,"Ġkemikalier":9254,"ĠtilhÃ¦ngere":9255,"elÃ¸b":9256,"Ġulykke":9257,"Ġnaboskabspolitik":9258,"Ġinteressen":9259,"Ġoplysningerne":9260,"Ġvokse":9261,"Sch":9262,"ĠbedÃ¸mm":9263,"ĠgrÃ¦nsek":9264,"Ġindledningsvis":9265,"ĠmistÃ¦n":9266,"Ġpatient":9267,"borgerne":9268,"ĠÃ¦ndringen":9269,"Ġundlod":9270,"publikken":9271,"ĠrumÃ¦nske":9272,"Ġcer":9273,"Ã¸ste":9274,"ĠprÃ¦sentere":9275,"Ã¦der":9276,"Ġbetalt":9277,"Vir":9278,"organisationerne":9279,"sÃ¦ttelser":9280,"maer":9281,"Ġudenrigspolitiske":9282,"Ġengelske":9283,"Ġspredning":9284,"Ġhosp":9285,"sklaus":9286,"Ġudformet":9287,"Ġfantastisk":9288,"sperioden":9289,"omstole":9290,"Ġciterer":9291,"Ġlavet":9292,"Ġmarker":9293,"ĠForlig":9294,"Ġgriber":9295,"ĠskÃ¦v":9296,"Ġdifferenti":9297,"Ġprioriterer":9298,"Ġkvo":9299,"ĠlÃ¸nninger":9300,"baserede":9301,"Ġundskyldning":9302,"edele":9303,"ĠEuropÃ¦isk":9304,"Ġerhvervsdri":9305,"Ġkoncentreret":9306,"ĠEstland":9307,"riv":9308,"aukasus":9309,"Ġaudiovisuelle":9310,"ĠÃ¸jeblikkeligt":9311,"Ã¦ver":9312,"ington":9313,"ĠoverfÃ¸res":9314,"Ġovergreb":9315,"ĠFU":9316,"afstemningen":9317,"oseks":9318,"Tillad":9319,"ĠLissabonstrategien":9320,"Skal":9321,"Ġindvendinger":9322,"kv":9323,"ĠvÃ¦g":9324,"jenester":9325,"Ġkorrig":9326,"Ġkraftigste":9327,"Ġspidsen":9328,"onom":9329,"Ġtildeles":9330,"akis":9331,"Ġbeskyld":9332,"Ġbedrager":9333,"Ġbelast":9334,"Ġterritorial":9335,"Ġmillenn":9336,"Ġforbyder":9337,"opi":9338,"grammet":9339,"atik":9340,"ĠPa":9341,"ĠfÃ¸lelser":9342,"Ġfamilien":9343,"Ġskelne":9344,"Ġintensiver":9345,"mosf":9346,"Ã¦ne":9347,"ĠspÃ¦ndinger":9348,"Ã¸rste":9349,"ĠGÃ¶":9350,"Ġstyrkelsen":9351,"ulerer":9352,"Ġros":9353,"Ġforberedelsen":9354,"hara":9355,"Ġfiskerne":9356,"nelsen":9357,"oriteter":9358,"ĠCor":9359,"Ġfolkeretten":9360,"Ver":9361,"Ġoffer":9362,"rafikken":9363,"Ġappellerer":9364,"line":9365,"Ġpersonoplysninger":9366,"Ġengelsk":9367,"beskyttelsen":9368,"Ġuskyldige":9369,"ĠsÃ¦rskilt":9370,"PrÃ¦":9371,"Ġlytter":9372,"Ġmedlemmernes":9373,"Ġoperationelle":9374,"imer":9375,"vt":9376,"addam":9377,"ĠnÃ¦rer":9378,"Ġregeringschefer":9379,"MF":9380,"ordet":9381,"Ġvon":9382,"Ġudelukker":9383,"Ġnegativt":9384,"ĠbesÃ¸gte":9385,"Begge":9386,"tiltrÃ¦d":9387,"ĠAL":9388,"Ġholdningen":9389,"ĠvÃ¦lgerne":9390,"Ġdelegationer":9391,"Ġdramatisk":9392,"ĠbetÃ¦nkeligheder":9393,"abour":9394,"ĠASE":9395,"lymp":9396,"lair":9397,"Ġ33":9398,"aktor":9399,"Ġjernbanet":9400,"Ġforsynings":9401,"Ġfortalte":9402,"Ġuniversiteter":9403,"smekanisme":9404,"ĠmakroÃ¸konomiske":9405,"ĠWat":9406,"Ġ48":9407,"aktivitet":9408,"Ġillegal":9409,"Ġnabolande":9410,"anvendelse":9411,"eksistens":9412,"ĠforhÃ¥bninger":9413,"Ġgenopbygningen":9414,"Mere":9415,"sdirektivet":9416,"ett":9417,"Ġudvand":9418,"Ġlivs":9419,"ĠJugoslaviske":9420,"Ġdisp":9421,"Ġprivatlivet":9422,"sens":9423,"ĠallerfÃ¸rst":9424,"ĠNigeri":9425,"Ġeuroens":9426,"2005":9427,"Ġabsurd":9428,"Ġbetalings":9429,"ĠAz":9430,"ĠbestrÃ¦be":9431,"Ġoperationer":9432,"osevic":9433,"gik":9434,"ĠudsÃ¦ttelse":9435,"ĠsnÃ¦ver":9436,"ĠForligsudvalget":9437,"ox":9438,"Ġukrain":9439,"ĠSan":9440,"Ġmarkant":9441,"myndigheder":9442,"Ġovertage":9443,"ĠDar":9444,"Ġkommunistiske":9445,"ĠmÃ¦rk":9446,"%.":9447,"rincip":9448,"skrÃ¦":9449,"ĠKinn":9450,"Ġperfekt":9451,"otiske":9452,"Ġpakken":9453,"Ġderudover":9454,"overvÃ¥g":9455,"okraterne":9456,"Ġkaste":9457,"Ġoverdrag":9458,"Ã¥n":9459,"arer":9460,"ĠkÃ¸rer":9461,"sem":9462,"ĠundersÃ¸gelsen":9463,"eterin":9464,"Ġfelt":9465,"Ġlovforslag":9466,"stitutter":9467,"ĠVerts":9468,"ĠhalvÃ¥r":9469,"Ġstrengt":9470,"Ġforsinket":9471,"Ġinfrastrukturer":9472,"Ġkonkurrencedygtighed":9473,"Ġatmosf":9474,"ydning":9475,"Ġklassifi":9476,"DA":9477,"skont":9478,"Ġarres":9479,"ĠSÃ¥":9480,"Ġvarier":9481,"Ġudnytt":9482,"sigelser":9483,"ĠpÃ¥lidelige":9484,"olf":9485,"ĠrÃ¥de":9486,"Ġoverleve":9487,"ossi":9488,"ĠfÃ¦llesskabsplan":9489,"Ġbetales":9490,"projektet":9491,"Ġemissions":9492,"ĠefterspÃ¸rgslen":9493,"ĠrÃ¸d":9494,"ĠGi":9495,"Ġstadighed":9496,"affald":9497,"Ġcentralban":9498,"ĠfÃ¦llesskabslovgivningen":9499,"ĠbiobrÃ¦ndsto":9500,"ĠKinas":9501,"Ġsympati":9502,"fÃ¦st":9503,"inen":9504,"Ã¸v":9505,"Ġafvisning":9506,"ĠTaiw":9507,"Ġ400":9508,"Ġmedlemsstats":9509,"almind":9510,"Ġomtale":9511,"ĠtrÃ¥dt":9512,"Ġreaktioner":9513,"komne":9514,"ĠrÃ¦kker":9515,"Ġscene":9516,"ĠsjÃ¦ldent":9517,"ĠefterÃ¥ret":9518,"alismen":9519,"Ġuenige":9520,"sektor":9521,"Ġmistan":9522,"Ã¸delÃ¦g":9523,"ĠSovjet":9524,"Ġlovligt":9525,"Ġmilliard":9526,"ĠmuliggÃ¸r":9527,"Ġoverdre":9528,"Sidste":9529,"fa":9530,"ĠTjekkiske":9531,"ĠPalÃ¦stinensiske":9532,"Ġbeslutningsprocessen":9533,"ĠEng":9534,"Ġkonsolidere":9535,"tjenester":9536,"CNS":9537,"mene":9538,"agens":9539,"Ġuligheder":9540,"ĠDomstolens":9541,"seret":9542,"redning":9543,"Ġhjul":9544,"Ġprotektionisme":9545,"Set":9546,"Ġuom":9547,"ĠpÃ¥lagt":9548,"ĠSak":9549,"ĠMange":9550,"Ġversion":9551,"Ġgrupperne":9552,"dagen":9553,"Ġreformere":9554,"Ġoverraskende":9555,"orlov":9556,"Ġskol":9557,"Ġmuslim":9558,"valgte":9559,"ĠUdenrigsudvalget":9560,"Ġflys":9561,"eser":9562,"Ġsamtaler":9563,"fulgt":9564,"Ġfaldende":9565,"ĠhÃ¦nder":9566,"Ġdisciplin":9567,"rent":9568,"Ġhiv":9569,"Ġbifald":9570,"Ġuhyre":9571,"ĠbekrÃ¦ftede":9572,"Ġmeninger":9573,"ĠDisse":9574,"Ġdrager":9575,"Ġhenvende":9576,"Ġfremtidig":9577,"Ġbankerne":9578,"Ġgeografisk":9579,"Ġtilbagevenden":9580,"perioden":9581,"Ġare":9582,"Ġbetragtninger":9583,"ĠindgÃ¥else":9584,"ĠdÃ¦kket":9585,"baseret":9586,"sop":9587,"ĠDu":9588,"yng":9589,"ĠAb":9590,"Ġbegejst":9591,"vilje":9592,"fiskeri":9593,"ension":9594,"ĠindebÃ¦re":9595,"bestemmelserne":9596,"ĠForbund":9597,"krisen":9598,"Ġbudgetpost":9599,"Ġhovedet":9600,"Ġgenoptage":9601,"Ġ95":9602,"Ġafbrudt":9603,"Ġsameksistens":9604,"Ġobjektiv":9605,"ĠhjÃ¸r":9606,"Ã¦de":9607,"skÃ¸n":9608,"ssen":9609,"ssat":9610,"Ġanvendte":9611,"sanlÃ¦g":9612,"Ġkreditvurdering":9613,"eken":9614,"ĠbrÃ¸d":9615,"Ġforvalte":9616,"gaven":9617,"Ġsorte":9618,"Ġky":9619,"Ġforskelligt":9620,"sfolk":9621,"IP":9622,"ĠudÃ¸ver":9623,"Ġbilligere":9624,"ernen":9625,"ĠKongeriges":9626,"ĠkrÃ¦nker":9627,"Ġomhandlede":9628,"Ġanklager":9629,"ĠmiljÃ¸venlige":9630,"ĠMyndighed":9631,"orienterede":9632,"Ġkurdiske":9633,"tilfÃ¦lde":9634,"Ġundervis":9635,"Ġvejtransport":9636,"Ġbetragtet":9637,"amerikanske":9638,"Ġfiskebest":9639,"Ġskylden":9640,"sbestemmelser":9641,"Ġklogt":9642,"ĠALDE":9643,"ca":9644,"Ġuaf":9645,"ĠprÃ¦m":9646,"ĠnÃ¦rt":9647,"ĠSolana":9648,"Ġoprigtigt":9649,"Borgerne":9650,"Ġtrin":9651,"ryk":9652,"ĠafgÃ¸relsen":9653,"Ġsekretari":9654,"Ġkritiseret":9655,"Personligt":9656,"rets":9657,"Ġudnyttet":9658,"Ġchauff":9659,"Ġdokumentet":9660,"ib":9661,"ĠfastsÃ¦ttelse":9662,"ĠÃ¦rlige":9663,"Ġopstod":9664,"Ġtallene":9665,"ĠkÃ¦mpet":9666,"Ġdonor":9667,"ĠsÃ¦nke":9668,"elej":9669,"Ã¦ldende":9670,"Ġsammenlign":9671,"Ġkvalificerede":9672,"Ġfinger":9673,"ĠforfÃ¸lgelse":9674,"Ġulige":9675,"ĠEksterne":9676,"ĠSelv":9677,"Ġordene":9678,"Ġopretholdes":9679,"Ġgennemsigtigheden":9680,"Ġskjul":9681,"lat":9682,"ĠforfÃ¸l":9683,"ĠSal":9684,"Ġlangtfra":9685,"ĠfuldstÃ¦ndige":9686,"Ġopfordringen":9687,"Ġbritisk":9688,"ĠgrÃ¦nsekontrol":9689,"TE":9690,"ensen":9691,"lima":9692,"Ġpolitiker":9693,"ĠfortsÃ¦ttelse":9694,"Ġknytte":9695,"ekterne":9696,"Ġopererer":9697,"sstÃ¸tten":9698,"Ġnyhed":9699,"Ġkompromiset":9700,"aktorer":9701,"Ġindbygger":9702,"Ġarrestordre":9703,"gribende":9704,"Fin":9705,"indelserne":9706,"sforslaget":9707,"samarbejdet":9708,"Ġindvandringspolitik":9709,"ĠStraff":9710,"ĠuundvÃ¦r":9711,"asp":9712,"pag":9713,"ensyn":9714,"yldest":9715,"siniti":9716,"rud":9717,"Ã¥rig":9718,"Ġmenneskets":9719,"Flere":9720,"cos":9721,"ĠTjen":9722,"Ġadop":9723,"Ġgavne":9724,"ĠVerden":9725,"ques":9726,"ĠYork":9727,"Ġforkaster":9728,"Lig":9729,"utte":9730,"Ġes":9731,"Ġsav":9732,"ĠkÃ¸ret":9733,"Ġindsigelse":9734,"Ġoptage":9735,"asc":9736,"Ġfremskynd":9737,"ĠnÃ¦rmer":9738,"ĠatomvÃ¥ben":9739,"ĠansÃ¸gerlande":9740,"Ġhvidbog":9741,"Rusland":9742,"vog":9743,"Ġenheder":9744,"Ġmedtages":9745,"Ġtalerne":9746,"ĠprÃ¦st":9747,"ĠMonteneg":9748,"ĠhÃ¥ndhÃ¦velse":9749,"ĠÃ":9750,"Ġfed":9751,"gener":9752,"Ġtime":9753,"ĠreprÃ¦sentanterne":9754,"Ġbananer":9755,"Ġobjektive":9756,"Ġkoncept":9757,"Sidst":9758,"ales":9759,"ĠSaddam":9760,"Ġfinans":9761,"ĠForbindelser":9762,"Ġreagerer":9763,"AN":9764,"kamp":9765,"ĠforfÃ¸lge":9766,"opoul":9767,"Ġrati":9768,"Ġafsluttes":9769,"ĠOECD":9770,"Ġslog":9771,"ĠlevevilkÃ¥r":9772,"ĠlÃ¦rer":9773,"idrag":9774,"givelser":9775,"Ġkonfron":9776,"Ġsygdommen":9777,"Ġforbundne":9778,"ĠMexico":9779,"inten":9780,"Ġtropper":9781,"Ġretsakt":9782,"Ġarbejdstiden":9783,"Ġ150":9784,"ĠsamhÃ¸righedspolitik":9785,"videlsen":9786,"Ġmidtvej":9787,"Ġgalt":9788,"ĠpÃ¥lÃ¦gges":9789,"ugling":9790,"Ġkomplimentere":9791,"Ġskjule":9792,"bevillinger":9793,"Ġhomoseks":9794,"ĠdyrevelfÃ¦rd":9795,"Ġus":9796,"Ġomvendt":9797,"virke":9798,"Ġspecial":9799,"europÃ¦iske":9800,"Ġafgivet":9801,"Ġklass":9802,"Ġrunde":9803,"ĠFolkepartis":9804,"Ġappellere":9805,"ĠÃ¦":9806,"Ġsvin":9807,"Ġovertaget":9808,"lÃ¦gningen":9809,"Ġlovgiver":9810,"ĠsvÃ¦kke":9811,"Ġallierede":9812,"ĠvenstreflÃ¸j":9813,"Ġstof":9814,"Ġbalancen":9815,"ĠuforstÃ¥":9816,"Ġhilse":9817,"Ġkendsgerninger":9818,"Ġpermanente":9819,"ĠprÃ¦senteret":9820,"Ġtredjelandsstat":9821,"Ġmeste":9822,"Ġvelkomment":9823,"Ġkonkurrencer":9824,"Ġkreativ":9825,"Ã¸be":9826,"ĠbÃ¸":9827,"Ã¦ndringsforslag":9828,"ĠFrontex":9829,"Ġmenneskes":9830,"faldet":9831,"Ġemissionerne":9832,"Ġtotalt":9833,"ĠmÃ¸nt":9834,"ĠMilosevic":9835,"ĠVerdenshandelsorganisationen":9836,"ĠDi":9837,"avÃ¦rende":9838,"Ġegnet":9839,"ĠovervÃ¦ldende":9840,"ĠIndon":9841,"Ġtendenser":9842,"berettigede":9843,"ĠfordÃ¸mmelse":9844,"Ġetik":9845,"Ġsyner":9846,"Ġweb":9847,"sne":9848,"elson":9849,"Ġmedie":9850,"Ġansigt":9851,"Ġdirektivforslag":9852,"Ġfarer":9853,"Ġlevestand":9854,"ĠredegÃ¸re":9855,"AS":9856,"ep":9857,"ĠdavÃ¦rende":9858,"Ġherefter":9859,"ĠDav":9860,"Ġindgriben":9861,"Ġskovbrug":9862,"ĠLandbrugsudvalget":9863,"ĠtilsÃ¦tning":9864,"Ġimponer":9865,"Ġerhvervsdrivende":9866,"bed":9867,"Ġdetail":9868,"ape":9869,"Ġabort":9870,"Ġbruttonationalprodukt":9871,"ĠSamhÃ¸righedsfonden":9872,"Ġlod":9873,"Ġvarighed":9874,"merende":9875,"Ġ196":9876,"ĠHol":9877,"iserer":9878,"ĠSorte":9879,"fattende":9880,"Ġlaver":9881,"Ġhandlingsprogram":9882,"komp":9883,"ĠovennÃ¦vnte":9884,"Ġvalgkamp":9885,"Ġudrydde":9886,"Ek":9887,"Ġbyder":9888,"Ġref":9889,"Ġhenvender":9890,"Ġafska":9891,"sudvalg":9892,"mÃ¥lene":9893,"sÃ¸lv":9894,"borger":9895,"mid":9896,"Ġforbru":9897,"Ã¦ndring":9898,"Ġenkle":9899,"ijing":9900,"Ġlivskvalitet":9901,"Aftalen":9902,"port":9903,"Ġ34":9904,"Ġrummer":9905,"Ġforberedelserne":9906,"ĠudÃ¸vende":9907,"Ġopfyldelsen":9908,"ĠLaeken":9909,"ĠColombia":9910,"sliv":9911,"Ġluxembourg":9912,"Ġaktuelt":9913,"Ġvolds":9914,"ekend":9915,"Ġoverensk":9916,"ĠansÃ¦ttelses":9917,"Ġgaranteres":9918,"Ġmoratori":9919,"Ġkombineret":9920,"Ġvagt":9921,"Ġansl":9922,"Ġformel":9923,"ĠarbejdsvilkÃ¥r":9924,"Ġudbredelse":9925,"Ġfrygtelige":9926,"politisk":9927,"Ġspurgt":9928,"kurrence":9929,"Ġledsages":9930,"FÃ¸l":9931,"ydet":9932,"ĠmedfÃ¸lelse":9933,"tionerne":9934,"Ġangivet":9935,"Ġmodeller":9936,"Ġfundamentale":9937,"Ġspekulation":9938,"Ġlagde":9939,"Hele":9940,"teborg":9941,"itra":9942,"sstoffer":9943,"Ġ38":9944,"Ġdefiniti":9945,"ĠforelÃ¦gger":9946,"ĠNigeria":9947,"ssk":9948,"Ġscen":9949,"Ġvet":9950,"ign":9951,"ĠvÃ¦rt":9952,"Ġindvandrer":9953,"Ġstyret":9954,"Ġforening":9955,"Ġamerikansk":9956,"Ġdiskuteres":9957,"Ġudarbejdede":9958,"KommissÃ¦ren":9959,"Tyrkiet":9960,"Ste":9961,"Ġmedarbejder":9962,"Ġandragender":9963,"estyring":9964,"mÃ¦rke":9965,"ĠbestÃ¥":9966,"Ġstartede":9967,"friheden":9968,"fabrik":9969,"ĠomgÃ¥":9970,"Ġskove":9971,"landsk":9972,"rerende":9973,"obod":9974,"Ġbevarer":9975,"Ġlogik":9976,"ambod":9977,"elin":9978,"Ã¦ndringer":9979,"ĠindgÃ¥s":9980,"Ġrammes":9981,"ĠafgrÃ¸der":9982,"08":9983,"Ġbeb":9984,"ĠSw":9985,"Ġundtagen":9986,"Ġmonet":9987,"Ġventet":9988,"Ġillust":9989,"lejer":9990,"stans":9991,"ĠIC":9992,"Ġsammenbrud":9993,"kesundhed":9994,"ĠÃ¸delÃ¦ggelse":9995,"ĠSamarbejde":9996,"Jo":9997,"sige":9998,"Ġitalien":9999,"Ġkm":10000,"ĠPer":10001,"Ãº":10002,"Ġring":10003,"Ġminoritet":10004,"ĠCot":10005,"Ġkvalit":10006,"Ġarbejdsgivere":10007,"Ġtidsplanen":10008,"ĠsocioÃ¸konomiske":10009,"ront":10010,"ĠForsvar":10011,"ĠbekÃ¦mpes":10012,"Ġbegrundet":10013,"ĠutilstrÃ¦kkeligt":10014,"Ġmassive":10015,"Ġkonsolidering":10016,"ĠbehÃ¸rigt":10017,"Ġligegyld":10018,"ĠmÃ¥le":10019,"ĠlÃ¦ger":10020,"ĠkÃ¸bet":10021,"Ġkategorier":10022,"Ã¸konomisk":10023,"Ġdrivhusgasser":10024,"Folk":10025,"ĠfornÃ¸jelse":10026,"ĠtilgÃ¦ngelig":10027,"Ġserbiske":10028,"ĠpÃ¥taget":10029,"Ġtyrkisk":10030,"ĠseriÃ¸se":10031,"spÃ¦ndende":10032,"vest":10033,"ĠdÃ¦kning":10034,"Ġregistreret":10035,"Ġstarter":10036,"Ġkoncentration":10037,"ĠHaiti":10038,"Ġradikale":10039,"lex":10040,"rodu":10041,"abet":10042,"ĠindevÃ¦rende":10043,"Ġakti":10044,"Ġforberedende":10045,"ĠLissabontraktatens":10046,"Ġtavs":10047,"Ġumennes":10048,"ĠpÃ¥h":10049,"bered":10050,"Ġprakti":10051,"Ġproduktivitet":10052,"sarbejde":10053,"ĠBlair":10054,"Ġfriheden":10055,"Ġfunktioner":10056,"Ġkulturarv":10057,"ĠsÃ¦lges":10058,"forbindelser":10059,"ĠpÃ¥lÃ¦gger":10060,"Ġryst":10061,"Ġbrugte":10062,"Ġbudgetp":10063,"Ġsolidt":10064,"Ġkritiserer":10065,"smekanismer":10066,"sministre":10067,"ĠEL":10068,"Ġant":10069,"Ġprotest":10070,"Ġmodige":10071,"tagelser":10072,"ĠÃ¦ndringerne":10073,"ĠÃ¥bningen":10074,"Ġ2015":10075,"Ġmundtligt":10076,"Ġunderskrive":10077,"ĠtrÃ¥dte":10078,"Ġluftfartsselskaber":10079,"kredit":10080,"Ġbelig":10081,"smission":10082,"Ġindrej":10083,"Ġtjenesteydelses":10084,"Ġkendte":10085,"Ġinvesteringerne":10086,"Ġdiplomatisk":10087,"Ġmobilisere":10088,"Ġtidsfr":10089,"PA":10090,"Tiden":10091,"sful":10092,"Ġvurderingen":10093,"rÃ¦nding":10094,"Ġvidste":10095,"ĠpÃ¥virket":10096,"ĠforÃ¥ret":10097,"partnere":10098,"Ġdobbelte":10099,"ĠGÃ¶teborg":10100,"gas":10101,"anen":10102,"Ġrisikov":10103,"Ġenergisikkerhed":10104,"Ã¸mt":10105,"ĠRed":10106,"ĠbetÃ¦nkningerne":10107,"ĠLan":10108,"Ġundlader":10109,"inea":10110,"Europas":10111,"Ġusikker":10112,"ĠasylansÃ¸gere":10113,"ĠKinnock":10114,"ĠQ":10115,"Ġdomme":10116,"Ġafk":10117,"Ġhenrett":10118,"Ġforbereder":10119,"Ġsupplement":10120,"Ġfinanskrisen":10121,"eskyttelses":10122,"ĠStraffedomstol":10123,"pap":10124,"Ġavan":10125,"Ġtraf":10126,"Ġbilater":10127,"Ġtibet":10128,"Ġinvolverer":10129,"olkeste":10130,"Takket":10131,"Ġreguleres":10132,"ĠSikkerhedsrÃ¥d":10133,"Ġfamiliel":10134,"Ġmel":10135,"ĠSIS":10136,"Ġforsigtighedsprincippet":10137,"bning":10138,"Ã¦ring":10139,"serb":10140,"ĠLabour":10141,"ugle":10142,"ĠnÃ¦rvÃ¦rende":10143,"ĠFolkesundhed":10144,"Ġskylder":10145,"bringer":10146,"kvalitet":10147,"yal":10148,"omÃ©":10149,"Ġharmoniseret":10150,"ĠMenneskerettigheder":10151,"ĠbÃ¸l":10152,"Ġsammenk":10153,"batten":10154,"Ġdiktator":10155,"Ġdomstole":10156,"oness":10157,"Ġafvik":10158,"okumenter":10159,"berg":10160,"Ġsikkerhedsforanstaltninger":10161,"Ġgratu":10162,"Ġnedbringelse":10163,"Allerede":10164,"Ġleverer":10165,"Ġskyldige":10166,"ssystemerne":10167,"Ġmindretals":10168,"betinget":10169,"Ġintelligent":10170,"ĠDarfur":10171,"Ġudveksle":10172,"ĠrÃ¦kkevid":10173,"splaner":10174,"Ġprincipielle":10175,"To":10176,"rÃ¦nset":10177,"ĠplanlÃ¦gger":10178,"Ġelend":10179,"ulighederne":10180,"Ġforf":10181,"ĠafsÃ¦tte":10182,"ĠivÃ¦rksÃ¦ttelsen":10183,"ĠselvstÃ¦ndig":10184,"ĠBeijing":10185,"Ġforsyningspligt":10186,"IF":10187,"Ġvari":10188,"ĠHong":10189,"Ġvoldelige":10190,"Ġkriterium":10191,"Ġforurenende":10192,"Ġromaerne":10193,"Ġintensivere":10194,"Ad":10195,"ĠX":10196,"udn":10197,"Ġfordelingen":10198,"ĠWash":10199,"ĠforstÃ¥eligt":10200,"Ġejendomsret":10201,"Ġskuffelse":10202,"Ġunderminere":10203,"Ġindustris":10204,"Ġtvivler":10205,"budget":10206,"Ġdereg":10207,"Ġsagens":10208,"rikas":10209,"Ġsolidarisk":10210,"Ġfokuseret":10211,"ĠRegionalpolitik":10212,"ĠEngland":10213,"atikken":10214,"Ġfortjeneste":10215,"ĠforvÃ¦rret":10216,"Ġtvingende":10217,"Lissab":10218,"saf":10219,"ĠomsÃ¦tte":10220,"ĠtÃ¥lmod":10221,"ili":10222,"Ġgennemgribende":10223,"Ġbefolkningsgrupper":10224,"Ġembry":10225,"Ġfiskerisektoren":10226,"Ġdagligt":10227,"ĠmÃ¥lest":10228,"Ġeksistere":10229,"Ġforpligtede":10230,"Ġforudsat":10231,"Ã¸derne":10232,"Ġkonstateres":10233,"sekvens":10234,"forsyning":10235,"ompeten":10236,"Ġtvinges":10237,"rapporten":10238,"tÃ¦gt":10239,"skende":10240,"Ġ42":10241,"ĠmÃ¸dtes":10242,"ĠVerdensbanken":10243,"kens":10244,"aden":10245,"ĠPap":10246,"Ġfulgte":10247,"sbureau":10248,"Ġenergibes":10249,"Ġparlamentet":10250,"Ġfordob":10251,"ĠHaag":10252,"Mener":10253,"Ġovervejes":10254,"ĠRumÃ¦niens":10255,"skapacitet":10256,"Ġkonkurrenceforvrid":10257,"Hoved":10258,"umenterne":10259,"ines":10260,"Ġforlader":10261,"ĠpÃ¥skÃ¸n":10262,"ĠÃ¥rti":10263,"Ġlicens":10264,"Ġsamfundets":10265,"Ġklarere":10266,"Ġfalske":10267,"Ġhindrer":10268,"Ġfolkeafstemningen":10269,"udviklingsmÃ¥lene":10270,"Ġkvantit":10271,"vninger":10272,"bevar":10273,"ĠIMF":10274,"ĠrÃ¥dgivning":10275,"Ġverdensmarkedet":10276,"Ġrod":10277,"Ġbarrierer":10278,"Ġmodstander":10279,"Ġassist":10280,"Ġvaretage":10281,"Ġassocieringsaftalen":10282,"hjertet":10283,"uc":10284,"Ġregimer":10285,"ĠblÃ¥":10286,"Ġstabile":10287,"ĠgrÃ¸nt":10288,"ĠInternettet":10289,"ĠMosk":10290,"95":10291,"fÃ¦llesskab":10292,"yt":10293,"Ġerhvervsliv":10294,"Ġbaltiske":10295,"Ġjernbanes":10296,"ĠfÃ¦rdigheder":10297,"owski":10298,"ĠanvendelsesomrÃ¥det":10299,"Ġnabolandene":10300,"ĠIndonesien":10301,"instrumenter":10302,"Ġvelv":10303,"Ġmene":10304,"ppen":10305,"Ġmennesket":10306,"Ġforbindelsen":10307,"Ġvirksomheden":10308,"Ġinvolvere":10309,"Ã¦gteskab":10310,"Ġembed":10311,"ĠWashington":10312,"Ġkernen":10313,"Ġudbet":10314,"emission":10315,"ĠbemÃ¦rkes":10316,"ĠmÃ¸dt":10317,"ĠGuant":10318,"ĠbistÃ¥":10319,"Ġvaccin":10320,"ĠGlobaliseringen":10321,"risk":10322,"Ġprogres":10323,"retlige":10324,"ĠÃ¸nskeligt":10325,"Ġstadigt":10326,"ĠsÃ¦t":10327,"Ġlukning":10328,"Ġforelagde":10329,"Forsk":10330,"ferencens":10331,"ĠtrovÃ¦rdige":10332,"Ġbebrej":10333,"Ġsla":10334,"eksport":10335,"Ġorganismer":10336,"Ġalmindeligt":10337,"spolitisk":10338,"Ġger":10339,"ĠThe":10340,"okratisk":10341,"Ġbetinget":10342,"Ġproduktions":10343,"ĠovervÃ¥gnings":10344,"Ġdomstolene":10345,"Ġintegreres":10346,"Ġkomitologi":10347,"ommun":10348,"ĠMor":10349,"Ġ149":10350,"ĠkompetenceomrÃ¥de":10351,"Ġspekul":10352,"Ġdistribution":10353,"Ġparadoks":10354,"ĠHusse":10355,"fast":10356,"lÃ¸":10357,"ĠBarn":10358,"ĠEurostat":10359,"Ġhvidva":10360,"borgernes":10361,"ood":10362,"ammen":10363,"Ġecu":10364,"ĠanfÃ¸res":10365,"Ġverdensom":10366,"Ġkoordineringen":10367,"Ġkontrolleret":10368,"cker":10369,"Ġsendte":10370,"omkostninger":10371,"Ġbeund":10372,"ĠvÃ¦kker":10373,"Ġrevideres":10374,"Ġforlanger":10375,"Ġulemper":10376,"hÃ¦r":10377,"Ġhandlet":10378,"Ġmindes":10379,"Ġforeskri":10380,"Ġeksplo":10381,"Ġvirkningen":10382,"Ġerstattes":10383,"aktivt":10384,"ĠslÃ¥s":10385,"ĠuopsÃ¦ttelige":10386,"lympiske":10387,"Ġbetydet":10388,"Ġudviklingspolitik":10389,"Ġkrisestyring":10390,"Ġopfattelser":10391,"ĠsammenhÃ¦ngen":10392,"ĠKosovos":10393,"Ġtunge":10394,"ĠTilpasning":10395,"sstyrke":10396,"Ġuniverselle":10397,"Ġprivatlivets":10398,"Ġpagt":10399,"Ġtydeligere":10400,"Ġplat":10401,"Ġartikler":10402,"ĠPala":10403,"Ġembal":10404,"Ġparlamentar":10405,"eskridt":10406,"Ġvoldsomme":10407,"Ġudbytte":10408,"Ã¡n":10409,"ĠredegÃ¸relser":10410,"ĠÃ¥benlyst":10411,"Ġugunstigt":10412,"Ġmistanke":10413,"nelser":10414,"Ã¦gterne":10415,"ĠlÃ¸be":10416,"ĠTjekk":10417,"Ã©r":10418,"Ġ55":10419,"ĠOb":10420,"Ġtitlen":10421,"13":10422,"ĠPat":10423,"ĠmiljÃ¸omrÃ¥det":10424,"Ġkonventets":10425,"ĠbesÃ¸ge":10426,"Ġuoverensstemm":10427,"ĠkviksÃ¸lv":10428,"Ġustabilitet":10429,"Ġmedi":10430,"Ġinteroper":10431,"Ġdiagn":10432,"Ġbeslutningsproces":10433,"Ġforsvinde":10434,"Ġbygning":10435,"ĠFUSP":10436,"Gruppens":10437,"skes":10438,"Ġindhen":10439,"Ġbenyttes":10440,"Ġluxembourgske":10441,"Ġindhente":10442,"17":10443,"europÃ¦isk":10444,"ometer":10445,"Ġtilgod":10446,"atning":10447,"Ġindfri":10448,"serklÃ¦ring":10449,"rÃ¦ng":10450,"ĠHav":10451,"Ġdefineres":10452,"Ġfortalt":10453,"Ġskandale":10454,"Beslutningen":10455,"Ġasi":10456,"dsj":10457,"Ġhandlingsplaner":10458,"ĠkÃ¸nnene":10459,"Ġsvagheder":10460,"bringes":10461,"Ġmoms":10462,"ĠoptrÃ¦de":10463,"Ġweekend":10464,"ĠBrok":10465,"Ġforskrifter":10466,"ĠmÃ¥lrettede":10467,"sudveksling":10468,"Ġevaluere":10469,"Ġbogst":10470,"Ġkart":10471,"ĠfremsÃ¦ttes":10472,"ĠfortrÃ¦":10473,"emissioner":10474,"Ġreformerne":10475,"Ġresulterer":10476,"ĠbesÃ¦ttelse":10477,"ĠnÃ¦gtet":10478,"irer":10479,"ese":10480,"Ġendeligt":10481,"kong":10482,"ĠNat":10483,"uth":10484,"ĠVil":10485,"sÃ¦tningen":10486,"skonvention":10487,"Ġbetydningsfulde":10488,"Held":10489,"sigtig":10490,"ĠernÃ¦r":10491,"Ġtyder":10492,"slÃ¸st":10493,"ĠvÃ¦rende":10494,"sbeskyttelse":10495,"Ġfolket":10496,"ĠJean":10497,"Ġbelar":10498,"Ġdybe":10499,"ĠregeringsfÃ¸relse":10500,"ĠMonti":10501,"Ġautonom":10502,"Ġforhindringer":10503,"ĠdÃ¸ren":10504,"Ġentu":10505,"Ġproblemstilling":10506,"Ġarbejdsforhold":10507,"Ġafsluttende":10508,"ĠerklÃ¦ringen":10509,"Ġ65":10510,"Ġanmodes":10511,"ĠdybtgÃ¥ende":10512,"ĠforstÃ¦rke":10513,"Ġfagforeninger":10514,"ĠAtlanter":10515,"junkt":10516,"Ġsande":10517,"ateret":10518,"Ġladet":10519,"Ġafstemnings":10520,"ĠhÃ¥ndteres":10521,"smarkedet":10522,"Ġmistillidsv":10523,"geret":10524,"vente":10525,"overvej":10526,"medlemskab":10527,"Ġovergangsperiode":10528,"ĠArbej":10529,"verdenen":10530,"dende":10531,"Ġbulgar":10532,"alon":10533,"Ġhviler":10534,"redsstillende":10535,"ajdsj":10536,"ĠIII":10537,"Ġforsigtige":10538,"Gen":10539,"ĠHvordan":10540,"ĠfÃ¦l":10541,"Ġgennemsigtigt":10542,"Ġbureaukratisk":10543,"Ġfilm":10544,"ĠTaiwan":10545,"cosur":10546,"Ġnul":10547,"smiljÃ¸":10548,"ranchen":10549,"Ġ43":10550,"Ġdestru":10551,"ĠforetrÃ¦kke":10552,"Middelhavs":10553,"Ġsmukke":10554,"tiltrÃ¦delses":10555,"serbajdsj":10556,"ĠSu":10557,"Ġplante":10558,"Ġparters":10559,"Ġkvote":10560,"Ġsandsynligt":10561,"ĠnÃ¸glen":10562,"ĠskÃ¦rp":10563,"ĠmÃ¦lk":10564,"Ġhjertelig":10565,"kerende":10566,"cio":10567,"Ġlandsb":10568,"Ġbudgetforslag":10569,"Ġskabte":10570,"ĠVietnam":10571,"sramme":10572,"Ġsproglige":10573,"Ġannon":10574,"Ġelimin":10575,"Ġfolkeafstemninger":10576,"Ġvarm":10577,"Ġhenseender":10578,"ĠunÃ¸dvendige":10579,"Ġreducerer":10580,"Ġfaldt":10581,"Ġuforen":10582,"Ġmaterialer":10583,"unstig":10584,"ĠhÃ¥ndhÃ¦ve":10585,"ĠhÃ¦vde":10586,"Ġsekund":10587,"Ġreviderede":10588,"Ġkendetegnet":10589,"ĠStockholm":10590,"FO":10591,"jent":10592,"skommission":10593,"Ġansat":10594,"viler":10595,"Ġforventet":10596,"Ġforkastede":10597,"zon":10598,"Ġudsp":10599,"Ġmeningen":10600,"ĠsÃ¦tning":10601,"Ġtransportformer":10602,"ĠStater":10603,"ĠdÃ¸ds":10604,"ĠovervÃ¥gningen":10605,"Ġkines":10606,"Ġbeskriver":10607,"18":10608,"Ġdann":10609,"Ġnyheder":10610,"ĠÃ¥rene":10611,"dition":10612,"proces":10613,"underskud":10614,"ĠWe":10615,"Ġministeren":10616,"Ġnoterer":10617,"ĠtillÃ¦gsspÃ¸rgsmÃ¥l":10618,"Ġbemynd":10619,"afrikanske":10620,"oettering":10621,"leret":10622,"Ġandres":10623,"Ġdemokratier":10624,"Ġseksuelle":10625,"ĠValutaudvalget":10626,"materi":10627,"uber":10628,"Ġafholder":10629,"Ġinder":10630,"Ġvanskelighed":10631,"harov":10632,"Ġudefra":10633,"Ġrigdom":10634,"ĠpÃ¥hviler":10635,"ĠtÃ¦l":10636,"Ġstam":10637,"forbruget":10638,"Ġeksisteret":10639,"Ġakadem":10640,"Ġydm":10641,"Ġafspejles":10642,"Ġbeskedne":10643,"Ġslovak":10644,"ĠSocialdemokraters":10645,"rsdag":10646,"reprÃ¦sent":10647,"onou":10648,"Ġderi":10649,"Ġryd":10650,"Ġpropag":10651,"ĠForhandlingen":10652,"ĠdÃ¥rligere":10653,"parten":10654,"Ġgennemsnitlige":10655,"Ġvenligst":10656,"Ġgid":10657,"agtige":10658,"Ġuklar":10659,"eligvis":10660,"Ġberetningen":10661,"Ġgavner":10662,"ĠVestbal":10663,"almindelige":10664,"Ligeledes":10665,"ĠMontenegro":10666,"ĠbeklÃ¦":10667,"Ġudviklingsland":10668,"ĠbefÃ¸jelse":10669,"sbest":10670,"Ġfrister":10671,"ĠbelÃ¸n":10672,"Ġlaveste":10673,"Ã¡nam":10674,"Ġoplevede":10675,"ĠskyggeordfÃ¸rer":10676,"ld":10677,"Ġbur":10678,"nesten":10679,"ĠfremlÃ¦gges":10680,"ĠNationer":10681,"ĠoperatÃ¸rer":10682,"reformer":10683,"eglerne":10684,"Ġudski":10685,"ĠunderstÃ¸":10686,"Ġbedrifter":10687,"assen":10688,"kofin":10689,"Ġprivatisering":10690,"eterinÃ¦r":10691,"byder":10692,"oser":10693,"Ġvendt":10694,"Ġundladt":10695,"ĠvÃ¦rdifuldt":10696,"Ġfleksibelt":10697,"ĠSocialfond":10698,"klam":10699,"ĠGra":10700,"Ġnedgang":10701,"Ġbilindustrien":10702,"Ġbagud":10703,"ĠivÃ¦rksÃ¦ttelse":10704,"Ġekstreme":10705,"Ġopstiller":10706,"Ġkontrollerer":10707,"ĠrÃ¥dsformandskab":10708,"Ġumiddelbare":10709,"ct":10710,"Ġhum":10711,"ĠDon":10712,"uddann":10713,"Ġligner":10714,"Ġspilde":10715,"Ġacceptable":10716,"Ġromaer":10717,"ĠVerdenskrig":10718,"ganis":10719,"ĠBolkeste":10720,"Ġklov":10721,"landede":10722,"Ġ1991":10723,"aranti":10724,"Ġche":10725,"Ġkrigsforbr":10726,"Ġudfordringerne":10727,"hannes":10728,"Ġsocialdemokratiske":10729,"sreger":10730,"Ġadministrativ":10731,"ander":10732,"Ġegnede":10733,"Ġskadelig":10734,"ĠsÃ¦dvanlige":10735,"%,":10736,"14":10737,"Ġpak":10738,"lugt":10739,"sformer":10740,"Ġdiversi":10741,"Ġstramme":10742,"Ġtirsdag":10743,"timor":10744,"Ġjernbanen":10745,"rustning":10746,"celler":10747,"ĠILO":10748,"Ġdokumentation":10749,"ĠverdensomspÃ¦ndende":10750,"Ġomstilling":10751,"Ġkompleks":10752,"fry":10753,"itor":10754,"ovgivning":10755,"ĠforsÃ¸get":10756,"Hertil":10757,"stjeneste":10758,"ĠCentralbanks":10759,"Ġskriftlige":10760,"Ġtilbageskridt":10761,"Ġmassak":10762,"bÃ¸rn":10763,"ĠÅ":10764,"Ġskot":10765,"ĠIsland":10766,"yper":10767,"ĠBaroness":10768,"Ġvoksne":10769,"Ġhilses":10770,"Ġmodstridende":10771,"skriterier":10772,"GF":10773,"hist":10774,"Ġudbrud":10775,"Ġkloning":10776,"Ġarbejdede":10777,"bargo":10778,"Ġfungerende":10779,"Ġmillennium":10780,"Ġhjulpet":10781,"Ġforbruget":10782,"ĠHongkong":10783,"Ġpiger":10784,"Ġtelefon":10785,"Ġstr":10786,"sporter":10787,"Ã¸dte":10788,"ĠFÃ¸der":10789,"ynn":10790,"Ġmorges":10791,"Ġdefinerer":10792,"ĠmilitÃ¦rt":10793,"Ġlangvarige":10794,"Ġdrastisk":10795,"ze":10796,"arz":10797,"Ġreprodu":10798,"Ġejendomsrettigheder":10799,"Hand":10800,"fac":10801,"za":10802,"Ġkund":10803,"Ġtransporten":10804,"ĠUdenrigsanliggender":10805,"ĠskibsvÃ¦r":10806,"ĠopfÃ¸re":10807,"rÃ¥ling":10808,"sbaser":10809,"Ġafslutningsvis":10810,"ĠskÃ¸nt":10811,"Ġretssag":10812,"Ġuddybe":10813,"ĠFratt":10814,"FÃ¦llesskab":10815,"ydelserne":10816,"Ġfredsbe":10817,"Ġutilfreds":10818,"Ġvelkendt":10819,"retningsorden":10820,"Ġhvidvaskning":10821,"ware":10822,"stÃ¸rste":10823,"indsigt":10824,"Ġstatutten":10825,"Ġfungeret":10826,"sekon":10827,"Ġdimensioner":10828,"Ġfjernelse":10829,"Ġmodernisere":10830,"ĠtiltrÃ¦delsesforhandlingerne":10831,"vl":10832,"Ġineffektiv":10833,"Ġangiver":10834,"cedens":10835,"Ġlandbrugssektoren":10836,"aciteten":10837,"Ġfordrevne":10838,"HvornÃ¥r":10839,"Ġintensivt":10840,"Ġstabilt":10841,"Ġcomputer":10842,"ĠfortrÃ¦ff":10843,"pas":10844,"Ġvundet":10845,"lub":10846,"holdige":10847,"Ġgodstransport":10848,"ĠCres":10849,"miner":10850,"ĠenergiomrÃ¥det":10851,"otum":10852,"opmÃ¸de":10853,"sparti":10854,"Ġslippe":10855,"Ġbesiddelse":10856,"ĠELDR":10857,"ĠstÃ¥ende":10858,"Ġalmene":10859,"Ġbrugerne":10860,"ĠSakharov":10861,"Hans":10862,"hy":10863,"hanske":10864,"mester":10865,"ĠskÃ¦re":10866,"ĠprÃ¦cedens":10867,"Ġbygget":10868,"Ġforklarer":10869,"Ġkonkurrencedygtigt":10870,"ĠophÃ¸re":10871,"lap":10872,"Ġbanan":10873,"mÃ¦ndene":10874,"Ġsammenligne":10875,"Ġfjernt":10876,"ĠMercosur":10877,"Ġmenneskene":10878,"orge":10879,"varet":10880,"Ġlovover":10881,"Ġfront":10882,"Ġkommissionsformanden":10883,"Ġbegrundelsen":10884,"Ġhastighed":10885,"rerne":10886,"trÃ¦ngende":10887,"Ġforbe":10888,"Ġhoc":10889,"Ġpan":10890,"Ġaftes":10891,"aten":10892,"ĠlÃ¦ngst":10893,"ĠRegionaludvikling":10894,"vidst":10895,"Ġformind":10896,"artede":10897,"ĠhÃ¸jtid":10898,"Ġlandbrugerne":10899,"Ġfremskridtene":10900,"Ġflyve":10901,"Ġrettighederne":10902,"reber":10903,"Ġstud":10904,"Derimod":10905,"ĠafhÃ¦nge":10906,"Ġautor":10907,"Ġskovbr":10908,"Ġplacering":10909,"Ġutilfredsstillende":10910,"oboda":10911,"ĠVestbalkan":10912,"ble":10913,"sundhed":10914,"Ġudsatte":10915,"enez":10916,"Ġkarriere":10917,"Ġafspejle":10918,"Ġmotork":10919,"Gener":10920,"Ġretor":10921,"Ġbrugere":10922,"ĠhandelsmÃ¦ssige":10923,"Ġindledte":10924,"ĠindrÃ¸mmelser":10925,"ĠGuantÃ¡nam":10926,"FN":10927,"Le":10928,"lÃ¸n":10929,"igelse":10930,"Ġkontekst":10931,"ĠPh":10932,"midlerne":10933,"2010":10934,"NI":10935,"bio":10936,"zy":10937,"deret":10938,"eringer":10939,"Ġlandbrugsprodu":10940,"Ġinvesterer":10941,"Ġflytter":10942,"ĠskattemÃ¦ssige":10943,"Ġafghanske":10944,"tjeneste":10945,"Ġskuffende":10946,"Ġombudsmand":10947,"Ġresolutioner":10948,"hag":10949,"Ġudtaler":10950,"Ġdrive":10951,"Ġ1989":10952,"Ġentydigt":10953,"sklausul":10954,"ĠafprÃ¸":10955,"Ġkuns":10956,"ĠHau":10957,"Ġforpligtelserne":10958,"ĠidrÃ¦t":10959,"Ġspise":10960,"ĠMoskva":10961,"jel":10962,"ĠuÃ¸n":10963,"ĠgennemfÃ¸rte":10964,"Ġerfaringerne":10965,"markederne":10966,"Ġdirektiverne":10967,"interesser":10968,"ĠCotonou":10969,"up":10970,"instrument":10971,"ismens":10972,"alia":10973,"lytning":10974,"Ġnaturen":10975,"loven":10976,"Ġenkeltpersoner":10977,"Ġdominerende":10978,"Ġslovenske":10979,"Ġforlange":10980,"ulykker":10981,"evne":10982,"ĠBlandede":10983,"obyl":10984,"Ġsmid":10985,"Ġsupplerer":10986,"ĠÃ¥nden":10987,"Ġdiplomati":10988,"projekt":10989,"Ġhushold":10990,"ĠfÃ¸dt":10991,"sudgifterne":10992,"Ġjf":10993,"ĠSar":10994,"laget":10995,"Ġreligionsfrihed":10996,"osselt":10997,"Ġbistanden":10998,"Ġiv":10999,"Ġlover":11000,"ĠMug":11001,"ĠindfÃ¸rte":11002,"Ġgentaget":11003,"Ġhjemsted":11004,"ĠforelÃ¦gges":11005,"ĠregelmÃ¦ssige":11006,"ĠstrÃ¦be":11007,"Ġorienteret":11008,"ĠJohannes":11009,"Ġminuts":11010,"ĠKorea":11011,"sforsk":11012,"Menneskeret":11013,"Ġkombination":11014,"Ġklimap":11015,"Ġnuklear":11016,"ĠatomkraftvÃ¦rker":11017,"ĠbehÃ¸rig":11018,"Ġjernbanetransport":11019,"rukket":11020,"foranstaltningerne":11021,"smÃ¸det":11022,"ygtige":11023,"Ġinteresserer":11024,"Ġskep":11025,"Ġratificeringen":11026,"byrd":11027,"Ġpassagererne":11028,"Ġreageret":11029,"Ġafklaret":11030,"has":11031,"Ġsal":11032,"ĠDes":11033,"Ã¸dt":11034,"ĠÃ¥rtus":11035,"Ġgrundige":11036,"ĠfastlÃ¦ggelse":11037,"ĠansÃ¸gninger":11038,"Result":11039,"Ġimmigration":11040,"Ġdiversifi":11041,"ao":11042,"Ġubetinget":11043,"Ġskrev":11044,"ĠformÃ¦nd":11045,"Ġkoncer":11046,"ĠHe":11047,"ĠudlÃ¸bet":11048,"ĠFerrer":11049,"Ag":11050,"II":11051,"aks":11052,"Ġomd":11053,"ĠpÃ¥trÃ¦ngende":11054,"Ġvarme":11055,"Ġforskellen":11056,"Ġcig":11057,"Ġdeltagere":11058,"Ġbered":11059,"Ġforudsig":11060,"Ġtilfredsstil":11061,"Ġ142":11062,"Ġlufttransport":11063,"ĠOptrÃ¦den":11064,"Ġalarmerende":11065,"egang":11066,"Ġudpeget":11067,"brugerne":11068,"ĠUdadtil":11069,"Ġdreje":11070,"Ġstandardisering":11071,"banske":11072,"ham":11073,"itt":11074,"ĠKo":11075,"smÃ¥de":11076,"Ġhandlede":11077,"Ġkolon":11078,"uleret":11079,"Ġfejlag":11080,"Ġsession":11081,"Ġkandidatlandene":11082,"ĠÃ¦ld":11083,"Ġkodeks":11084,"ĠafsÃ¦ttes":11085,"ĠjÃ¦vn":11086,"Ġindleder":11087,"Ġforbil":11088,"Ġundervurder":11089,"sselskaber":11090,"ĠkommissÃ¦rerne":11091,"Ġhelhjertet":11092,"ĠAfrikanske":11093,"Ġudpege":11094,"Ġepidem":11095,"Ġudvalgsbehandling":11096,"ĠTjekkiet":11097,"Ġblik":11098,"Ġudsende":11099,"gives":11100,"Ġaktindsigt":11101,"ĠNordkorea":11102,"Ġbeklagelse":11103,"ĠforvÃ¦rres":11104,"teknologi":11105,"ĠglÃ¦deligt":11106,"Ġklimaforandringer":11107,"jernobyl":11108,"enezuel":11109,"Ġtakt":11110,"Ġark":11111,"holdende":11112,"ĠMac":11113,"Ġembargo":11114,"Ġkrises":11115,"risiko":11116,"Ġhjemmet":11117,"ĠretfÃ¦rdiggÃ¸re":11118,"ĠvÃ¦rktÃ¸jer":11119,"Ġcertifi":11120,"snet":11121,"enting":11122,"ĠÃ¥rlig":11123,"ĠkomitÃ©":11124,"Ġkomplet":11125,"Ġeksam":11126,"Ġforhandles":11127,"Ġbarbar":11128,"uratom":11129,"Ġforuden":11130,"ftige":11131,"Ġhenholdsvis":11132,"ĠindgÃ¥elsen":11133,"ĠudlÃ¸ber":11134,"Ġbeslutsomt":11135,"45":11136,"bour":11137,"edler":11138,"agnen":11139,"sproget":11140,"ĠHel":11141,"Afstem":11142,"Ġadskiller":11143,"Ġindsigt":11144,"Ġstemmes":11145,"Ġsikkerhedsstandarder":11146,"ĠhÃ¸res":11147,"Ġhandelspolitik":11148,"ĠKonstitutionelle":11149,"ĠvÃ¥benh":11150,"betaling":11151,"Ġmoratorium":11152,"stab":11153,"ama":11154,"lands":11155,"ĠÃĺkofin":11156,"Ġbevarelsen":11157,"Ġdyrene":11158,"Revision":11159,"Ġadministrationen":11160,"salder":11161,"Ġfossi":11162,"Ġtomme":11163,"Ġselvsagt":11164,"Ġpolitikerne":11165,"ĠvÃ¦rdsÃ¦tter":11166,"rÃ¥dte":11167,"ilep":11168,"quis":11169,"ĠoptrÃ¦den":11170,"07":11171,"MiljÃ¸":11172,"licit":11173,"ĠNic":11174,"Ġkonkurrenter":11175,"Ġvoldsomt":11176,"ĠdÃ¸mme":11177,"Ġeksportere":11178,"Budget":11179,"ligter":11180,"amet":11181,"Ġopgaven":11182,"Ġgods":11183,"rolle":11184,"ustral":11185,"Ġkulturelt":11186,"Ġlevering":11187,"Protokollen":11188,"smÃ¦ndene":11189,"Ġafskedigelser":11190,"ĠLiges":11191,"ĠNap":11192,"Ġkoal":11193,"Ġstigningen":11194,"syge":11195,"Ġudstede":11196,"fartÃ¸jer":11197,"Ġboliger":11198,"ĠEuroparÃ¥dets":11199,"Ġattent":11200,"Derefter":11201,"sprÃ¦":11202,"mmene":11203,"ĠvÃ¦rdien":11204,"ĠfornÃ¦r":11205,"Ġskifte":11206,"Ġafbalancerede":11207,"Ġkraftige":11208,"Ġhemmelige":11209,"Ġforligsproceduren":11210,"ĠvideregÃ¥ende":11211,"Ġcivilisation":11212,"disciplin":11213,"Ġproportionalitet":11214,"overvÃ¥gning":11215,"SD":11216,"Ġisrael":11217,"Ġafd":11218,"Ġopsp":11219,"Ġretspraksis":11220,"vare":11221,"ftest":11222,"Ġspild":11223,"Ġinfrastrukturen":11224,"Ġforhindret":11225,"ĠtilstedevÃ¦rende":11226,"ĠAnden":11227,"Ġloft":11228,"Ġsymbolsk":11229,"Ġdollar":11230,"Ġbogstav":11231,"veri":11232,"Ġlandenes":11233,"Ġ195":11234,"Ġkoste":11235,"ubanske":11236,"Ġunionsb":11237,"ĠPalacio":11238,"ena":11239,"ska":11240,"Ġrealisere":11241,"Ġprogn":11242,"ĠfravÃ¦r":11243,"Ġdemokratiets":11244,"Ġbestemmer":11245,"Ġcubanske":11246,"Ġstyres":11247,"ĠVesten":11248,"bygning":11249,"ledninger":11250,"ĠhÃ¥ndteringen":11251,"Ġevalueringen":11252,"Ġangiveligt":11253,"ĠOmbudsmanden":11254,"Ġukrainske":11255,"ĠmÃ¥lestok":11256,"ĠpÃ¥stand":11257,"Ġminoriteter":11258,"ĠPut":11259,"Ġgodkendelsen":11260,"Ġskatteydere":11261,"direktiver":11262,"Ġoprindelsesland":11263,"ĠforstÃ¦rket":11264,"Ġensidige":11265,"ĠForbrugerpolitik":11266,"Ġbremse":11267,"Ġkortsigtede":11268,"Ġsoft":11269,"etider":11270,"ĠmedfÃ¸r":11271,"ekon":11272,"rÃ¦b":11273,"mmel":11274,"aut":11275,"lah":11276,"Ġterrorangreb":11277,"Ġudstation":11278,"Ġpotentielt":11279,"Ġudlevering":11280,"Ãºn":11281,"Ġinteroperabilitet":11282,"sorg":11283,"behov":11284,"giej":11285,"ssted":11286,"ĠUC":11287,"Ġindgik":11288,"Ġfokuseres":11289,"relser":11290,"rapp":11291,"amfund":11292,"ektion":11293,"Ġetisk":11294,"gium":11295,"Ġbeholde":11296,"fordring":11297,"Ġvejene":11298,"sniveauet":11299,"Ġambassad":11300,"lez":11301,"Ġvelaf":11302,"Ġdynamiske":11303,"Ġhjerteligt":11304,"Bort":11305,"ya":11306,"ĠfÃ¦d":11307,"Ġgevin":11308,"ĠpalÃ¦stinensisk":11309,"Ġmariti":11310,"Ġintentioner":11311,"que":11312,"niveauet":11313,"Ġpatienterne":11314,"Ġoplyst":11315,"Ġunderminerer":11316,"sager":11317,"Ġonde":11318,"ĠbegÃ¥r":11319,"ruppes":11320,"Ġprisstabilitet":11321,"Ġudenrigspolitikken":11322,"Ġintrodu":11323,"elsesproces":11324,"Ġmaterielle":11325,"Ã¸delÃ¦ggelses":11326,"pat":11327,"zonen":11328,"Ġhad":11329,"aming":11330,"Ġvedlige":11331,"Ġgenbrug":11332,"Ġkonstruktion":11333,"Ġrespekteret":11334,"Ġbeskrive":11335,"ĠreligiÃ¸s":11336,"Ġingenting":11337,"Ġrammedirektiv":11338,"Ġfrag":11339,"Ġfasc":11340,"Ġsovjet":11341,"igh":11342,"Ġkyn":11343,"strÃ¸":11344,"styre":11345,"orten":11346,"sson":11347,"ĠTjernobyl":11348,"pÃ¸rgsmÃ¥let":11349,"Ġudbredte":11350,"Ġkoncentrerer":11351,"stilladelse":11352,"Heldigvis":11353,"Ġukend":11354,"ĠRi":11355,"rettes":11356,"serer":11357,"Ġskabelse":11358,"Ġagenturets":11359,"myndigheden":11360,"Ġscenar":11361,"fisker":11362,"ms":11363,"ĠdÃ¸re":11364,"ĠanlÃ¦gge":11365,"ĠformÃ¥et":11366,"ĠfÃ¸rtiltrÃ¦delses":11367,"ĠprÃ¦cisering":11368,"Ġudfordringen":11369,"Ġafskaffelsen":11370,"ĠSchengenomrÃ¥det":11371,"Ġmaksimum":11372,"Ġtredjelandsstatsborgere":11373,"Ġformulere":11374,"Ġmanip":11375,"ĠGo":11376,"ĠJun":11377,"Ġskriver":11378,"Ġprogrammets":11379,"ĠbiobrÃ¦ndstoffer":11380,"Ġpira":11381,"Ġstres":11382,"Ã¸jelsen":11383,"ĠMit":11384,"Ġsynlig":11385,"faldende":11386,"Ġgaranteret":11387,"Ġbyen":11388,"Ġevner":11389,"Ġensidigt":11390,"Kra":11391,"gdom":11392,"Ġkunder":11393,"Ġsten":11394,"Ġklausul":11395,"sfonde":11396,"ĠsamfundsmÃ¦ssige":11397,"planen":11398,"Ġstaters":11399,"Ġsvageste":11400,"ypriotiske":11401,"Ġasiatiske":11402,"Sagen":11403,"bÃ¥nd":11404,"vak":11405,"Ġupar":11406,"Ġukontrol":11407,"Ġtry":11408,"ĠÃ¸er":11409,"Ġgrundene":11410,"Ġdestabil":11411,"ĠLeon":11412,"Ġantibio":11413,"Ġfremstille":11414,"ĠGuantÃ¡namo":11415,"Ġure":11416,"Ġlik":11417,"Ġviljen":11418,"Ġopdeling":11419,"Ġudelukkelse":11420,"Ġisoleret":11421,"ĠglÃ¦dede":11422,"Ġudstedt":11423,"Ġpragmatisk":11424,"oral":11425,"Ġtilbages":11426,"Ġskift":11427,"Ġaktiviteterne":11428,"Ġbydende":11429,"Ġnaturressourcer":11430,"synet":11431,"Ġinstitutionernes":11432,"Ġvurderet":11433,"ĠgrÃ¦nsevÃ¦rdier":11434,"ĠfastslÃ¥et":11435,"Ġadvare":11436,"Ġundskylde":11437,"Ġudnyttelsen":11438,"Par":11439,"stÃ¥r":11440,"Ġoverens":11441,"Ġvenskab":11442,"Ġniveauet":11443,"Ġadskillelse":11444,"Ġforklaret":11445,"essor":11446,"Ġuoverensstemmelser":11447,"Ġrace":11448,"Ġbefri":11449,"Ġkonsekvente":11450,"ĠReach":11451,"Ġskovene":11452,"Ġtusinde":11453,"Ġreguleret":11454,"Ġbetegnes":11455,"Ġintelligente":11456,"Ġcigaret":11457,"ali":11458,"tninge":11459,"Ġudviklinger":11460,"Ġkigge":11461,"ĠNatura":11462,"Ġuf":11463,"Ġomdan":11464,"Ġteoret":11465,"Ġ44":11466,"Ã¦vne":11467,"smedlemmer":11468,"atem":11469,"Ã¸mmende":11470,"ĠECHO":11471,"ĠafslÃ¸r":11472,"Ġdommer":11473,"ĠmiljÃ¸l":11474,"ĠbeklÃ¦d":11475,"16":11476,"just":11477,"Ġhent":11478,"ĠudmÃ¸n":11479,"sÃ¦t":11480,"Ġbureaukratiet":11481,"ekÃ¦mpelsen":11482,"Ġdemonstration":11483,"undersÃ¸gelse":11484,"Ġnavneop":11485,"ev":11486,"ocial":11487,"Ġchik":11488,"Ġnordiske":11489,"ĠÃĺsttimor":11490,"ĠmasseÃ¸delÃ¦ggelses":11491,"Ġpartnerskabsaftaler":11492,"ĠsjÃ¦ldne":11493,"ĠBolkestein":11494,"arzemb":11495,"foder":11496,"ĠpÃ¥ber":11497,"ĠRussiske":11498,"ĠsÃ¸transport":11499,"ĠoffentliggÃ¸res":11500,"Ġfortaler":11501,"Ġfagforening":11502,"ĠpÃ¥stande":11503,"ĠMichel":11504,"dokument":11505,"mÃ¥":11506,"ump":11507,"Ġforar":11508,"sset":11509,"Ġherske":11510,"sform":11511,"Ġproduceres":11512,"ĠMartin":11513,"Ġforsvundet":11514,"serbajdsjan":11515,"Ġyng":11516,"Ġfyldest":11517,"Ġjer":11518,"forebyggelse":11519,"Ġreference":11520,"kkelige":11521,"Ġvidereudvik":11522,"Ġluften":11523,"Ġnationalitet":11524,"Ġkatastrofen":11525,"Ġevt":11526,"berettiget":11527,"Ġprogrammering":11528,"Ġsanktionerne":11529,"Ġseparat":11530,"AO":11531,"agelses":11532,"ĠpÃ¥tÃ¦n":11533,"iki":11534,"akh":11535,"usalem":11536,"Ġnedbr":11537,"Ġ46":11538,"ĠforespÃ¸rg":11539,"Ġoverlevelse":11540,"Ġkreditvurderingsbureau":11541,"ĠnavneoprÃ¥b":11542,"Mil":11543,"Ġoplag":11544,"sling":11545,"spekt":11546,"ĠTran":11547,"Ġbehovene":11548,"Ġstatens":11549,"Ġborgerkrig":11550,"ĠfÃ¸devarek":11551,"Ġtredjedele":11552,"beretningen":11553,"Ġtragisk":11554,"ĠnÃ¸jagtige":11555,"tur":11556,"Ġvol":11557,"Ġunderrettet":11558,"Ġsidde":11559,"ĠLang":11560,"ragte":11561,"ĠfastlÃ¦ggelsen":11562,"Ġformandskaber":11563,"Ġtruslen":11564,"ĠindrÃ¸mmer":11565,"ressourcerne":11566,"ĠjordskÃ¦lv":11567,"ĠrÃ¸r":11568,"ĠfremfÃ¸re":11569,"Ġprojekterne":11570,"samarbejde":11571,"Ġneoli":11572,"Ġbeskrives":11573,"Ġalliance":11574,"skampagner":11575,"iro":11576,"Ã¦k":11577,"rasm":11578,"konference":11579,"sforb":11580,"ĠBet":11581,"ĠmiljÃ¸mÃ¦ssig":11582,"Ġforpligtelsen":11583,"Ġengagere":11584,"Ġudbrede":11585,"Ġindledningen":11586,"Ġskride":11587,"Ġidentifikation":11588,"Ġimplemen":11589,"Generelt":11590,"ĠÃ¦gteskab":11591,"rez":11592,"ĠkÃ¸l":11593,"Ġtildele":11594,"unn":11595,"Ġdemokrater":11596,"Ġselvbestemmelse":11597,"cher":11598,"ventet":11599,"Ġfiskeres":11600,"ĠtÃ¦tte":11601,"Ġinterinstitutionel":11602,"Ġskatteyderne":11603,"Ġrussisk":11604,"Mod":11605,"kvaliteten":11606,"idtil":11607,"Ġprostitution":11608,"ĠmodsÃ¦tter":11609,"Ġproblematisk":11610,"ĠTekn":11611,"ĠHandel":11612,"sdagen":11613,"olerance":11614,"situationer":11615,"ĠkÃ¸ns":11616,"Ġobjektivt":11617,"fil":11618,"Ġpligter":11619,"alin":11620,"Ġtri":11621,"Ġindh":11622,"ĠOver":11623,"Ġharmoniserede":11624,"Ġvokset":11625,"Ġ1980":11626,"Ġmassiv":11627,"Ġafvikling":11628,"Ġubet":11629,"stÃ¸tten":11630,"ĠAh":11631,"estemt":11632,"Ġhandlen":11633,"Ġfredeligt":11634,"Ġaftalte":11635,"ĠberÃ¸re":11636,"Ġafsky":11637,"Ġberetninger":11638,"Ġflygtningene":11639,"ĠlÃ¦gemiddel":11640,"Ġsubsidier":11641,"Ġkombinere":11642,"Ġurimeligt":11643,"Ġfornemmelse":11644,"ĠrÃ¦kkevidde":11645,"uberkul":11646,"Ru":11647,"titu":11648,"Ġfine":11649,"ĠstÃ¸der":11650,"Ġnedlu":11651,"Ġkulturen":11652,"ndez":11653,"ĠforfatningsmÃ¦ssige":11654,"ĠsÃ¸jler":11655,"Ġkontroversielle":11656,"omener":11657,"Ġstrider":11658,"Ġalbanske":11659,"slo":11660,"Ġfinansierer":11661,"2008":11662,"viditet":11663,"ĠsuverÃ¦ne":11664,"Ġprotestere":11665,"Ġfjendt":11666,"ĠGeneraldirektor":11667,"Ġdrikkevand":11668,"ejer":11669,"Ġuend":11670,"Ġdennes":11671,"ĠskÃ¦nd":11672,"Ġmindede":11673,"rundet":11674,"Ġ39":11675,"Ġfaser":11676,"effektive":11677,"Ġstabilisere":11678,"Ġkreative":11679,"ĠmonetÃ¦r":11680,"princippet":11681,"Ġjul":11682,"Ġarbejdere":11683,"fattet":11684,"imal":11685,"Ġpersoners":11686,"Ġledet":11687,"Ġtilladte":11688,"Ġafklaring":11689,"ĠberÃ¸mte":11690,"PrÃ¦sident":11691,"Ġudenfor":11692,"Ġregels":11693,"Ġkontinu":11694,"ĠgrÃ¦sk":11695,"ĠhÃ¦nderne":11696,"Ġmobilt":11697,"Ġassocieringsaftale":11698,"Ġenergiforsyning":11699,"ĠtilbagetrÃ¦kning":11700,"ĠFrattini":11701,"Ġex":11702,"ovgivningen":11703,"Ġtilbydes":11704,"ĠviderefÃ¸re":11705,"ĠfastslÃ¥r":11706,"Ġdrages":11707,"Ġubehag":11708,"Ġbudgetposter":11709,"Ġindrejse":11710,"folkning":11711,"uk":11712,"nest":11713,"ĠUEN":11714,"Ġselvmod":11715,"Ã¸stlige":11716,"Ġbortskaff":11717,"Ġkarakteris":11718,"Ġoverdrevne":11719,"ĠfremgangsmÃ¥der":11720,"ĠBulgariens":11721,"Ġreserver":11722,"Ġbetydningsfuld":11723,"Ġtildel":11724,"Ġoptager":11725,"Ġhvortil":11726,"Ġmellemstatslige":11727,"Ġlovgivninger":11728,"oblig":11729,"Ġnett":11730,"Ġbrutale":11731,"ĠsÃ¸gt":11732,"Ġsandelig":11733,"ĠselvstÃ¦ndighed":11734,"betingelserne":11735,"Ġmidten":11736,"sendelse":11737,"Ġtiltro":11738,"Ġurimelig":11739,"ĠforespÃ¸rgsler":11740,"uktion":11741,"Ã¸konomi":11742,"Ġopbevar":11743,"ĠanfÃ¸rte":11744,"mmede":11745,"Ġnettet":11746,"Ġbillet":11747,"Ġtidspunktet":11748,"2007":11749,"Ġimporten":11750,"Ġrevideret":11751,"Ġrestriktive":11752,"ĠCanc":11753,"Ġtavshed":11754,"19":11755,"hje":11756,"sindustrien":11757,"fort":11758,"Ġmellemstats":11759,"avnlig":11760,"sbekÃ¦mpelse":11761,"Ġbilled":11762,"ĠprÃ¦sidenten":11763,"Ġdiskriminerende":11764,"Ġskriftlig":11765,"Ġvildledende":11766,"Ġindsamle":11767,"Ġmy":11768,"sil":11769,"ationers":11770,"ĠKomitÃ©":11771,"Ġforbi":11772,"Ġretssystem":11773,"Ġbegreber":11774,"ĠCambod":11775,"sfart":11776,"markeder":11777,"Ġhenstillingerne":11778,"ĠudnÃ¦vnelsen":11779,"Ġfremstilles":11780,"Ġbry":11781,"stande":11782,"ĠBas":11783,"obil":11784,"ĠÃ¥bnes":11785,"Ġsvarede":11786,"ĠmÃ¦rker":11787,"ĠmÃ¦rkes":11788,"atoriske":11789,"Ġgeneraldirektor":11790,"Ġprocentdel":11791,"Lu":11792,"ey":11793,"parlament":11794,"sevne":11795,"Ġoverblik":11796,"ĠÃ¸en":11797,"afi":11798,"ĠplanlÃ¦gge":11799,"ĠlandbrugsomrÃ¥det":11800,"Ġkosmet":11801,"Ġdyrt":11802,"eskyttelsen":11803,"aen":11804,"ommer":11805,"ĠFolk":11806,"ĠfÃ¸rstebehandling":11807,"Ġundrer":11808,"ĠsundhedsmÃ¦ssige":11809,"Ġsyntes":11810,"ĠBarnier":11811,"ĠmasseÃ¸delÃ¦ggelsesvÃ¥ben":11812,"mÃ¦ng":11813,"sj":11814,"Ġindtaget":11815,"Ġunges":11816,"ĠJos":11817,"Intet":11818,"Ġpassiv":11819,"ĠhÃ¥rdest":11820,"ĠNorge":11821,"ĠkÃ¸rekort":11822,"Ġdonorer":11823,"bevillingerne":11824,"Ġprofessionelle":11825,"ĠuforholdsmÃ¦ssigt":11826,"Ġmuslimske":11827,"Ġslovakiske":11828,"zz":11829,"Ġbundet":11830,"Ġuk":11831,"svarer":11832,"ĠLomÃ©":11833,"Ġkompon":11834,"Ġpensionister":11835,"Ġgensidighed":11836,"Ġautoritet":11837,"Ġumulig":11838,"Ġstatsborgerskab":11839,"Ġfusion":11840,"kriterierne":11841,"fisk":11842,"Ġqu":11843,"linger":11844,"Ġmodtagelse":11845,"Ġvisa":11846,"Ġ250":11847,"ĠRegionsudvalget":11848,"Ġadvokat":11849,"Godkendelse":11850,"Ġbakker":11851,"spakke":11852,"Ġrepres":11853,"Ġudvider":11854,"ĠCamp":11855,"Ġregister":11856,"Ġnormal":11857,"ĠnÃ¦stform":11858,"Ġtilskyndelse":11859,"Ġvelkendte":11860,"22":11861,"Ġattra":11862,"ĠaflÃ¦gge":11863,"Ġkrige":11864,"Ġfrihandel":11865,"Ġforvaltes":11866,"Ġforordningens":11867,"ĠflÃ¥de":11868,"tentiale":11869,"Ġoverdreven":11870,"Ġnot":11871,"somkostninger":11872,"Ġfristen":11873,"Ġsynlige":11874,"Ġfordelt":11875,"ĠudlÃ¦nd":11876,"Kina":11877,"reyer":11878,"Ġindarbejdet":11879,"Ġindgive":11880,"ĠgennemgÃ¥et":11881,"Ġkontorer":11882,"sproblemet":11883,"Ġproduceret":11884,"Ġgruppers":11885,"Ġlederne":11886,"Ġtransportnet":11887,"Ã¶r":11888,"Ġfanget":11889,"ĠstrÃ¦ber":11890,"Ġsporbarhed":11891,"regeringen":11892,"anere":11893,"skultur":11894,"ĠhÃ¥n":11895,"ĠhjÃ¦lpen":11896,"ĠbekÃ¦mper":11897,"Ġfiskerfl":11898,"ĠkompromisÃ¦ndringsforslag":11899,"Sand":11900,"Ġakk":11901,"Ġopsu":11902,"Ġnyligt":11903,"Mennes":11904,"Ġgenopli":11905,"Ġtypisk":11906,"Ġideologiske":11907,"Ġreserve":11908,"Ġepis":11909,"Ġbelarussiske":11910,"Se":11911,"ĠopfÃ¸rsel":11912,"Ġgrusom":11913,"ĠPosselt":11914,"Ġgentagelse":11915,"Ġkoordinator":11916,"Ġinddrager":11917,"Ġkonstaterede":11918,"Ġudformes":11919,"Ġstemmeforklaring":11920,"ĠhjÃ¸rnesten":11921,"Ġvelvil":11922,"Äį":11923,"Ġsind":11924,"Ġkonjunkt":11925,"handlen":11926,"konomisk":11927,"Ġpriss":11928,"Ġinformationstekn":11929,"Ġbenz":11930,"Udvidelsen":11931,"ĠmÃ¸desalen":11932,"Ġlokalsamfund":11933,"Ġneutr":11934,"Ġkod":11935,"ftere":11936,"sender":11937,"Ġregeringens":11938,"Ġbillige":11939,"Ġudelukkes":11940,"ĠoffentliggÃ¸relse":11941,"frie":11942,"ĠFriheder":11943,"sbegrÃ¦n":11944,"Dog":11945,"ĠPoettering":11946,"ĠCas":11947,"ĠVed":11948,"Ġsocialpolitik":11949,"Ġblinde":11950,"Ġcitere":11951,"Ġfakta":11952,"ĠGuinea":11953,"Ġforsamlingen":11954,"Ġhundredvis":11955,"ĠOgsÃ¥":11956,"Ġfav":11957,"ĠbÃ¸der":11958,"Ã¦ren":11959,"resultatet":11960,"Ġstyrer":11961,"ĠkrÃ¦vende":11962,"Ġsvigt":11963,"Ġhandelsaftaler":11964,"demokratiske":11965,"Ġfolkevalgte":11966,"sgruppe":11967,"Ġvalutak":11968,"Ġbulgarske":11969,"liste":11970,"ony":11971,"ĠShar":11972,"ĠOomen":11973,"Ġkonstante":11974,"Ġdefinitioner":11975,"ĠplenarmÃ¸de":11976,"ÃŃa":11977,"ĠnedskÃ¦ring":11978,"elÃ¸bende":11979,"Ġvarierer":11980,"ĠuomgÃ¦ng":11981,"Ġna":11982,"ĠSk":11983,"ĠCent":11984,"senti":11985,"Ġlyst":11986,"Ġspecielle":11987,"Ġoliven":11988,"Ġmaksimale":11989,"ĠforelÃ¸big":11990,"Ġhaste":11991,"Ġforekomme":11992,"Ġgratulere":11993,"ĠEuropaParlamentet":11994,"Ġdesper":11995,"ĠbemÃ¦rkede":11996,"Ġlevet":11997,"Ġdemonstrationer":11998,"Ġblokere":11999,"Ġarresteret":12000,"Nord":12001,"dene":12002,"ĠprÃ¦ference":12003,"sbeslu":12004,"Ġlukker":12005,"urdering":12006,"2009":12007,"ĠbestrÃ¦ber":12008,"Ġadvarsel":12009,"belÃ¸b":12010,"ĠASEAN":12011,"Ġafskaffet":12012,"deira":12013,"abo":12014,"Ġpolitikkerne":12015,"Ġbegunstig":12016,"afgÃ¸rende":12017,"Ġfastholdes":12018,"Ġregeringers":12019,"Ġretslige":12020,"Ġlevedygtig":12021,"ĠmÃ¦ngden":12022,"Ġhykleri":12023,"fluenz":12024,"Ġacquis":12025,"27":12026,"seffek":12027,"indelse":12028,"holdenhed":12029,"Ġanerkendelsen":12030,"Ġintegrationsproces":12031,"Ġdelegationen":12032,"ĠEurojust":12033,"skibe":12034,"Ġbeskrivelse":12035,"ĠihÃ¦rd":12036,"Ġsavner":12037,"Ġfredsbevarende":12038,"Ġattraktiv":12039,"abelt":12040,"ĠKir":12041,"Ġnummer":12042,"Ġlovende":12043,"Ġlovgive":12044,"ĠOlympiske":12045,"isses":12046,"onta":12047,"Ġtransportsektoren":12048,"Ġbenyttet":12049,"Ġ85":12050,"Ġselek":12051,"politikkerne":12052,"Ġuheldigt":12053,"Ġdrivhusga":12054,"Un":12055,"iber":12056,"inter":12057,"agtig":12058,"steder":12059,"strid":12060,"vÃ¦relse":12061,"ĠAir":12062,"Ġradi":12063,"ĠtilfÃ¸jes":12064,"Ġkommunik":12065,"ĠafhÃ¦ngigt":12066,"Ġafskaffes":12067,"Ġregionalpolitik":12068,"Ġhospit":12069,"ew":12070,"ĠÃħr":12071,"slet":12072,"udvalgets":12073,"Ġsatser":12074,"ĠAlle":12075,"Ġakvak":12076,"Ġregulerer":12077,"Ġtilbagegang":12078,"rasmus":12079,"uberkulose":12080,"bÃ¦r":12081,"ummet":12082,"ĠAserbajdsjan":12083,"Ġselvmord":12084,"procedurer":12085,"Ġforestilling":12086,"sbek":12087,"Ġopfordringer":12088,"Ġforener":12089,"Hidtil":12090,"ondens":12091,"ĠvÃ¦rk":12092,"Ġstram":12093,"ĠvÃ¦rdifuld":12094,"Ġbanks":12095,"Ġtung":12096,"Ġopdater":12097,"myndighederne":12098,"Ġsmerte":12099,"ĠpÃ¥begyndt":12100,"rot":12101,"Ġopdag":12102,"klausul":12103,"Ġforbedrede":12104,"Ġsvarende":12105,"Ġeksempl":12106,"ĠKongres":12107,"metoder":12108,"Ġdrab":12109,"Ġophavsret":12110,"Ġsides":12111,"Ġstraffer":12112,"aftryk":12113,"Ġnavnet":12114,"Ġharmoniseringen":12115,"regioner":12116,"korpor":12117,"Ġstabiliserings":12118,"Ġvogter":12119,"Ġfinansmarkederne":12120,"ĠWallstrÃ¶m":12121,"emissionerne":12122,"RE":12123,"inion":12124,"Ġoppe":12125,"ĠLeg":12126,"ĠTim":12127,"Ġvalgene":12128,"ĠsÃ¸g":12129,"Ġfjerd":12130,"Ġomfattede":12131,"ĠophÃ¦ves":12132,"ĠMenneskerettigheds":12133,"ĠobservatÃ¸r":12134,"ĠunÃ¸dvendigt":12135,"Ġindstille":12136,"ĠnÃ¦rhedsprincippet":12137,"Ġkyster":12138,"Ġakvakultur":12139,"Ġreces":12140,"redet":12141,"ĠtilfÃ¸jet":12142,"Ġfolked":12143,"ĠhÃ¥ndgrib":12144,"Ġbarsels":12145,"ĠkÃ¸retÃ¸j":12146,"ĠnÃ¦gt":12147,"forsÃ¸g":12148,"Ġrepar":12149,"Ġreferencer":12150,"ĠKaukasus":12151,"ĠforbrÃ¦nding":12152,"ĠvÃ¦rker":12153,"ĠaltafgÃ¸rende":12154,"Ġplanter":12155,"sfre":12156,"ĠhÃ¸ringen":12157,"Ġfejltagelse":12158,"Ġovervejende":12159,"Ġforanled":12160,"sniveauer":12161,"Ġudbredelsen":12162,"Ġhemmelig":12163,"regering":12164,"ĠusÃ¦dvanlig":12165,"ĠFerrero":12166,"ĠCancÃºn":12167,"ĠforÃ¦l":12168,"aldt":12169,"rakter":12170,"ĠCa":12171,"ĠVeste":12172,"producenterne":12173,"Ġmilitar":12174,"Ġjordbund":12175,"Ġresulteret":12176,"kelserne":12177,"Ġtrist":12178,"tidens":12179,"artet":12180,"Ġbudgetproceduren":12181,"ĠNationers":12182,"virker":12183,"Ġsocialsikring":12184,"Ġbehandlede":12185,"Ġmeddelelser":12186,"rogres":12187,"Ġsolidariteten":12188,"Ġhalve":12189,"ĠUngdom":12190,"Ġmaksimal":12191,"Ġmedlemslandenes":12192,"Ġinspektion":12193,"hind":12194,"ĠEuratom":12195,"Ġindb":12196,"Ġreglen":12197,"ĠvÃ¦lges":12198,"ĠAgentur":12199,"Ġudryddelse":12200,"vinding":12201,"urud":12202,"vÃ¦l":12203,"ĠÃ¸r":12204,"orisk":12205,"Ġpagten":12206,"Ġprovin":12207,"sforkÃ¦mp":12208,"ĠBa":12209,"afg":12210,"Ġdeles":12211,"Ġdeltid":12212,"Ġblind":12213,"Ġhenvisninger":12214,"ĠudÃ¸ves":12215,"ĠovertrÃ¦delsespro":12216,"sasp":12217,"Ġkreativitet":12218,"tation":12219,"Ġgl":12220,"ĠErika":12221,"lingen":12222,"ĠTe":12223,"chi":12224,"Alene":12225,"Ġindustriens":12226,"Ġrisiciene":12227,"Ġintellektuel":12228,"Ġlatin":12229,"ĠovertrÃ¦der":12230,"ĠbedÃ¸mme":12231,"Ġmarkedets":12232,"Ġkortere":12233,"Ġtraditionelt":12234,"Ġhemmelighed":12235,"usser":12236,"Ġimponerende":12237,"principp":12238,"Ġoverlades":12239,"ogen":12240,"Ġrepublik":12241,"gerede":12242,"Ġimage":12243,"somkostningerne":12244,"Ġstadium":12245,"Ġsamtale":12246,"Ġkollegers":12247,"Ġspillede":12248,"Ġudvidelsesprocessen":12249,"Ġchancen":12250,"Ġstole":12251,"Ġjernbanerne":12252,"Ġfandtes":12253,"ĠVestsa":12254,"Ġmistillidsvotum":12255,"Svaret":12256,"Ġferi":12257,"ĠmÃ¸r":12258,"forordning":12259,"abler":12260,"rediens":12261,"Ġ600":12262,"Ġgebyr":12263,"Ġprofessor":12264,"ĠoverfÃ¸rsler":12265,"Bortset":12266,"Mar":12267,"Ġafklare":12268,"Ġinkorpor":12269,"ami":12270,"ĠforhÃ¸je":12271,"menslu":12272,"rettelsen":12273,"hail":12274,"Ġmistede":12275,"Ġnotere":12276,"ĠhÃ¸jreflÃ¸j":12277,"idenskabelige":12278,"80":12279,"Ġangive":12280,"Ġgenforen":12281,"istparti":12282,"ĠmiljÃ¸politik":12283,"Ġkrigs":12284,"Ġminimumsstandarder":12285,"ĠfordÃ¸mt":12286,"Ġoverraskelse":12287,"Ġreklamer":12288,"Hvert":12289,"ĠÃ¸verst":12290,"Ġunderkast":12291,"Ġklo":12292,"Ġsags":12293,"sÃ¦tningerne":12294,"dagsordenen":12295,"ĠretsvÃ¦sen":12296,"ĠovervÃ¥ges":12297,"Ġdyrkning":12298,"Ġdiskriminering":12299,"ĠLukas":12300,"Ġmundtlig":12301,"Ġignorerer":12302,"indsatsen":12303,"ĠtilhÃ¸rende":12304,"kommissÃ¦r":12305,"Ġvend":12306,"ilde":12307,"rivelse":12308,"ĠbetÃ¸d":12309,"ĠBen":12310,"bert":12311,"Ġopretholdelse":12312,"Ġforsvars":12313,"Ġjuris":12314,"ĠAnn":12315,"ĠmÃ¥neders":12316,"Medlemmerne":12317,"ĠvÃ¥benhvile":12318,"Ġsommet":12319,"Ġindvik":12320,"Ġalting":12321,"ĠsvÃ¦re":12322,"Ġspillerum":12323,"Ġudfylde":12324,"Ġhuller":12325,"Ġmenneskesm":12326,"ĠtÃ¦ller":12327,"ĠFÃ¸deration":12328,"zÃ¡":12329,"Ġantager":12330,"abor":12331,"Ġbesatte":12332,"Ġundervejs":12333,"ĠME":12334,"Ġskrider":12335,"ribes":12336,"ĠrÃ¦ds":12337,"Ġgenopretningsplan":12338,"Ġmandags":12339,"Ġberolige":12340,"Ġkarakteristika":12341,"Ġsommetider":12342,"Ġsven":12343,"Ġopsving":12344,"Ġforbav":12345,"menien":12346,"Ġmindet":12347,"ĠValut":12348,"Ġ47":12349,"Ġkonkludere":12350,"skilder":12351,"balanceret":12352,"Ġerkendt":12353,"Ġannul":12354,"bistand":12355,"Ġuigennem":12356,"Ġforbedringen":12357,"Ã¨s":12358,"vÃ¦kst":12359,"Ġprotester":12360,"Ġhavnene":12361,"Ret":12362,"Ter":12363,"Ġugen":12364,"Ġtyr":12365,"Ġvandveje":12366,"Ġhenstillingen":12367,"ĠKÃ¸benhavnskriterierne":12368,"Ġdommere":12369,"Ruij":12370,"Wald":12371,"Ġarki":12372,"Ġinterim":12373,"arbejdslÃ¸s":12374,"Ġhorisontale":12375,"penge":12376,"Ġgerning":12377,"rens":12378,"Ã¥s":12379,"ikker":12380,"Ġanimal":12381,"Ġreferen":12382,"ĠSri":12383,"ĠfastsÃ¦ttelsen":12384,"Ġnaturlig":12385,"Ġillo":12386,"Ġforfatningstraktat":12387,"Ġbedrageri":12388,"Ġratifikation":12389,"ĠSwoboda":12390,"Ġpropaganda":12391,"arden":12392,"Ġrand":12393,"Ġ49":12394,"ĠmÃ¸dre":12395,"slimer":12396,"Ġrente":12397,"Ġmedicinske":12398,"ĠsÃ¦lger":12399,"jka":12400,"ras":12401,"Ġoptages":12402,"itÃ¦r":12403,"Ġarbejdes":12404,"Ġfuldgyld":12405,"Ġsystematiske":12406,"Ġbilleder":12407,"sagentur":12408,"Ġbench":12409,"Ġabsolutte":12410,"heimer":12411,"Ġofficiel":12412,"ĠmisforstÃ¥else":12413,"ĠleverandÃ¸rer":12414,"Ġmyrdet":12415,"Ġmarkerer":12416,"Ġydmyg":12417,"ĠJohannesburg":12418,"35":12419,"Sikkerhed":12420,"tivis":12421,"agh":12422,"sinstrumenter":12423,"Ġeksistensen":12424,"ĠernÃ¦ring":12425,"behand":12426,"Ġoversigt":12427,"kkelsen":12428,"hverv":12429,"Ġtilsluttet":12430,"Ġobserv":12431,"ĠdÃ¸den":12432,"ĠGrÃ¦kenlands":12433,"Ġtilpasninger":12434,"iskrimination":12435,"Ġlevestandard":12436,"ĠValutaf":12437,"500":12438,"ua":12439,"Ġforagt":12440,"egnet":12441,"Ġopspar":12442,"ĠsÃ¸nd":12443,"Ġgeop":12444,"ĠforudsÃ¦tningerne":12445,"porn":12446,"Ġministrene":12447,"Ġsammenlignelige":12448,"ĠHussein":12449,"ĠCambodja":12450,"ĠSen":12451,"Ġbudgetdisciplin":12452,"sbyg":12453,"Ã¦vner":12454,"Ġerhvervet":12455,"ĠgrÃ¦nsevÃ¦rdi":12456,"Ġsubstan":12457,"Ġgensidigt":12458,"Ġkaos":12459,"Ġkommunikationstekn":12460,"ĠSomalia":12461,"Ġuheldige":12462,"FIN":12463,"ĠatmosfÃ¦re":12464,"Ġinderligt":12465,"Ġudviklingslandenes":12466,"zone":12467,"Ġmasser":12468,"Ġtvetyd":12469,"hedens":12470,"sej":12471,"gerligt":12472,"angemann":12473,"Ġuddannelsen":12474,"skrifter":12475,"Ġpression":12476,"ĠretsvÃ¦senet":12477,"Udviklingen":12478,"kaldende":12479,"Ġdriver":12480,"Ġkontinentet":12481,"ĠpÃ¥stÃ¥r":12482,"Sol":12483,"zheimer":12484,"udi":12485,"oping":12486,"chad":12487,"ĠProgres":12488,"Ġmenneskerettighedskonvention":12489,"Ġskattel":12490,"afhÃ¦ngighed":12491,"Ġsatse":12492,"balance":12493,"ĠbeskÃ¦ftigelsespolitik":12494,"Ġskadeligt":12495,"funktion":12496,"ĠVenstreflÃ¸j":12497,"ĠchauffÃ¸rer":12498,"Ġskovbrande":12499,"nationale":12500,"ĠvÃ¦ld":12501,"rationen":12502,"Ġindledning":12503,"uret":12504,"ĠDomstol":12505,"endit":12506,"Ġstorm":12507,"spunktet":12508,"Ġpersonalet":12509,"ĠMenneskerettighedskommission":12510,"ĠuopsÃ¦ttelig":12511,"Ġlyttede":12512,"Ġherfra":12513,"Ġhvorimod":12514,"Ġhensynet":12515,"Ġfolkets":12516,"regn":12517,"sprogrammerne":12518,"Ġsvaghed":12519,"ĠusÃ¦dvanligt":12520,"Beslutning":12521,"Ġderegulering":12522,"Bendit":12523,"ET":12524,"Ġmejer":12525,"raft":12526,"skabs":12527,"ĠSarko":12528,"ĠmiljÃ¸mÃ¦ssigt":12529,"Hermed":12530,"Ġanbefaling":12531,"ĠafslÃ¸rer":12532,"Ġskatteydernes":12533,"Ġkoalition":12534,"Yder":12535,"Ġfora":12536,"Ġunderbyg":12537,"dialog":12538,"ledt":12539,"Ġsammenlignes":12540,"Ġbudskaber":12541,"Ġrygning":12542,"Ġgunstige":12543,"etent":12544,"Ġfyldt":12545,"Ġoftere":12546,"ĠomlÃ¦gning":12547,"ationalisering":12548,"Ġfremgik":12549,"ĠprÃ¦sent":12550,"Ġmedlemmers":12551,"Ġfredsproces":12552,"Ġbygges":12553,"leverand":12554,"Ġfaglig":12555,"Ġfundamental":12556,"Ã¼b":12557,"prioritet":12558,"Ġungdoms":12559,"Ġudskyde":12560,"Ġutvetydigt":12561,"Ġtildelingen":12562,"Ġlam":12563,"Ġhovedstad":12564,"ĠovervÃ¥ger":12565,"ĠmÃ¸derne":12566,"Ġkaldt":12567,"ĠudlÃ¸b":12568,"Ġsundt":12569,"ĠtiltrÃ¦kke":12570,"Ġarbejdsgiverne":12571,"60":12572,"reform":12573,"onds":12574,"Ġgu":12575,"Ġton":12576,"ĠfremhÃ¦vede":12577,"ĠbekrÃ¦ftes":12578,"Ġplaceret":12579,"Ġfossile":12580,"Ġvalutakur":12581,"Ġomdelt":12582,"amisbrug":12583,"ĠdrÃ¸ftelsen":12584,"virksomhederne":12585,"priori":12586,"Ġpladser":12587,"ĠDim":12588,"Ġsprede":12589,"tagelses":12590,"vide":12591,"ĠnÃ¦re":12592,"ĠnÃ¦ring":12593,"ĠvÃ¦rdig":12594,"Ġovervejet":12595,"Ġbudskabet":12596,"ĠtÃ¸rke":12597,"Ġsuspender":12598,"iness":12599,"Ġtuberkulose":12600,"Ġfremmet":12601,"ĠgodtgÃ¸relse":12602,"Ġbefolkningernes":12603,"Ġtrues":12604,"klÃ¦ringer":12605,"Ġomtaler":12606,"lusc":12607,"Ġkonsekvensanalyse":12608,"Ġsekretariat":12609,"Ġplatform":12610,"praksis":12611,"ĠEUF":12612,"opgaver":12613,"Ġhverdag":12614,"prÃ¦sident":12615,"Ġsektorens":12616,"Ġchancer":12617,"ĠgrÃ¦s":12618,"Ġbeslutningstagningen":12619,"Ġgenopbygge":12620,"essalon":12621,"ausuler":12622,"Ġafvente":12623,"Ġafviste":12624,"ĠPutin":12625,"Ġubetyd":12626,"ĠVenstreflÃ¸js":12627,"Ġbesat":12628,"ĠAustral":12629,"Ġkompetent":12630,"Ġvalgob":12631,"Ġopretholder":12632,"Ġforsvarlig":12633,"ĠforstÃ¥s":12634,"Ġangrebet":12635,"Ġforberedelser":12636,"ÃŃn":12637,"Ġkendetegn":12638,"Ġhundredtus":12639,"Ġsamordnet":12640,"Ġledsage":12641,"arzembowski":12642,"Ġarkite":12643,"Ġspir":12644,"Ġhenvendt":12645,"Ġfiskeriaftaler":12646,"ĠMiddelhavs":12647,"Ġsimpel":12648,"spolitikkerne":12649,"Befolkning":12650,"ĠmiljÃ¸venlig":12651,"Ġadvokater":12652,"spartner":12653,"ĠuforstÃ¥eligt":12654,"mi":12655,"skninger":12656,"Ġ120":12657,"ĠAd":12658,"Ġprodukterne":12659,"ĠudÃ¸velsen":12660,"Ġintensive":12661,"sspÃ¸rgsmÃ¥let":12662,"sprojekt":12663,"ĠFÃ¦llesgruppe":12664,"Ġkvoterne":12665,"ĠReding":12666,"ompetence":12667,"Ġvanskelighederne":12668,"ĠforvÃ¦rre":12669,"Ġkog":12670,"Ġsex":12671,"ĠbevÃ¦gelser":12672,"Ġstandarderne":12673,"Ġkendsgerningerne":12674,"Ġregnskaber":12675,"ĠsvÃ¦kker":12676,"Ġforfalskede":12677,"beslutning":12678,"Ġklovsyge":12679,"pla":12680,"tifik":12681,"Ġmur":12682,"Ġindustrialiserede":12683,"Ġkritikken":12684,"Ġdyres":12685,"ĠAfrikas":12686,"ĠbevÃ¦gelses":12687,"Ġbortfal":12688,"Ġhusdyr":12689,"Ġenergisektoren":12690,"Ġfinanskrise":12691,"pligtelser":12692,"Ġsoftware":12693,"24":12694,"Ġklub":12695,"rÃ¸ft":12696,"ĠmÃ¦rkeligt":12697,"ĠArmenien":12698,"Ġoptimistisk":12699,"Ġbeskyttelsesniveau":12700,"Ġkomplekst":12701,"Ġbevilget":12702,"ĠTjenesten":12703,"Ġentusia":12704,"NR":12705,"kere":12706,"ĠfÃ¸de":12707,"sklu":12708,"ruk":12709,"Ġoverstig":12710,"Ġfremkomme":12711,"ĠCat":12712,"ĠkohÃ¦r":12713,"Ġlinjer":12714,"ĠbÃ¸rneporn":12715,"ĠThessalon":12716,"ĠJacques":12717,"Ġfinansforordningen":12718,"ĠSovjetunionen":12719,"Ġforeskriver":12720,"Ġforrang":12721,"ĠkÃ¦r":12722,"Ġforbydes":12723,"ĠGD":12724,"Ġforsvares":12725,"Ġlevetid":12726,"ĠlÃ¸nmodtag":12727,"osta":12728,"Ġmateriel":12729,"ofre":12730,"ĠforÃ¥rsage":12731,"Ġretssager":12732,"Ġupartisk":12733,"bas":12734,"ners":12735,"Ġnat":12736,"tidigt":12737,"Ġmodet":12738,"Ġtrop":12739,"ĠÃĺer":12740,"Ġstrukturfonde":12741,"Ġmeddelte":12742,"Ġatomenergi":12743,"ĠJosÃ©":12744,"Navnlig":12745,"ĠGro":12746,"ĠopnÃ¥else":12747,"Ġterrorhandlinger":12748,"Ġblandede":12749,"Ġjernbaner":12750,"ĠforÃ¥rsag":12751,"Ġbifalde":12752,"hardt":12753,"Ġdukker":12754,"Ġtrafikken":12755,"ĠstÃ¸rrelses":12756,"Ġisolation":12757,"Ġurimelige":12758,"Ġhomoseksuelle":12759,"ĠFolkere":12760,"Ġudsendt":12761,"istans":12762,"Ġgennemtvinge":12763,"rupperne":12764,"ubsidi":12765,"ĠkrÃ¦nkes":12766,"ĠtrovÃ¦rdigt":12767,"Ġlastbiler":12768,"ĠWatson":12769,"Tidligere":12770,"Ġukl":12771,"ĠEur":12772,"Ġopinion":12773,"ĠDal":12774,"Ġaftalens":12775,"Ġtrue":12776,"komitÃ©":12777,"Ġfaciliteter":12778,"Visse":12779,"cis":12780,"Ġenigt":12781,"ĠomsÃ¦ttes":12782,"ikanen":12783,"Ġspar":12784,"cerende":12785,"ĠfÃ¦llesskabsret":12786,"Ġuddannelser":12787,"Ġklimaet":12788,"industriens":12789,"Ġpartnerskabet":12790,"ĠIrlands":12791,"Ġuhensigt":12792,"smetoden":12793,"Ġindbyggerne":12794,"tanke":12795,"Ġoverstiger":12796,"SÃ¦r":12797,"delsen":12798,"Ġplus":12799,"Ġtvister":12800,"ĠmodstÃ¥":12801,"opro":12802,"skrives":12803,"ĠnÃ¦rheden":12804,"Ġstaternes":12805,"ĠpÃ¥peges":12806,"Ġmedvirken":12807,"GennemfÃ¸relsen":12808,"egod":12809,"Ġtryg":12810,"Ġbebo":12811,"ttelig":12812,"ĠTAC":12813,"Ġfalsk":12814,"diox":12815,"Ġdagligdag":12816,"gis":12817,"ftfart":12818,"ĠStille":12819,"Ġgennembrud":12820,"ĠGruppes":12821,"Ġfuldkommen":12822,"strategiens":12823,"Ġopbygget":12824,"Ġtungt":12825,"Ġmedvirker":12826,"Ġoptimisme":12827,"Ġengagerede":12828,"ĠpÃ¥lidelig":12829,"Ġbiodiversiteten":12830,"ĠKanariske":12831,"ĠCorbet":12832,"Ġringere":12833,"39":12834,"Ġdisses":12835,"agerne":12836,"Ġubest":12837,"Ġledes":12838,"skad":12839,"ĠFi":12840,"lot":12841,"ĠtilfÃ¸jer":12842,"Ġkolde":12843,"Ġenklere":12844,"monisering":12845,"Ġakut":12846,"Ġintens":12847,"ĠNordafrika":12848,"Ġradioaktivt":12849,"kapacitet":12850,"Ġsvensk":12851,"how":12852,"ĠÃ¦g":12853,"inet":12854,"Ġmiddelhav":12855,"skrise":12856,"Ġantid":12857,"auer":12858,"ĠLife":12859,"Ġlandbrugets":12860,"ĠUdviklingsudvalget":12861,"Ġideologi":12862,"Ġrekru":12863,"Ġledsaget":12864,"Ġimperialistiske":12865,"Ġinteressenter":12866,"kos":12867,"elÃ¸n":12868,"ĠansvarsomrÃ¥der":12869,"slip":12870,"sprincipper":12871,"Ġjurisdik":12872,"bol":12873,"tiop":12874,"Ġmilep":12875,"Ġbre":12876,"defin":12877,"Ġuran":12878,"andt":12879,"ĠforblÃ¸":12880,"Ġsocialistiske":12881,"Ġfordeles":12882,"mail":12883,"Ġ41":12884,"Ġterrorb":12885,"ĠfjerkrÃ¦":12886,"Ġdyrere":12887,"ĠArk":12888,"ĠJohn":12889,"ĠtilfÃ¦ldigt":12890,"ĠGeneralforsamling":12891,"Ġlemp":12892,"Ġitaliensk":12893,"Ġkrisesituation":12894,"ĠBasel":12895,"ĠThessaloniki":12896,"listen":12897,"orf":12898,"Ġfugle":12899,"Ġikkes":12900,"Ġspansk":12901,"Forhandlingerne":12902,"Ġtem":12903,"Ġdelte":12904,"stration":12905,"Ġforpligtelses":12906,"Ġrisikere":12907,"Ġperioder":12908,"ĠParti":12909,"Ġoverbeviste":12910,"kapital":12911,"Ġretorik":12912,"Slu":12913,"pladser":12914,"ania":12915,"omin":12916,"terror":12917,"Ġomsorg":12918,"rÃ¦kke":12919,"sprincip":12920,"liber":12921,"ĠPo":12922,"ĠtilfÃ¸jelse":12923,"vesteringer":12924,"sfuld":12925,"Ġkonfront":12926,"ĠudÃ¸velse":12927,"Ġinflationen":12928,"mekanismer":12929,"gne":12930,"Ġhon":12931,"Ġetape":12932,"ĠCE":12933,"ĠfÃ¸lte":12934,"algs":12935,"Ġudtrykket":12936,"ĠVitor":12937,"ĠmenneskerettighedskrÃ¦n":12938,"Ġkapitler":12939,"Ġtilsyns":12940,"KOFIN":12941,"Ġerkendelse":12942,"Ġforfalskning":12943,"sinstrumentet":12944,"Ġskolerne":12945,"Ġopsplit":12946,"Grund":12947,"lÃ¥":12948,"pal":12949,"vurdere":12950,"igin":12951,"Ġkob":12952,"Ġanf":12953,"Ġmandatet":12954,"Ġforhindres":12955,"fremkaldende":12956,"Ġsommeren":12957,"passende":12958,"ĠkÃ¸replanen":12959,"Ġantibiotika":12960,"ĠAustralien":12961,"yan":12962,"Ġskolen":12963,"Ġkanaler":12964,"ĠGon":12965,"Ġrelationerne":12966,"Ġindvirkningen":12967,"ĠforÃ¦ldede":12968,"Ġgyldighed":12969,"Ġdiverse":12970,
[...]
